<unk>	0
<s>	0
</s>	0
▁,	-3.1486
▁.	-3.20444
▁the	-3.24201
▁to	-3.77307
▁of	-3.79476
▁and	-3.88599
s	-4.01231
▁in	-4.47837
▁a	-4.49762
ed	-4.53236
▁you	-4.71835
▁that	-4.74293
ing	-4.85806
▁is	-4.862
▁will	-4.90736
ʹ	-4.94684
▁“	-4.97677
▁I	-5.03112
▁Jehovah	-5.03886
▁for	-5.04345
▁”	-5.06534
▁his	-5.1092
▁?	-5.15006
▁’	-5.19403
▁not	-5.19622
▁with	-5.21034
▁he	-5.21368
▁The	-5.22642
▁be	-5.24268
▁s	-5.26066
·	-5.27724
ly	-5.28443
y	-5.31048
▁we	-5.35137
▁:	-5.39266
▁God	-5.39784
▁your	-5.43073
▁it	-5.4546
▁on	-5.51299
▁(	-5.5206
▁)	-5.53874
▁are	-5.55065
▁was	-5.57576
▁have	-5.58192
▁;	-5.59365
▁from	-5.62077
▁they	-5.65276
▁him	-5.65436
▁as	-5.65548
▁who	-5.70689
▁them	-5.72417
▁all	-5.75207
d	-5.77977
▁And	-5.82521
▁us	-5.85617
▁their	-5.89127
▁by	-5.92928
▁	-5.95552
▁one	-5.97573
▁this	-5.98596
▁our	-6.00379
▁what	-6.00405
▁do	-6.02053
▁my	-6.03245
▁Jesus	-6.07416
▁me	-6.09001
▁can	-6.13054
▁were	-6.15059
▁or	-6.15202
e	-6.15387
▁people	-6.16939
▁said	-6.17277
n	-6.18179
▁has	-6.21202
▁2	-6.22076
▁had	-6.25906
▁up	-6.26342
▁He	-6.27675
▁1	-6.2926
▁out	-6.32969
▁at	-6.3746
▁!	-6.39631
-	-6.42984
▁A	-6.4324
▁3	-6.46825
▁How	-6.46966
▁but	-6.47617
▁What	-6.48986
▁But	-6.49751
▁did	-6.51406
▁when	-6.51488
▁4	-6.52707
▁man	-6.5324
▁so	-6.53316
▁an	-6.53614
▁5	-6.5437
t	-6.54605
▁those	-6.57051
▁w	-6.58561
▁may	-6.58799
▁about	-6.59137
▁6	-6.61088
a	-6.62918
▁there	-6.63006
▁In	-6.64325
▁make	-6.67286
▁So	-6.68527
▁‘	-6.68998
▁love	-6.70316
▁no	-6.70734
▁You	-6.71613
▁would	-6.72322
▁should	-6.73567
▁12	-6.73909
▁For	-6.73978
▁into	-6.76163
▁her	-6.78948
▁like	-6.79154
▁10	-6.79413
▁life	-6.82176
▁Bible	-6.82644
▁good	-6.83609
▁7	-6.84008
▁things	-6.84018
f	-6.84062
▁8	-6.85362
▁how	-6.86236
▁11	-6.86794
▁because	-6.87167
▁day	-6.88176
▁15	-6.88394
▁13	-6.88628
▁also	-6.89135
▁if	-6.89805
▁take	-6.91061
▁We	-6.92616
▁It	-6.95174
▁14	-6.95652
▁When	-6.95669
▁9	-6.95711
▁time	-6.96224
▁son	-6.96557
▁give	-6.96748
▁Israel	-6.98184
▁men	-6.98364
▁help	-6.98453
▁way	-6.99048
▁does	-6.99059
▁made	-6.99834
▁king	-7.02396
▁over	-7.0288
▁come	-7.03472
▁been	-7.03644
▁earth	-7.04818
on	-7.04863
▁house	-7.04953
—	-7.05145
▁land	-7.05187
▁before	-7.0521
▁19	-7.05301
er	-7.08116
▁down	-7.09173
▁against	-7.0965
▁17	-7.10232
ah	-7.1032
▁16	-7.10353
▁Thi	-7.10442
▁18	-7.10703
▁more	-7.11149
▁20	-7.11192
▁must	-7.11333
▁these	-7.11406
▁work	-7.13618
▁great	-7.14564
ever	-7.1457
▁name	-7.14848
▁Wh	-7.15729
▁know	-7.16985
▁see	-7.18463
▁am	-7.1894
hich	-7.19
▁some	-7.19288
▁say	-7.19714
▁put	-7.20008
▁came	-7.21237
▁heart	-7.21467
▁other	-7.22057
▁show	-7.22629
▁become	-7.25521
▁sons	-7.26138
▁E	-7.26464
▁its	-7.26742
▁own	-7.26926
▁many	-7.27125
▁spirit	-7.27478
▁go	-7.28061
▁.—	-7.28099
▁As	-7.29379
▁than	-7.31082
▁place	-7.31307
▁then	-7.31787
▁Do	-7.32234
▁hand	-7.33262
▁David	-7.35302
▁g	-7.35697
▁—	-7.3611
▁such	-7.36128
▁she	-7.36589
▁Christ	-7.37185
▁away	-7.3729
▁need	-7.38651
▁through	-7.38796
▁even	-7.39297
▁keep	-7.40358
▁b	-7.40666
▁others	-7.40817
▁21	-7.41083
▁just	-7.41517
▁want	-7.42945
▁could	-7.44643
▁O	-7.451
▁faith	-7.4525
▁father	-7.46307
▁22	-7.4759
▁now	-7.48628
▁let	-7.49247
i	-7.49297
▁world	-7.49515
▁first	-7.51265
▁after	-7.51273
▁Th	-7.5188
▁wh	-7.52268
es	-7.52513
ave	-7.52906
nt	-7.52983
▁says	-7.53201
▁bring	-7.53482
▁call	-7.55069
▁word	-7.55112
▁Paul	-7.55819
▁years	-7.56015
▁brothers	-7.56137
▁John	-7.56143
▁24	-7.56269
▁ho	-7.56667
se	-7.57189
▁two	-7.57685
al	-7.58075
▁words	-7.58415
▁Kingdom	-7.59054
▁un	-7.59124
▁among	-7.60476
▁any	-7.60553
▁To	-7.61374
at	-7.61495
▁saying	-7.61644
▁Lord	-7.63102
▁true	-7.64034
▁right	-7.6421
▁death	-7.64223
▁There	-7.64525
▁only	-7.64614
▁23	-7.65447
ok	-7.65453
ness	-7.65938
▁look	-7.66015
▁another	-7.66689
o	-7.66983
▁where	-7.67103
▁S	-7.67329
▁well	-7.68058
▁every	-7.68271
▁each	-7.68584
▁days	-7.69859
came	-7.72699
▁congregation	-7.72718
▁Moses	-7.72873
out	-7.73157
▁:1	-7.73994
▁'	-7.74335
▁children	-7.74994
▁learn	-7.75353
▁example	-7.76349
ce	-7.76485
▁get	-7.77175
▁25	-7.77283
▁Now	-7.77447
▁back	-7.77532
▁use	-7.78376
▁Jerusalem	-7.78736
▁person	-7.78771
re	-7.79072
▁[	-7.79576
▁being	-7.79626
▁heaven	-7.79739
▁]	-7.79958
▁whom	-7.80044
▁city	-7.80093
▁might	-7.80121
le	-7.80125
▁At	-7.80373
▁Let	-7.81121
▁himself	-7.82629
▁young	-7.83325
ies	-7.83598
th	-7.83906
▁Christian	-7.84347
▁B	-7.8466
▁family	-7.85967
▁given	-7.8598
▁King	-7.86241
▁power	-7.86419
in	-7.86701
▁:9	-7.87369
▁turn	-7.87818
▁ones	-7.88196
▁sin	-7.88411
▁eyes	-7.89505
▁Peter	-7.89542
▁serve	-7.90254
▁M	-7.90304
▁Father	-7.9078
▁means	-7.91298
▁eat	-7.91428
▁times	-7.92409
▁read	-7.92589
▁set	-7.93187
▁saw	-7.93558
▁follow	-7.93763
▁:4	-7.93953
▁brought	-7.93973
▁Satan	-7.9419
▁:3	-7.94469
▁26	-7.9456
▁servants	-7.94717
▁sent	-7.95146
▁:5	-7.95154
▁Christians	-7.95438
▁together	-7.95508
▁end	-7.96483
▁Be	-7.9682
▁spiritual	-7.97108
▁Judah	-7.97499
▁tell	-7.97619
▁part	-7.97646
▁wife	-7.97845
▁blood	-7.98177
r	-7.9818
▁under	-7.98353
el	-7.98587
▁Son	-7.98983
ame	-7.992
▁found	-7.99294
▁new	-7.99507
ion	-7.99799
▁order	-8.00255
▁After	-8.00343
▁water	-8.00623
▁:8	-8.00772
▁never	-8.01288
▁:11	-8.01696
▁find	-8.0219
▁:10	-8.02342
▁nations	-8.02407
▁Ps	-8.02717
▁brother	-8.02881
▁began	-8.03162
▁Who	-8.03284
▁long	-8.03352
▁truth	-8.0421
▁consider	-8.04214
▁much	-8.04233
▁27	-8.0426
▁c	-8.04435
▁28	-8.04764
▁:13	-8.04943
▁done	-8.05165
▁:14	-8.05224
▁One	-8.06277
▁old	-8.06433
▁offering	-8.06483
▁p	-8.06616
▁disciples	-8.06644
▁Je	-8.06848
▁today	-8.07178
▁fear	-8.07622
▁:7	-8.07696
▁worship	-8.08515
▁:2	-8.08665
▁C	-8.09154
li	-8.1
less	-8.10076
▁t	-8.10498
▁30	-8.10659
▁r	-8.10666
▁All	-8.10874
▁living	-8.10925
▁Israelites	-8.11159
▁face	-8.1184
▁:12	-8.12508
▁wicked	-8.12689
▁live	-8.12992
▁speak	-8.12998
▁return	-8.12998
▁doing	-8.13118
▁heard	-8.13499
▁feel	-8.13799
▁again	-8.14174
fore	-8.14198
▁She	-8.14781
▁until	-8.14849
▁e	-8.14953
▁food	-8.1525
▁mind	-8.15566
▁:6	-8.16108
▁On	-8.16329
▁real	-8.16656
▁woman	-8.16735
▁Egypt	-8.17225
▁three	-8.1728
▁29	-8.17293
▁:16	-8.17524
▁Word	-8.17966
▁:17	-8.18004
▁peace	-8.18121
▁faithful	-8.18439
Co	-8.19156
▁important	-8.20197
▁:15	-8.20212
ites	-8.20583
▁benefit	-8.21183
▁while	-8.21373
▁righteous	-8.21425
▁Matthew	-8.21839
▁year	-8.21876
▁view	-8.21896
▁news	-8.22157
▁something	-8.22337
▁wisdom	-8.22471
▁matter	-8.22759
▁told	-8.2277
▁d	-8.23236
▁declare	-8.23484
▁ways	-8.23749
able	-8.2401
kept	-8.24802
▁No	-8.24917
▁My	-8.25047
▁off	-8.25518
▁fire	-8.25696
▁remain	-8.25768
▁With	-8.25838
▁spoke	-8.26118
▁His	-8.26958
▁priest	-8.27808
▁most	-8.28319
very	-8.29233
▁teaching	-8.29327
ity	-8.29619
▁human	-8.29666
▁cause	-8.30369
▁By	-8.30405
▁near	-8.30878
▁though	-8.3105
▁Your	-8.31054
mon	-8.31063
▁head	-8.31093
▁seven	-8.31527
▁still	-8.31788
▁going	-8.32447
▁left	-8.32926
▁certain	-8.32936
▁:19	-8.3295
▁ask	-8.32996
▁angel	-8.33095
▁yourself	-8.33269
ecause	-8.33355
▁hands	-8.33525
▁too	-8.33693
▁around	-8.3408
▁according	-8.34132
▁sure	-8.34298
▁themselves	-8.34384
▁mother	-8.34395
▁whole	-8.34468
▁full	-8.34706
▁31	-8.3499
▁Pr	-8.35113
▁someone	-8.35537
▁reason	-8.35646
▁Witnesses	-8.35696
▁think	-8.36248
▁toward	-8.36302
▁bad	-8.36418
▁servant	-8.37205
u	-8.37383
▁walk	-8.37574
giving	-8.37846
▁Abraham	-8.38018
▁hope	-8.38258
ri	-8.3833
▁strong	-8.38528
▁coming	-8.38579
▁free	-8.39057
▁heavens	-8.3908
▁dead	-8.39206
▁listen	-8.3929
▁f	-8.39424
▁night	-8.3973
▁able	-8.39988
▁between	-8.4023
▁course	-8.40401
▁Psalm	-8.40821
▁answer	-8.41058
m	-8.41103
▁,000	-8.4144
▁light	-8.41472
▁offer	-8.41725
▁accept	-8.41804
▁Re	-8.4197
▁war	-8.42039
▁32	-8.42252
▁Corinthians	-8.42314
▁act	-8.4243
▁mak	-8.42457
▁Jacob	-8.43019
▁gold	-8.43028
▁high	-8.43665
▁field	-8.43698
▁law	-8.43879
▁child	-8.44085
▁result	-8.44085
▁clean	-8.44115
▁far	-8.44299
▁dur	-8.44811
▁elders	-8.45841
▁knowledge	-8.45892
▁happen	-8.46071
▁priests	-8.4624
▁both	-8.4652
▁present	-8.46583
▁cities	-8.46627
▁kind	-8.47167
▁Isa	-8.47293
▁service	-8.47551
▁here	-8.47816
▁flesh	-8.48147
▁Law	-8.48473
▁continue	-8.48756
▁body	-8.48898
est	-8.49345
▁provide	-8.49574
▁yet	-8.49597
▁nothing	-8.49624
▁nor	-8.49778
▁wise	-8.49832
▁along	-8.50022
▁fellow	-8.50048
▁sea	-8.50178
p	-8.50244
▁apostle	-8.50642
▁al	-8.50937
▁always	-8.51169
▁rest	-8.51707
▁Go	-8.51732
▁:18	-8.52083
▁Some	-8.52338
▁Our	-8.52349
▁anyone	-8.52428
▁Look	-8.5345
ment	-8.53464
▁number	-8.53542
▁loyal	-8.53832
▁Even	-8.53997
▁May	-8.54243
▁concern	-8.54435
▁Am	-8.5447
▁From	-8.54832
▁See	-8.54988
ation	-8.55122
▁-	-8.55135
▁regard	-8.55231
▁Luke	-8.55324
▁pray	-8.55351
ab	-8.55482
▁send	-8.5587
▁Ro	-8.56026
▁34	-8.56085
▁33	-8.56153
▁carry	-8.56235
▁stand	-8.56472
im	-8.56569
▁fine	-8.56648
▁Read	-8.56788
▁gift	-8.56852
▁please	-8.57151
▁humans	-8.57188
▁l	-8.57478
▁support	-8.57656
▁rule	-8.57827
▁altar	-8.57861
▁account	-8.57869
▁try	-8.58078
▁respect	-8.58142
▁asked	-8.58214
▁Babylon	-8.58245
▁righteousness	-8.5834
▁forever	-8.58518
▁drink	-8.58524
▁Saul	-8.58686
ir	-8.58928
▁care	-8.59502
▁voice	-8.59724
▁pass	-8.59737
▁sword	-8.5988
▁home	-8.60172
▁die	-8.6018
▁Lu	-8.60392
▁hear	-8.60519
▁hold	-8.60673
en	-8.60699
▁prayer	-8.60789
▁complete	-8.60971
▁glory	-8.60986
▁parents	-8.61691
▁study	-8.61909
▁wrong	-8.6205
▁hard	-8.62239
went	-8.62381
▁side	-8.62411
▁:20	-8.62728
▁thing	-8.62822
▁Yes	-8.62872
▁enter	-8.62914
▁daughter	-8.63041
▁deep	-8.63107
▁case	-8.63129
▁Ba	-8.63144
rote	-8.63472
▁seen	-8.63573
▁:23	-8.6366
▁share	-8.63833
▁ever	-8.63888
▁gather	-8.63915
▁praise	-8.64159
ous	-8.64215
am	-8.64463
▁women	-8.6487
▁kindness	-8.656
▁understand	-8.65621
▁prophet	-8.65689
▁35	-8.65708
▁ministry	-8.65759
▁last	-8.65862
▁litt	-8.65881
▁Jews	-8.65979
▁fact	-8.6613
▁husband	-8.66388
▁everything	-8.66655
▁Ac	-8.67029
ether	-8.67173
▁often	-8.67291
▁receive	-8.67305
▁sheep	-8.67325
▁hav	-8.67577
▁Acts	-8.67641
▁sins	-8.67722
or	-8.67733
▁m	-8.67782
▁:24	-8.6785
▁joy	-8.68205
▁mouth	-8.68226
▁anything	-8.68261
ni	-8.68286
▁believe	-8.68316
ers	-8.68674
▁best	-8.68729
▁Job	-8.69177
▁preaching	-8.69343
▁written	-8.69605
▁works	-8.69721
▁enjoy	-8.69805
▁covenant	-8.70063
▁sound	-8.70105
▁witness	-8.70151
▁false	-8.70291
▁ourselves	-8.70295
▁perfect	-8.70296
▁died	-8.70527
▁Like	-8.70528
▁question	-8.7058
▁40	-8.7074
▁questions	-8.70942
▁temple	-8.70994
▁tent	-8.71376
▁Man	-8.71429
▁decisions	-8.71509
▁Samuel	-8.71699
▁:22	-8.7187
▁:28	-8.71945
▁strength	-8.72152
▁avoid	-8.72274
▁obey	-8.72294
▁Ma	-8.72385
▁book	-8.72738
▁ear	-8.72871
▁37	-8.73368
ose	-8.73427
▁burn	-8.73429
▁got	-8.73468
▁close	-8.73538
▁loving	-8.73601
▁comes	-8.73925
▁Noah	-8.74217
▁Is	-8.7431
▁crowd	-8.74346
▁open	-8.74406
▁Ha	-8.74803
▁W	-8.74992
▁reading	-8.75124
▁personal	-8.75137
▁Romans	-8.7579
▁lead	-8.7589
▁later	-8.76287
▁better	-8.76589
▁trust	-8.7679
▁T	-8.769
▁counsel	-8.76978
▁talk	-8.76985
▁Jo	-8.77062
▁build	-8.77208
▁:21	-8.77352
▁move	-8.77378
▁sacrifice	-8.77913
▁commanded	-8.78039
▁judgment	-8.78275
▁freedom	-8.78783
g	-8.78885
▁Joh	-8.789
▁attention	-8.79044
▁Ge	-8.79336
▁mountain	-8.79888
▁ver	-8.79888
▁Or	-8.80031
▁promise	-8.80039
▁teach	-8.80347
▁sense	-8.80531
▁different	-8.80566
▁known	-8.80616
▁apply	-8.80619
▁Heb	-8.80756
us	-8.80759
ite	-8.81054
▁Adam	-8.8108
▁Joseph	-8.81595
▁seem	-8.81711
▁silver	-8.81856
an	-8.81908
▁rejoice	-8.82117
▁situation	-8.82117
▁lives	-8.82349
▁money	-8.82379
▁chief	-8.82381
▁principle	-8.82643
▁yourselves	-8.82918
▁Proverbs	-8.82975
▁P	-8.83091
▁Sovereign	-8.83168
▁explain	-8.83168
▁grain	-8.83168
▁Aaron	-8.83433
▁marriage	-8.83698
▁form	-8.83961
▁feet	-8.83969
the	-8.8416
▁effort	-8.84231
▁remember	-8.84259
▁soon	-8.84581
▁authority	-8.84767
ful	-8.85081
▁experience	-8.85285
▁speaking	-8.85845
▁ground	-8.85855
▁kings	-8.86068
▁longer	-8.86307
▁public	-8.86321
▁material	-8.86444
▁choose	-8.86494
▁Ab	-8.86674
▁draw	-8.86703
▁slave	-8.86807
▁second	-8.86937
▁bread	-8.86979
▁four	-8.87185
▁mean	-8.87204
though	-8.87249
de	-8.87297
▁hearts	-8.87366
▁happy	-8.87487
▁large	-8.88041
▁meetings	-8.88392
▁birth	-8.88867
▁h	-8.88885
▁Of	-8.89044
▁camp	-8.89156
▁Isaiah	-8.89213
▁sacred	-8.89437
▁honor	-8.89469
▁month	-8.89595
▁appoint	-8.89699
▁armies	-8.89736
▁involve	-8.89905
ather	-8.89923
▁De	-8.90078
▁Eph	-8.90126
▁encourage	-8.90265
▁conscience	-8.90285
▁message	-8.90285
▁next	-8.90285
▁allow	-8.90386
▁favor	-8.90395
▁language	-8.90503
▁few	-8.90572
▁friends	-8.9073
▁anger	-8.91405
▁apostles	-8.91568
▁desire	-8.91607
▁army	-8.9164
ic	-8.91701
▁possible	-8.92023
▁continued	-8.92295
▁R	-8.92335
▁Jer	-8.92577
▁precious	-8.92581
▁meet	-8.9276
▁Ye	-8.92819
▁36	-8.9293
▁Where	-8.92988
▁meeting	-8.92991
▁sign	-8.93329
▁forefathers	-8.93376
▁enemies	-8.93455
▁strengthen	-8.9349
▁Scriptures	-8.93511
▁reach	-8.93524
16	-8.93682
▁Cor	-8.93857
c	-8.94048
E	-8.94075
taking	-8.94182
▁future	-8.94337
▁male	-8.94485
▁Hebrews	-8.94733
▁daughters	-8.94748
▁Matt	-8.94851
▁La	-8.94852
▁serving	-8.9493
▁Genesis	-8.94999
l	-8.9552
▁judge	-8.95688
to	-8.95693
▁god	-8.95694
▁Ca	-8.9573
▁tree	-8.95825
▁Timothy	-8.95825
▁point	-8.95936
▁Beth	-8.96139
▁:25	-8.96278
▁kingdom	-8.96451
deserved	-8.9652
▁bear	-8.96606
▁leave	-8.96687
▁fall	-8.96866
▁Joshua	-8.97649
▁clear	-8.97748
▁"	-8.98
▁stay	-8.98392
▁F	-8.98465
hap	-8.98484
▁appear	-8.98554
▁Are	-8.98696
▁unclean	-8.98823
ting	-8.98847
▁regular	-8.9887
ther	-8.9893
▁wine	-8.98984
ba	-8.99129
▁mankind	-8.99201
▁sister	-8.99228
S	-8.99419
▁anointed	-8.99429
▁imitate	-8.99789
▁Phi	-9.00043
▁forgive	-9.00187
▁ransom	-9.00428
read	-9.00674
▁respond	-9.00742
▁tru	-9.00766
▁conduct	-9.0106
▁justice	-9.0106
▁gods	-9.01105
▁received	-9.01106
uch	-9.01127
▁38	-9.01282
▁watch	-9.01287
ho	-9.01328
▁morning	-9.01374
▁sexual	-9.01382
▁nation	-9.01729
truck	-9.0176
▁system	-9.0201
▁value	-9.0201
▁difficult	-9.0201
lis	-9.02153
▁direct	-9.02255
▁since	-9.02422
▁pay	-9.02697
▁waters	-9.02859
▁Sol	-9.03067
▁blessing	-9.03214
▁country	-9.03299
▁alone	-9.03301
▁wilderness	-9.03618
▁Watch	-9.03618
▁everlasting	-9.03619
▁Al	-9.03723
▁everyone	-9.03964
▁prophets	-9.04323
▁loved	-9.04614
▁careful	-9.04871
▁en	-9.05157
▁record	-9.05252
▁Consider	-9.05578
▁Will	-9.05582
▁powerful	-9.05654
▁observe	-9.05833
b	-9.05844
▁mercy	-9.05913
▁government	-9.05927
▁spread	-9.05935
▁Ho	-9.06002
▁cubit	-9.06245
▁sort	-9.06247
▁oil	-9.06258
▁hate	-9.06391
▁purpose	-9.06421
▁age	-9.06902
▁grow	-9.07037
ha	-9.07078
▁express	-9.07159
▁treat	-9.07237
▁sacrifices	-9.07333
▁places	-9.07358
▁:26	-9.07641
▁Revelation	-9.0797
▁gain	-9.07995
▁Le	-9.08079
la	-9.08164
▁seek	-9.08257
▁needs	-9.08295
▁stop	-9.0838
▁fruit	-9.08963
▁born	-9.08983
▁step	-9.09264
▁cut	-9.09633
▁inheritance	-9.09633
▁Have	-9.09748
▁needed	-9.10408
▁attend	-9.10664
▁else	-9.10668
ra	-9.10806
▁command	-9.10852
▁decision	-9.10948
▁tribe	-9.10961
▁five	-9.11038
▁bow	-9.1105
▁small	-9.11281
▁evil	-9.11366
▁alive	-9.11386
▁direction	-9.11413
ile	-9.11422
ma	-9.11599
▁master	-9.11624
▁article	-9.11653
▁Thu	-9.11703
▁change	-9.11714
▁Just	-9.1172
▁stone	-9.11748
▁Not	-9.11778
▁affect	-9.1202
▁neighbor	-9.12064
▁Jeremiah	-9.1208
na	-9.12357
▁mov	-9.12384
▁reward	-9.12405
ive	-9.12406
▁:29	-9.12728
▁generation	-9.12786
▁fel	-9.12902
▁Phar	-9.13129
▁More	-9.13227
▁Levites	-9.13383
▁sun	-9.13457
ure	-9.13576
▁standing	-9.13793
aoh	-9.13837
▁taught	-9.13862
▁mighty	-9.13924
▁Mark	-9.13942
ach	-9.14307
bo	-9.14423
▁sisters	-9.14512
ki	-9.14891
▁Mo	-9.14994
▁understanding	-9.15116
▁afraid	-9.15295
▁serious	-9.15297
▁answered	-9.15374
▁speech	-9.15599
▁James	-9.1569
▁J	-9.16024
▁third	-9.16026
▁destruction	-9.16026
▁entire	-9.16027
▁myself	-9.16043
▁self	-9.16044
▁possession	-9.16052
▁includ	-9.1623
▁ten	-9.16307
▁thoughts	-9.16331
h	-9.16365
▁comfort	-9.1637
▁approach	-9.16426
▁cry	-9.16458
▁raised	-9.16791
k	-9.17043
▁quick	-9.17133
▁integrity	-9.17133
▁built	-9.17136
▁issue	-9.17145
▁guilt	-9.17146
▁:27	-9.1715
ad	-9.1718
▁D	-9.17237
▁pour	-9.1753
▁lived	-9.17663
▁walking	-9.17745
▁encouragement	-9.18278
▁Ne	-9.18406
▁guard	-9.18621
▁thought	-9.18636
ough	-9.1867
▁test	-9.18784
▁thinking	-9.18896
▁distress	-9.19007
▁deal	-9.19016
▁relationship	-9.19057
▁throw	-9.19072
▁above	-9.19251
▁39	-9.19333
▁protect	-9.19347
▁throne	-9.19384
▁Me	-9.19726
▁inhabitants	-9.19958
▁knew	-9.20146
▁lord	-9.20611
▁page	-9.20647
zar	-9.20657
▁interest	-9.21015
▁Ruth	-9.21334
▁baptiz	-9.21772
▁members	-9.21991
▁salvation	-9.22098
▁battle	-9.2215
▁families	-9.22467
▁offspring	-9.22468
▁Come	-9.22468
▁Keep	-9.22468
▁chapter	-9.22468
▁front	-9.22472
▁health	-9.22481
special	-9.2258
▁pain	-9.22786
▁41	-9.22834
▁poor	-9.2286
▁informati	-9.22976
▁start	-9.23049
▁region	-9.23253
▁fully	-9.23308
▁laws	-9.2332
▁organization	-9.23494
▁knows	-9.23706
▁friend	-9.23825
▁include	-9.23851
▁ancient	-9.24101
▁minister	-9.24168
tines	-9.24426
▁Love	-9.24457
tory	-9.24534
▁creature	-9.24846
▁measure	-9.25004
▁school	-9.25005
▁Da	-9.25091
▁commandments	-9.25179
▁tongue	-9.25245
▁outside	-9.25296
▁join	-9.25497
▁save	-9.25566
▁honest	-9.26054
▁filled	-9.26072
lso	-9.26126
▁foreign	-9.26415
▁religious	-9.2646
▁Isaac	-9.26463
▁fell	-9.26488
▁travel	-9.26587
man	-9.26932
▁Ben	-9.26972
9	-9.26985
▁practice	-9.2723
▁Take	-9.27281
▁replied	-9.27294
▁resurrection	-9.27295
▁pure	-9.27315
▁demons	-9.27363
▁promised	-9.27439
▁followers	-9.27475
▁Bo	-9.27485
▁Daniel	-9.27719
▁seeking	-9.27811
▁gate	-9.27979
▁expect	-9.28063
▁:31	-9.28101
tion	-9.28603
▁religion	-9.28776
▁destroy	-9.28822
▁reflect	-9.28874
▁Ex	-9.2892
▁Devil	-9.28934
▁Greek	-9.28934
▁flock	-9.29211
▁offerings	-9.29292
▁maintain	-9.29353
▁dwell	-9.29414
▁past	-9.29497
sa	-9.29619
▁discuss	-9.29737
▁Jordan	-9.29773
▁break	-9.29795
▁Ephesians	-9.29851
▁suffering	-9.30146
▁feelings	-9.30502
thus	-9.30529
ron	-9.30623
ve	-9.30692
▁50	-9.30698
▁effect	-9.31033
▁behalf	-9.31044
▁gone	-9.31129
▁An	-9.3113
Read	-9.31192
▁preach	-9.31215
▁garments	-9.31274
▁fight	-9.31552
nah	-9.31684
▁carrie	-9.317
▁opportunity	-9.31901
▁—1	-9.31922
▁depart	-9.32007
▁Give	-9.32291
▁Tru	-9.3232
▁establish	-9.32387
▁request	-9.32654
▁examine	-9.33089
▁qualities	-9.33199
▁boy	-9.33203
▁wives	-9.33214
▁.—1	-9.33224
men	-9.33304
▁animals	-9.33377
▁seed	-9.33568
▁Ja	-9.33613
▁prove	-9.33826
▁lie	-9.33882
ither	-9.34167
Pe	-9.34315
zi	-9.34608
▁killed	-9.34703
▁kill	-9.34866
▁attitude	-9.34958
▁focus	-9.3504
▁started	-9.35282
▁influence	-9.35328
▁grant	-9.35402
jah	-9.35413
▁endure	-9.35436
▁Ar	-9.35576
▁dwelling	-9.35784
head	-9.3582
▁beast	-9.35855
▁led	-9.35996
▁meaning	-9.36224
▁common	-9.36309
▁confiden	-9.3634
ould	-9.36613
stood	-9.36722
▁New	-9.36758
▁wall	-9.36809
'	-9.36921
▁evening	-9.36938
▁Na	-9.36967
▁problems	-9.37084
▁deliver	-9.372
▁delight	-9.37202
ar	-9.37278
▁o	-9.37287
▁area	-9.37572
ist	-9.37633
▁assign	-9.37641
▁wonderful	-9.37681
▁secret	-9.37837
▁prayers	-9.37964
▁cover	-9.38113
▁soul	-9.38209
▁:34	-9.38399
as	-9.38678
▁wind	-9.38696
▁42	-9.38783
over	-9.38837
▁count	-9.38916
▁wild	-9.39031
▁behind	-9.39033
▁Since	-9.39043
▁develop	-9.39355
phra	-9.39476
▁immorality	-9.39505
Matthew	-9.3968
▁Tim	-9.39739
▁Pharisee	-9.39959
▁perform	-9.39959
bi	-9.4032
▁Never	-9.40459
ram	-9.40643
▁princes	-9.40708
▁similar	-9.40895
▁Si	-9.40906
▁bull	-9.40961
▁Most	-9.40968
st	-9.40988
▁legal	-9.41443
um	-9.41578
z	-9.41605
▁created	-9.4171
▁Eve	-9.41776
than	-9.41839
▁condition	-9.41841
▁further	-9.41841
▁happiness	-9.41856
▁wide	-9.41938
rew	-9.42065
▁choice	-9.42099
▁Can	-9.42227
▁inspir	-9.42342
▁Today	-9.42361
▁group	-9.42407
▁expression	-9.42427
az	-9.42744
▁ruin	-9.42796
mar	-9.43198
▁charge	-9.43277
▁darkness	-9.433
▁held	-9.43338
▁letter	-9.4344
▁Ra	-9.43508
▁ram	-9.4362
▁per	-9.43665
▁provid	-9.43829
▁eye	-9.43861
5	-9.44069
▁report	-9.4414
▁reveal	-9.44141
▁display	-9.44246
▁Did	-9.44391
▁household	-9.44433
▁search	-9.44436
▁opened	-9.44459
▁nei	-9.44558
▁touch	-9.44582
▁harm	-9.44642
▁lot	-9.44804
▁court	-9.44858
▁plant	-9.44917
ta	-9.44944
▁imperfect	-9.45144
▁goal	-9.4518
rah	-9.45214
ty	-9.45346
John	-9.45437
▁re	-9.45498
▁mountains	-9.4553
▁Mount	-9.45716
▁physical	-9.4572
nstead	-9.45845
▁compassion	-9.46209
▁pillar	-9.46211
▁force	-9.46305
ter	-9.46381
▁45	-9.46537
▁houses	-9.46598
▁half	-9.46708
▁lost	-9.46727
▁instruction	-9.46772
▁V	-9.47082
▁tri	-9.47156
▁entertainment	-9.47212
▁:32	-9.47236
da	-9.47318
▁raise	-9.47486
▁People	-9.47711
▁rise	-9.47716
▁chosen	-9.4786
▁assembly	-9.47941
▁congregations	-9.48072
▁east	-9.48159
▁write	-9.48175
▁vow	-9.48182
▁short	-9.48183
▁midst	-9.4822
▁less	-9.48238
ance	-9.48541
▁evidence	-9.48724
▁territory	-9.48793
lah	-9.48947
▁paragraph	-9.49234
▁involv	-9.49409
▁believers	-9.49477
▁Happy	-9.49746
▁beginning	-9.4975
▁error	-9.49986
▁position	-9.50262
▁million	-9.50275
▁special	-9.50296
▁married	-9.50317
▁stones	-9.50366
sh	-9.50431
▁:33	-9.50453
▁sight	-9.50494
▁road	-9.50547
0	-9.50557
▁shame	-9.50715
ne	-9.50786
▁room	-9.50823
▁hearing	-9.51147
▁blessed	-9.51292
▁rain	-9.51313
▁Her	-9.5136
▁pa	-9.51399
▁building	-9.51417
giveness	-9.51643
▁invite	-9.51781
▁Further	-9.51824
▁reign	-9.51826
▁immediate	-9.51826
▁begin	-9.51834
▁worth	-9.51848
▁U	-9.51921
ph	-9.51927
▁Sa	-9.52012
▁Ga	-9.52071
▁shepherd	-9.5211
▁play	-9.52145
▁43	-9.52158
▁action	-9.52217
▁cross	-9.52243
▁produce	-9.52248
▁wait	-9.52311
▁blind	-9.52351
▁final	-9.52353
▁First	-9.52358
ought	-9.52513
)	-9.52601
▁divine	-9.52736
▁sit	-9.52749
▁inside	-9.52769
▁examples	-9.52869
▁fill	-9.52872
▁ark	-9.5288
▁goes	-9.52896
mi	-9.52901
▁patient	-9.52962
▁animal	-9.53195
▁descendant	-9.53412
▁Great	-9.53414
▁creation	-9.53422
▁hid	-9.53557
’	-9.53668
▁Rom	-9.53699
▁heads	-9.5373
▁:30	-9.53758
▁Please	-9.5395
▁source	-9.53951
▁prepared	-9.53965
▁vision	-9.54041
ond	-9.54087
ally	-9.54218
▁subject	-9.54242
▁i	-9.54406
▁Remember	-9.54484
▁entrance	-9.54484
▁relief	-9.54484
▁available	-9.54486
▁El	-9.547
▁Zion	-9.5506
▁exercise	-9.55093
▁circumstances	-9.551
▁discipline	-9.55331
▁actual	-9.55415
▁door	-9.55427
▁necessar	-9.55568
▁beautiful	-9.5557
▁sake	-9.55644
day	-9.55668
tower	-9.55797
▁rich	-9.56059
ry	-9.56077
▁crush	-9.56115
▁determined	-9.56341
▁Make	-9.56488
▁showing	-9.56489
▁rescue	-9.56491
hi	-9.56559
▁song	-9.56629
▁advice	-9.56664
▁increase	-9.56664
nas	-9.56787
▁Col	-9.56801
▁belong	-9.5689
▁clearly	-9.57028
▁doubt	-9.57105
•	-9.57217
ro	-9.5722
▁main	-9.57226
▁firstborn	-9.57229
▁Pet	-9.57266
and	-9.57353
▁tabernacle	-9.57773
nce	-9.57886
▁clothing	-9.5792
▁bless	-9.57943
▁fail	-9.57985
▁six	-9.58148
▁Per	-9.58253
▁writing	-9.58331
▁Ze	-9.58604
▁blessings	-9.58693
▁Every	-9.58749
▁curse	-9.5886
▁control	-9.59071
▁Prov	-9.59078
▁visit	-9.59385
x	-9.59447
▁hundred	-9.59458
some	-9.59645
▁acts	-9.59654
▁harvest	-9.59751
▁World	-9.60024
▁$1	-9.60026
▁copper	-9.60026
▁picture	-9.60026
▁practical	-9.60042
▁trees	-9.60056
▁line	-9.60082
▁ability	-9.60083
▁appreciate	-9.60135
▁wear	-9.60166
▁caus	-9.60173
▁48	-9.60399
▁Hebrew	-9.6052
▁de	-9.60568
▁slaughter	-9.60597
▁individuals	-9.60621
▁contain	-9.60645
▁week	-9.60686
▁north	-9.60718
▁months	-9.6085
▁strike	-9.61172
▁n	-9.6126
▁reject	-9.61296
▁standards	-9.61336
▁add	-9.61359
be	-9.61491
▁responsibility	-9.6175
▁local	-9.6175
▁portion	-9.61756
▁peoples	-9.61794
▁46	-9.61894
ath	-9.61979
▁destroyed	-9.62085
di	-9.62136
▁single	-9.62402
▁lies	-9.62537
Ti	-9.62657
▁slaves	-9.62697
▁proved	-9.62905
▁hour	-9.62925
▁flee	-9.62927
6	-9.631
▁desires	-9.63108
▁escape	-9.63213
▁privilege	-9.63443
▁boundar	-9.63491
▁Gil	-9.6351
▁horn	-9.63546
4	-9.63724
▁Jas	-9.63782
▁guide	-9.63809
▁Get	-9.63823
▁sleep	-9.64096
▁lift	-9.64097
ll	-9.64132
▁itself	-9.64742
▁beloved	-9.64752
▁44	-9.64882
▁prophecy	-9.64923
▁leaders	-9.64956
ur	-9.651
time	-9.65232
▁demonstrate	-9.65262
▁dust	-9.6529
▁courtyard	-9.65292
▁broken	-9.65402
▁Inde	-9.65718
▁idea	-9.6581
▁exile	-9.65895
▁anxiety	-9.66028
▁Sea	-9.66054
▁arrived	-9.6606
▁spiritually	-9.66236
8	-9.66471
▁dress	-9.66499
▁easi	-9.665
▁lying	-9.66683
▁wash	-9.66707
▁practices	-9.66774
▁prepare	-9.66935
▁lai	-9.6705
deed	-9.67071
▁various	-9.67108
▁image	-9.67124
▁pleasure	-9.67127
▁Bar	-9.67243
stead	-9.67277
▁knowing	-9.67436
Luke	-9.67443
most	-9.67448
▁cloth	-9.67459
ans	-9.67558
▁modest	-9.67722
▁activities	-9.67722
▁calamity	-9.67802
▁publication	-9.67877
▁events	-9.68072
▁prison	-9.68238
itting	-9.6828
▁effective	-9.68359
▁table	-9.68365
▁Gen	-9.68598
▁mere	-9.68612
▁actions	-9.68625
▁ago	-9.68628
ver	-9.68794
▁refused	-9.68856
▁provision	-9.6896
▁music	-9.68961
▁wood	-9.68983
▁limit	-9.68984
ary	-9.69239
▁thousands	-9.69288
▁former	-9.69482
▁accomplish	-9.69566
▁allowed	-9.7008
▁Gal	-9.7009
▁harmon	-9.7014
▁except	-9.7018
▁buy	-9.70216
▁forget	-9.70228
▁attack	-9.70262
2	-9.70393
TER	-9.70555
▁enemy	-9.70847
naan	-9.70862
vi	-9.70901
▁Brother	-9.70924
seh	-9.70943
▁bold	-9.71
▁Se	-9.713
▁describe	-9.71311
▁instance	-9.71484
▁suffer	-9.71545
▁commandment	-9.71626
jam	-9.71925
▁saved	-9.71999
▁notice	-9.72077
7	-9.72126
▁Hez	-9.72382
▁100	-9.72391
▁lay	-9.7242
Psalm	-9.72491
▁committ	-9.72681
▁Roman	-9.72705
den	-9.72829
▁basi	-9.72874
▁perish	-9.72927
▁century	-9.72947
▁sick	-9.73032
▁pieces	-9.73063
▁trouble	-9.73123
wish	-9.73222
▁stated	-9.7325
▁added	-9.73335
▁addition	-9.73375
▁burden	-9.73419
▁extend	-9.7342
▁moral	-9.7342
▁address	-9.73453
sha	-9.7352
▁70	-9.73956
▁indicate	-9.7399
ower	-9.74005
▁shout	-9.74074
▁guidance	-9.74076
▁oath	-9.74083
▁foot	-9.74113
▁cast	-9.74116
▁wonder	-9.74178
▁j	-9.74179
▁recognize	-9.74184
▁arm	-9.7434
ti	-9.74473
▁ears	-9.74478
▁reply	-9.74731
▁problem	-9.74901
▁elder	-9.74903
▁seeing	-9.74934
▁drive	-9.7495
▁lion	-9.75021
▁town	-9.753
▁asking	-9.75313
▁hurt	-9.75393
▁smoke	-9.75792
▁south	-9.75797
▁changed	-9.7599
till	-9.76052
▁quality	-9.7606
▁Dur	-9.76074
▁flow	-9.76088
▁proper	-9.76212
▁inner	-9.76215
▁run	-9.76259
te	-9.76457
Ps	-9.76559
age	-9.76588
▁G	-9.76618
▁remind	-9.76631
▁proclaim	-9.76699
▁Sabbath	-9.76731
is	-9.76885
▁firm	-9.76897
▁burning	-9.769
▁swor	-9.77023
syr	-9.77042
▁ruler	-9.77047
▁deeds	-9.77275
▁easy	-9.77407
▁Picture	-9.77425
▁warn	-9.77426
▁term	-9.77437
▁upright	-9.77472
▁manner	-9.77515
▁Mi	-9.77549
▁belongs	-9.77604
▁fast	-9.77606
▁Egyptian	-9.7768
▁corrupt	-9.77794
Acts	-9.77808
▁office	-9.77992
▁tribulation	-9.78087
▁commit	-9.78179
A	-9.783
▁aware	-9.78357
▁remove	-9.78538
▁gifts	-9.78731
▁:35	-9.78738
▁humility	-9.78772
▁role	-9.78772
▁garden	-9.78788
▁feed	-9.78811
Th	-9.7907
▁refuge	-9.79129
▁car	-9.79457
▁detestable	-9.79467
▁evident	-9.79468
▁eight	-9.79469
▁55	-9.79591
HAP	-9.79613
▁min	-9.7969
▁rock	-9.79696
ily	-9.79697
▁states	-9.80154
▁aspect	-9.80156
▁obedient	-9.80156
▁presence	-9.80156
▁foretold	-9.80156
▁celebration	-9.8017
▁Ark	-9.80184
▁Hall	-9.80309
ent	-9.80484
▁correct	-9.80836
▁SONG	-9.80857
w	-9.80897
cy	-9.80911
▁youth	-9.80958
▁union	-9.81171
▁stake	-9.8156
▁lesson	-9.81683
ternal	-9.81769
▁pioneer	-9.81865
▁forward	-9.82101
3	-9.82123
wise	-9.82163
▁apart	-9.82174
hab	-9.82185
▁Creator	-9.82269
▁Listen	-9.8227
▁wealth	-9.82271
▁Scriptural	-9.82275
▁arrangement	-9.82279
▁H	-9.82583
▁garment	-9.82597
▁assignment	-9.82614
▁mark	-9.82619
▁pastures	-9.82684
▁amount	-9.82983
dom	-9.8299
▁basic	-9.8303
▁mentioned	-9.83065
▁affection	-9.83077
▁fled	-9.83122
▁fulfill	-9.83325
▁chose	-9.83496
▁training	-9.835
▁sat	-9.83549
▁inherit	-9.83695
▁period	-9.83697
▁festival	-9.83711
▁sinned	-9.83718
▁challenge	-9.83729
▁dry	-9.8374
▁instruct	-9.83948
▁hair	-9.84021
she	-9.84174
▁Sim	-9.84249
▁advance	-9.84407
▁yes	-9.84447
▁grew	-9.84525
▁met	-9.84585
ch	-9.84704
▁loves	-9.84743
▁agree	-9.85139
hu	-9.85153
▁associate	-9.85157
▁response	-9.85157
▁accurate	-9.85167
▁condemn	-9.85168
▁Sar	-9.85259
▁weak	-9.85261
▁white	-9.85342
lech	-9.85396
▁worshippers	-9.85433
▁experienced	-9.85443
▁K	-9.85502
▁girl	-9.85532
▁cloud	-9.85556
▁lands	-9.85682
▁49	-9.85683
17	-9.85713
dical	-9.85795
▁courage	-9.85875
▁Should	-9.85892
▁devotion	-9.8591
▁wrath	-9.85919
▁Colossians	-9.85925
▁leading	-9.8602
▁warm	-9.86602
▁School	-9.86633
▁appeal	-9.86633
▁baptism	-9.86633
▁journey	-9.86633
▁shekel	-9.86633
▁65	-9.86677
▁dealing	-9.86679
▁wickedness	-9.86903
ash	-9.87142
▁path	-9.87142
▁skin	-9.87159
▁represent	-9.87351
▁scatter	-9.87379
▁activity	-9.87388
▁appreciation	-9.87402
▁revealed	-9.87539
▁51	-9.87579
▁47	-9.87765
▁Jon	-9.87945
▁couple	-9.88131
▁psalm	-9.88131
▁capture	-9.88133
▁specific	-9.88137
▁According	-9.88146
▁cup	-9.88147
▁loud	-9.88156
▁High	-9.88233
▁mate	-9.88337
▁k	-9.88414
▁humble	-9.88454
▁Pe	-9.88631
▁removed	-9.88665
▁moment	-9.88882
▁Student	-9.88889
▁eager	-9.88894
▁spend	-9.88903
sau	-9.89064
▁none	-9.89144
▁covered	-9.89156
ism	-9.89309
▁realize	-9.89374
▁horses	-9.89441
▁register	-9.89652
▁exact	-9.89652
▁type	-9.89652
▁education	-9.89655
▁iron	-9.89666
▁pleasing	-9.89744
▁warning	-9.89781
▁tribes	-9.89811
▁Ash	-9.89996
imply	-9.90216
ship	-9.90304
▁tax	-9.90363
▁modern	-9.90421
▁list	-9.90473
▁plan	-9.90489
▁Za	-9.90501
▁changes	-9.90552
▁shar	-9.90609
▁Final	-9.90646
▁fish	-9.90683
▁:36	-9.90693
▁leas	-9.90815
do	-9.90878
▁interests	-9.9097
▁awe	-9.90982
aught	-9.91166
▁manifest	-9.91172
▁Dutch	-9.91197
▁separate	-9.9125
▁verse	-9.9142
more	-9.91421
▁based	-9.91475
▁putt	-9.91547
▁idols	-9.91579
▁burned	-9.9158
▁related	-9.91606
non	-9.91621
▁disease	-9.91708
lo	-9.9172
▁decide	-9.9173
▁branch	-9.9192
▁Court	-9.9194
▁Through	-9.91978
▁vital	-9.91978
▁genuine	-9.91981
▁relations	-9.9216
▁refer	-9.92555
bel	-9.92694
▁top	-9.927
▁react	-9.9271
▁Un	-9.92724
▁prevent	-9.92765
▁straight	-9.92765
▁key	-9.92768
▁worldwide	-9.92791
▁disaster	-9.9282
▁60	-9.92831
▁Though	-9.92857
▁parts	-9.92898
▁Wo	-9.93065
▁imagine	-9.93249
▁mistake	-9.93346
▁setting	-9.93403
▁danger	-9.93541
▁chieftain	-9.93559
▁pressure	-9.93565
▁pursue	-9.93972
▁aid	-9.94312
▁Ph	-9.94314
by	-9.94352
▁border	-9.94359
▁bodies	-9.94362
▁angry	-9.94381
▁Galatians	-9.94434
▁Deuteronomy	-9.94439
▁don	-9.94643
▁workers	-9.94738
he	-9.94846
ical	-9.94995
▁finished	-9.95109
▁buri	-9.95116
▁female	-9.95165
▁satisfie	-9.95165
▁boat	-9.95166
▁appropriate	-9.95201
ban	-9.95204
▁Well	-9.95304
et	-9.95333
▁natural	-9.95349
▁Hear	-9.95356
me	-9.95653
▁widow	-9.95777
▁lips	-9.95979
▁recall	-9.9598
▁tender	-9.96023
▁Ask	-9.96133
▁:1-3	-9.96431
▁big	-9.96593
▁demon	-9.96664
▁stretch	-9.96738
▁scribe	-9.96798
▁quit	-9.96799
▁points	-9.96841
zer	-9.96856
ca	-9.96872
▁:37	-9.96885
▁closer	-9.96918
▁Eli	-9.97004
▁Others	-9.97043
▁birds	-9.97125
▁possess	-9.97274
▁fat	-9.97553
▁reside	-9.97575
▁L	-9.97591
▁messenger	-9.97624
▁positive	-9.97624
▁spring	-9.97625
▁daily	-9.97625
▁research	-9.97626
▁yoke	-9.97633
▁Late	-9.97645
▁lose	-9.9786
il	-9.97864
▁answers	-9.9802
▁contact	-9.98264
haz	-9.98433
▁claim	-9.98458
▁violence	-9.98458
▁sovereignty	-9.98458
▁unrighteous	-9.98463
▁Dan	-9.9849
law	-9.98503
▁protection	-9.98531
▁opening	-9.98644
▁Mary	-9.9865
▁doctor	-9.98758
▁simple	-9.9878
▁preached	-9.98893
bram	-9.98926
▁decided	-9.98947
▁bones	-9.98963
ward	-9.99078
▁overseer	-9.99173
coming	-9.99227
▁encouraging	-9.99298
▁violent	-9.99298
▁political	-9.99298
▁sanctuar	-9.99298
▁glori	-9.99302
▁meal	-9.99303
▁attendant	-9.99309
▁dear	-9.99311
▁fruitage	-9.99312
▁sow	-9.99321
▁foreigner	-9.99392
▁personally	-9.99437
nother	-9.99901
▁illustration	-10.0003
▁mild	-10.001
▁defeat	-10.0015
▁livestock	-10.0015
▁desert	-10.0015
▁Think	-10.0016
▁social	-10.0018
▁calling	-10.0068
▁low	-10.0071
▁object	-10.0087
▁refuse	-10.0099
▁.—2	-10.0099
▁abundance	-10.01
▁breath	-10.0102
lom	-10.0105
▁sell	-10.012
▁urg	-10.0121
▁safe	-10.0124
om	-10.0159
▁depend	-10.0163
▁Was	-10.0173
ia	-10.0182
▁Chapter	-10.0186
▁famine	-10.0186
▁Lot	-10.0196
▁tenth	-10.0199
▁52	-10.0206
it	-10.0221
▁listening	-10.0236
▁occur	-10.0244
▁rejected	-10.0261
▁resurrect	-10.027
▁secure	-10.0273
▁personality	-10.0282
▁wish	-10.0312
nai	-10.0319
▁forth	-10.0327
▁pleased	-10.0334
▁atone	-10.0352
▁Ec	-10.0352
ke	-10.0353
led	-10.0356
▁church	-10.0361
▁satisfy	-10.0361
▁obedience	-10.0361
shan	-10.0369
▁render	-10.037
▁sincere	-10.0372
▁officer	-10.0374
▁beside	-10.0393
▁gates	-10.0396
▁choices	-10.0401
▁v	-10.0411
▁abandon	-10.043
▁individual	-10.0446
▁company	-10.0449
▁desolate	-10.0449
▁Passover	-10.0449
▁importance	-10.045
▁Nor	-10.0457
▁unit	-10.0457
▁lack	-10.046
▁illustrations	-10.0462
▁fulfilled	-10.0494
▁urge	-10.0512
ish	-10.0519
▁statement	-10.0534
▁resist	-10.0539
▁fulfillment	-10.0541
▁bore	-10.0547
▁abandoned	-10.0558
alley	-10.0563
▁struggle	-10.0573
▁literat	-10.0588
▁cleanse	-10.0607
▁success	-10.0614
▁usual	-10.0616
▁aside	-10.0616
ant	-10.0619
▁progress	-10.0628
▁audience	-10.0629
▁utensil	-10.0629
▁appearance	-10.0631
▁students	-10.0633
hoi	-10.0653
▁teacher	-10.066
▁require	-10.0661
▁Sha	-10.0678
▁occasion	-10.0687
▁soldiers	-10.069
bah	-10.0691
▁Reu	-10.07
▁Sam	-10.0703
▁particular	-10.072
▁due	-10.072
▁contribution	-10.0721
▁cultivate	-10.0721
▁rod	-10.0726
▁fallen	-10.0727
pe	-10.0729
▁sometime	-10.0731
▁sinful	-10.0735
mas	-10.0761
▁Neb	-10.0762
cross	-10.0784
▁state	-10.079
▁relate	-10.0805
▁cattle	-10.0811
▁rejoicing	-10.0812
▁division	-10.0812
▁Ezekiel	-10.0813
▁late	-10.0814
▁connection	-10.0815
▁stream	-10.0816
▁stor	-10.0817
▁successful	-10.0823
▁fortifie	-10.0823
▁earlie	-10.0839
▁Mal	-10.0846
iah	-10.0865
▁thanks	-10.0884
nez	-10.0884
▁succeed	-10.0888
▁patien	-10.089
ru	-10.09
▁Similar	-10.0904
▁dinner	-10.0904
▁extent	-10.0904
▁paradis	-10.0904
▁risk	-10.0904
▁middle	-10.0904
▁dream	-10.0906
▁plain	-10.0906
ilate	-10.0909
▁War	-10.0927
▁lasting	-10.0952
I	-10.0962
▁Nu	-10.0978
▁Han	-10.0979
hem	-10.0992
▁belief	-10.0997
▁procedure	-10.0997
▁business	-10.0998
▁valley	-10.1001
▁worthless	-10.1003
▁contribute	-10.1005
▁release	-10.1011
▁minds	-10.1012
▁sinners	-10.1016
▁trials	-10.1022
▁bitter	-10.1041
▁weight	-10.106
▁firmly	-10.1069
fare	-10.107
▁note	-10.1091
▁United	-10.1092
▁innocen	-10.1092
▁mold	-10.1093
▁friendship	-10.1093
▁property	-10.1093
▁distance	-10.1094
▁disciple	-10.1101
▁reasonable	-10.1103
▁illustrate	-10.1104
▁fourth	-10.1105
▁observ	-10.1111
▁languages	-10.113
▁th	-10.1137
lam	-10.1138
▁joyful	-10.1142
Rom	-10.1159
▁publish	-10.1177
▁persecution	-10.1188
▁walls	-10.119
▁promote	-10.1191
▁ring	-10.1194
▁river	-10.1196
achel	-10.1201
▁reported	-10.1209
▁ship	-10.122
ner	-10.1233
iness	-10.1255
▁rulers	-10.1256
▁Te	-10.1267
▁box	-10.1277
nan	-10.1281
hood	-10.1281
–	-10.1283
▁shield	-10.1283
▁obtain	-10.1283
▁valuable	-10.1285
pi	-10.129
▁desp	-10.1293
▁mention	-10.1294
▁missionar	-10.1295
▁class	-10.1301
▁linen	-10.1318
▁53	-10.1328
tic	-10.133
▁pit	-10.1334
C	-10.1343
body	-10.1348
▁meant	-10.1355
▁drinking	-10.1359
▁dark	-10.1376
▁disgust	-10.138
▁militar	-10.138
▁culture	-10.138
▁goat	-10.1381
▁incense	-10.1387
▁understood	-10.1388
▁enable	-10.139
▁riches	-10.1392
▁donkey	-10.1393
▁talking	-10.1394
▁:44	-10.1397
▁cost	-10.1427
▁faced	-10.1429
▁weeping	-10.1435
Matt	-10.145
▁natur	-10.1457
▁suggest	-10.1475
▁immoral	-10.1476
▁heavy	-10.1478
▁boast	-10.1478
▁arise	-10.1479
▁Pa	-10.1479
▁storm	-10.1482
▁bound	-10.1483
▁requires	-10.1489
▁exist	-10.1493
ham	-10.1498
▁original	-10.1499
▁54	-10.1506
▁challenges	-10.1533
Sa	-10.1537
▁eventual	-10.1539
▁Ke	-10.1548
ben	-10.1566
▁consequences	-10.1577
▁generous	-10.1578
▁Almighty	-10.1581
▁wound	-10.1582
▁Gib	-10.1584
▁Philippians	-10.1584
ling	-10.1584
▁abundant	-10.1586
▁treatment	-10.1598
▁clothe	-10.1609
▁weigh	-10.162
▁simpl	-10.1654
▁stars	-10.1677
▁Clear	-10.1677
▁Ministry	-10.1677
▁anxious	-10.1677
▁devastat	-10.1677
▁prophesy	-10.1677
▁approve	-10.1677
▁transgression	-10.1679
▁Tell	-10.168
▁Him	-10.1685
▁crown	-10.1687
▁thank	-10.1714
▁fac	-10.1735
▁THE	-10.1743
▁surrounding	-10.1748
▁praying	-10.1768
▁neutral	-10.1778
▁comment	-10.1778
▁ruling	-10.1778
▁silent	-10.1778
▁conversation	-10.1779
▁earnest	-10.1779
▁assist	-10.1779
▁merciful	-10.1779
▁Chal	-10.1781
▁hours	-10.1789
▁job	-10.1795
▁member	-10.1807
▁mine	-10.1809
▁pai	-10.1809
phat	-10.1825
min	-10.1826
▁requir	-10.1831
century	-10.1852
▁design	-10.1852
▁helping	-10.1853
▁hide	-10.1857
▁failed	-10.1873
▁u	-10.1874
▁names	-10.188
▁level	-10.188
▁sudden	-10.188
▁cruel	-10.188
▁serpent	-10.188
▁countries	-10.1881
▁blow	-10.1882
▁herself	-10.1883
ul	-10.1908
▁teache	-10.192
spite	-10.1929
▁treasures	-10.1933
▁healed	-10.1953
▁select	-10.1977
▁royal	-10.1983
▁Thessalonians	-10.1984
▁shall	-10.1984
RUS	-10.1984
▁courageous	-10.1986
▁security	-10.1989
▁branches	-10.1991
▁Over	-10.1993
▁labor	-10.2004
ng	-10.2007
▁convention	-10.2009
▁faithfulness	-10.2019
▁foundation	-10.2025
▁Ish	-10.2055
▁Gad	-10.2058
▁ran	-10.2059
for	-10.206
Proverbs	-10.206
▁insight	-10.2064
▁collect	-10.2073
▁meat	-10.208
si	-10.208
▁west	-10.2085
▁pride	-10.2088
▁talent	-10.2088
▁universe	-10.2088
cai	-10.2101
▁remaining	-10.2113
ran	-10.2114
▁constantly	-10.2119
▁Mr	-10.2126
▁loss	-10.2135
▁realized	-10.2142
▁Tho	-10.2144
all	-10.2176
▁lunch	-10.2187
▁govern	-10.2187
▁advantage	-10.2191
▁conceal	-10.2193
▁Up	-10.2198
▁Exodus	-10.22
▁stranger	-10.2201
▁cold	-10.2204
▁stopped	-10.2204
▁describ	-10.2222
▁general	-10.2222
lu	-10.2223
▁customs	-10.2223
▁horse	-10.2224
▁wings	-10.2247
▁bar	-10.2251
ber	-10.227
▁Di	-10.2271
Heb	-10.2271
▁seize	-10.2277
▁fighting	-10.228
▁story	-10.2284
▁prostitute	-10.2284
▁CHO	-10.2299
▁prospect	-10.2299
no	-10.2308
▁responsibl	-10.2308
▁Ta	-10.2323
▁text	-10.2334
▁publishers	-10.2336
▁Car	-10.2336
▁calm	-10.2355
▁chariots	-10.2356
▁States	-10.2366
▁assembl	-10.2372
Mark	-10.2379
▁virgin	-10.2407
▁grasp	-10.2407
▁moon	-10.2407
▁price	-10.2407
▁zealous	-10.2408
Next	-10.2408
▁requirement	-10.2409
ck	-10.2422
▁asylum	-10.2422
▁worked	-10.2426
▁severe	-10.243
▁witnesses	-10.2434
▁Ki	-10.2435
▁referr	-10.2436
▁train	-10.2438
rose	-10.2471
like	-10.2486
▁broke	-10.2495
▁communi	-10.25
▁Praise	-10.2516
▁vine	-10.2516
▁fields	-10.2539
▁marry	-10.2545
O	-10.2548
▁clouds	-10.2567
▁warriors	-10.2573
▁air	-10.2576
▁lowly	-10.2581
▁permit	-10.2581
▁gathering	-10.2581
cho	-10.2582
cah	-10.2596
▁goats	-10.2614
▁sp	-10.2621
▁neck	-10.2625
▁province	-10.2625
▁overcome	-10.2625
▁contrast	-10.2626
▁authorities	-10.2628
▁sanctify	-10.2631
▁offend	-10.2633
▁emotional	-10.264
chad	-10.2642
▁Az	-10.2646
▁surround	-10.2658
aic	-10.2684
▁worse	-10.2714
ja	-10.2716
▁empty	-10.2737
▁global	-10.2737
▁synagogue	-10.2737
▁stick	-10.2737
▁endurance	-10.2737
▁restore	-10.2742
▁worshipp	-10.2745
▁adultery	-10.2748
▁:45	-10.2757
▁feeling	-10.2758
▁taste	-10.2765
▁growing	-10.2774
▁inhabited	-10.2782
00	-10.2801
▁letters	-10.2824
▁Sad	-10.2836
▁images	-10.2846
▁bed	-10.2847
▁Naomi	-10.2849
▁numerous	-10.2849
▁glorify	-10.2849
▁:1-5	-10.2851
▁:38	-10.2859
▁active	-10.2864
▁engage	-10.2874
▁remains	-10.2874
▁discern	-10.288
▁mourn	-10.2884
bed	-10.2899
▁shepherds	-10.2901
▁reap	-10.2906
▁rescued	-10.2919
▁official	-10.2919
▁mental	-10.2921
▁studying	-10.2923
▁afflict	-10.2959
▁stumble	-10.2962
ate	-10.2963
▁Study	-10.2963
▁approval	-10.2963
▁voluntar	-10.2963
▁occasions	-10.2963
▁Life	-10.2963
▁punishment	-10.2964
▁translation	-10.2967
▁devour	-10.2968
▁shoulder	-10.2973
▁Teacher	-10.2974
▁articles	-10.2983
rim	-10.2998
▁flocks	-10.3002
▁doors	-10.3013
▁survive	-10.3016
▁judged	-10.3039
▁pity	-10.3044
▁fleshly	-10.3046
▁calls	-10.3052
▁miss	-10.3059
T	-10.3069
▁freely	-10.3076
▁depth	-10.3077
▁reproach	-10.3077
▁stupid	-10.3077
▁surface	-10.3077
▁existence	-10.3078
▁permanent	-10.3078
hosh	-10.308
▁agreement	-10.3084
▁finish	-10.3086
▁damage	-10.3096
one	-10.3109
▁divid	-10.3109
bal	-10.3115
D	-10.3125
nic	-10.314
▁exalted	-10.314
Prov	-10.3166
▁Mos	-10.3185
▁create	-10.319
▁fault	-10.3191
responsibilities	-10.3194
▁satisfact	-10.3194
▁Grave	-10.3194
▁defend	-10.3194
▁repair	-10.3195
▁discernment	-10.3196
▁eternal	-10.3199
place	-10.3199
▁strive	-10.3201
▁bond	-10.3207
▁Hi	-10.3211
ze	-10.3219
▁camel	-10.3223
icial	-10.3224
▁regulations	-10.3225
▁rage	-10.3246
ol	-10.3255
▁sever	-10.3255
▁acquire	-10.3285
▁Syria	-10.3291
▁bulls	-10.3295
▁process	-10.3306
▁Rev	-10.3309
▁repent	-10.3311
▁primar	-10.3311
▁discreet	-10.3311
▁summon	-10.3313
▁Show	-10.3315
▁ft	-10.3316
▁Jah	-10.3323
▁Men	-10.3323
▁band	-10.3339
▁Ka	-10.3341
▁chariot	-10.3367
▁thousand	-10.3368
▁event	-10.3369
▁humbl	-10.3379
▁Uz	-10.3386
▁win	-10.339
▁captiv	-10.3392
▁grown	-10.3393
▁jud	-10.3399
Genesis	-10.3403
Jo	-10.341
▁speaks	-10.3417
▁Real	-10.3421
hath	-10.3424
▁connect	-10.3429
▁flood	-10.343
▁circuit	-10.343
▁repay	-10.343
▁unfaithful	-10.343
▁village	-10.343
▁essential	-10.343
▁spoil	-10.343
▁steal	-10.3431
▁private	-10.3431
▁opposition	-10.3431
▁River	-10.3431
▁normal	-10.3432
▁bright	-10.3434
▁center	-10.3435
▁loyalty	-10.3436
▁fought	-10.3436
▁rely	-10.3437
▁sickness	-10.3442
▁seal	-10.3444
▁Shim	-10.3451
cular	-10.3454
▁lambs	-10.3454
▁settle	-10.3454
▁refresh	-10.3472
▁root	-10.3488
▁relative	-10.3489
▁post	-10.3506
chem	-10.3516
v	-10.3518
▁forgiven	-10.3529
▁pre	-10.3544
▁length	-10.3549
▁fig	-10.355
▁arrest	-10.3551
▁milk	-10.3551
▁terror	-10.3551
▁vast	-10.3551
▁bride	-10.3551
▁outcome	-10.3551
▁ascend	-10.3551
▁Bring	-10.3551
▁project	-10.3552
▁Galilee	-10.3553
▁store	-10.3556
▁Bethel	-10.3565
▁closely	-10.3565
rus	-10.357
ial	-10.3579
▁details	-10.3586
▁sold	-10.3594
▁consume	-10.3604
▁expos	-10.3607
▁load	-10.3633
▁program	-10.3667
▁English	-10.3673
▁beauty	-10.3673
▁convince	-10.3673
▁grief	-10.3673
▁hungry	-10.3673
▁Chron	-10.3673
▁Master	-10.3673
▁bowl	-10.3677
▁Zeb	-10.3684
▁Eze	-10.3688
▁Shi	-10.369
▁Sure	-10.369
lon	-10.369
▁commands	-10.37
veryone	-10.3708
▁confident	-10.3712
▁skill	-10.3721
pt	-10.3728
aph	-10.373
va	-10.3734
▁seated	-10.3763
orrow	-10.3781
pplied	-10.3792
▁flour	-10.3796
▁Know	-10.3796
▁Imagine	-10.3796
▁scroll	-10.3796
▁Regard	-10.3796
▁pull	-10.3797
▁selfish	-10.3798
▁literal	-10.3799
▁association	-10.38
▁treasure	-10.3804
▁trained	-10.3805
▁baby	-10.3812
▁mid	-10.382
▁plunder	-10.3826
ge	-10.3829
mer	-10.3831
▁finds	-10.3856
▁heat	-10.3857
▁season	-10.3863
▁pioneers	-10.3867
▁grave	-10.387
▁piece	-10.3877
▁mourning	-10.3882
op	-10.3884
▁towns	-10.389
sacrific	-10.3893
▁impress	-10.3916
▁Awake	-10.3921
▁endeavor	-10.3921
▁jealous	-10.3921
▁major	-10.3921
W	-10.3927
▁fathers	-10.3928
▁dedicat	-10.3933
lain	-10.3935
▁eaten	-10.3945
▁mixed	-10.3947
▁motivate	-10.3962
od	-10.3965
▁tears	-10.3977
▁robe	-10.3982
▁tear	-10.3993
▁Herod	-10.3995
▁prophec	-10.3999
▁Shu	-10.4
▁books	-10.4006
▁sentence	-10.4018
▁orders	-10.4021
mo	-10.4033
▁conquer	-10.4048
▁shadow	-10.4048
▁staff	-10.4048
▁conclusion	-10.4049
▁sanctified	-10.4051
▁Ecclesiastes	-10.4054
▁preserve	-10.4054
▁Put	-10.4054
▁stress	-10.4055
▁tomb	-10.4093
ang	-10.4117
co	-10.4143
▁arms	-10.4147
▁cares	-10.4154
▁harsh	-10.4176
▁magazine	-10.4176
▁roof	-10.4176
▁opinion	-10.4178
▁dangerous	-10.4179
▁birthday	-10.4179
1	-10.4196
top	-10.421
▁execute	-10.4252
upreme	-10.4252
▁bird	-10.4254
▁becom	-10.4265
bim	-10.4271
▁groups	-10.4281
▁outer	-10.4284
▁Ju	-10.4285
▁exercis	-10.429
▁Li	-10.43
▁loa	-10.4302
▁floor	-10.4306
▁beneficial	-10.4306
▁ill	-10.4308
▁1914	-10.4312
▁swear	-10.4313
▁Eden	-10.432
▁uncleanness	-10.4326
moth	-10.4326
▁:43	-10.4333
kim	-10.435
▁believ	-10.4353
▁witnessing	-10.4354
▁bit	-10.4364
▁relatives	-10.4373
▁Thess	-10.4385
▁vineyard	-10.4386
▁suffered	-10.4396
▁hat	-10.4406
Ki	-10.4409
▁drawing	-10.4419
▁improve	-10.4428
▁leader	-10.4433
▁Netherlands	-10.4438
▁safeguard	-10.4438
▁honey	-10.4438
▁leper	-10.4438
▁equal	-10.4439
▁Italy	-10.4442
▁slow	-10.4457
▁imperfection	-10.4459
▁rebell	-10.4475
ves	-10.4479
pent	-10.4483
▁meditate	-10.4496
▁wave	-10.4498
▁:1-4	-10.4509
nger	-10.4522
▁sides	-10.4524
▁tents	-10.4539
work	-10.4543
▁pattern	-10.4571
▁prevail	-10.4571
▁hurl	-10.4571
▁grateful	-10.4572
▁Help	-10.4574
ai	-10.4604
▁suit	-10.4607
▁conclude	-10.4607
▁pregnan	-10.4608
▁occurr	-10.4616
L	-10.4619
▁subjects	-10.4623
▁shut	-10.4627
▁commission	-10.4662
▁Paradise	-10.4706
▁convey	-10.4706
▁feature	-10.4706
▁cope	-10.4707
▁Nehemiah	-10.4707
▁devot	-10.4707
▁intend	-10.4707
▁Leb	-10.4708
▁frame	-10.471
▁injustice	-10.471
▁Leviticus	-10.4713
▁acknowledge	-10.4716
▁identifi	-10.4716
▁director	-10.4717
▁Unti	-10.4719
▁overseers	-10.4728
▁Which	-10.4754
▁afterward	-10.4757
▁secretar	-10.4784
▁foolish	-10.4787
▁parent	-10.4799
▁resolve	-10.48
Romans	-10.4816
▁celebrate	-10.4817
un	-10.4821
go	-10.4826
▁listener	-10.4833
▁applie	-10.4837
▁fool	-10.4843
▁plague	-10.4843
▁taunt	-10.4843
▁thorough	-10.4843
▁extreme	-10.4843
▁Caesar	-10.4844
▁Messiah	-10.4845
▁obligation	-10.4845
▁illness	-10.4848
lee	-10.4848
▁station	-10.4849
▁growth	-10.4859
▁Cain	-10.4863
▁husbands	-10.4864
▁handle	-10.4875
▁Jude	-10.4883
▁Jez	-10.4892
▁Again	-10.4895
▁Rome	-10.4902
▁organiz	-10.4903
fel	-10.4903
N	-10.4905
▁Mid	-10.4911
▁weep	-10.4926
▁scripture	-10.4939
/	-10.4944
where	-10.4947
has	-10.4948
ib	-10.4957
phe	-10.4967
hon	-10.4975
▁hears	-10.4977
▁Govern	-10.498
▁Return	-10.4982
▁conflict	-10.4982
▁glad	-10.4982
▁glorifie	-10.4982
▁rulership	-10.4983
▁sustain	-10.4983
▁breast	-10.4984
▁qualifi	-10.4984
▁Jeph	-10.499
har	-10.4995
ied	-10.5005
▁City	-10.501
Ch	-10.5011
▁demand	-10.5012
▁Other	-10.5023
▁leav	-10.5049
▁Mor	-10.5052
▁annihilate	-10.506
▁wipe	-10.5069
B	-10.5074
▁rebel	-10.508
▁detail	-10.5082
ub	-10.5082
▁standard	-10.5084
▁origin	-10.5089
▁receiv	-10.5092
▁murder	-10.5094
▁rid	-10.5116
▁custom	-10.5118
▁punish	-10.5121
▁adjust	-10.5121
▁document	-10.5123
▁victory	-10.5123
▁palm	-10.5123
▁application	-10.5123
▁recent	-10.5123
▁Esther	-10.5123
▁review	-10.5129
▁fit	-10.5132
▁writer	-10.5154
▁super	-10.5158
▁weapons	-10.5182
ga	-10.5185
▁feast	-10.5185
▁plead	-10.5189
▁healing	-10.5196
▁quiet	-10.5214
oth	-10.5237
▁trial	-10.5242
up	-10.5253
red	-10.5261
▁Zed	-10.5262
▁debt	-10.5264
▁Chronicles	-10.5266
▁Follow	-10.5266
▁exchange	-10.5266
▁outstanding	-10.5266
▁rebellious	-10.5266
▁multitude	-10.5266
▁repentance	-10.5267
▁residence	-10.5267
▁holiness	-10.5268
▁pagan	-10.527
▁subjection	-10.5275
id	-10.5286
▁united	-10.5296
▁ignore	-10.5302
that	-10.5307
side	-10.5312
▁shed	-10.5325
gotten	-10.5345
gar	-10.5349
per	-10.538
▁releas	-10.5389
▁content	-10.5393
▁non	-10.54
▁leg	-10.541
▁grand	-10.541
▁Explain	-10.5411
▁behavior	-10.5411
▁initiative	-10.5411
▁naked	-10.5411
▁surrender	-10.5411
▁Solomon	-10.5411
▁proof	-10.5411
▁December	-10.5411
▁weaknesses	-10.5414
▁compare	-10.5421
▁teachers	-10.5423
▁fly	-10.5424
▁otherwise	-10.5426
▁Phil	-10.5433
▁Zo	-10.5445
▁56	-10.5452
▁Ger	-10.5454
▁forgotten	-10.5476
ton	-10.5476
▁arrange	-10.5483
▁pursu	-10.5503
▁turning	-10.5511
▁praised	-10.5526
▁betray	-10.5534
▁resident	-10.5535
bon	-10.5537
▁extraordinar	-10.5558
▁opportunities	-10.5558
▁trumpet	-10.5558
ncil	-10.5558
▁entrust	-10.5558
▁popular	-10.5558
▁wheat	-10.5558
▁fifth	-10.5558
▁mislead	-10.5558
▁centuries	-10.5558
▁Recall	-10.5558
▁grass	-10.5559
▁alongside	-10.556
▁settlement	-10.556
mor	-10.5561
▁rebellion	-10.5562
old	-10.5565
▁:39	-10.5568
▁Syrian	-10.5584
▁N	-10.5593
▁Once	-10.562
▁dog	-10.5627
▁Has	-10.563
dependent	-10.5632
▁errors	-10.5638
▁statutes	-10.5653
▁covering	-10.5663
▁willingly	-10.5671
chi	-10.5671
▁determine	-10.569
▁forms	-10.5693
▁sex	-10.5704
▁utter	-10.5707
▁thresh	-10.5707
▁Under	-10.5707
▁abroad	-10.5707
▁pick	-10.5707
▁panel	-10.5707
▁identify	-10.5707
▁clay	-10.5707
▁melod	-10.5707
-12	-10.5712
sight	-10.5712
▁Dama	-10.5714
▁Con	-10.5725
▁Book	-10.5725
▁lower	-10.5726
▁hire	-10.5731
▁assured	-10.5734
▁national	-10.5738
▁inform	-10.5743
nyone	-10.576
▁Tyr	-10.5761
mel	-10.5765
▁waves	-10.5768
▁cherubs	-10.577
▁seat	-10.5771
▁cave	-10.5777
ities	-10.5802
za	-10.581
dab	-10.5811
▁Cou	-10.5822
▁forces	-10.5823
▁lamb	-10.5829
▁Scripture	-10.5829
leaven	-10.583
▁sinner	-10.5835
▁62	-10.5844
▁tend	-10.5844
▁absolute	-10.5858
▁sabbath	-10.5858
▁wool	-10.5859
dad	-10.5859
osity	-10.5859
▁blue	-10.586
-18	-10.5863
▁None	-10.5867
▁roar	-10.5868
▁meek	-10.5876
▁below	-10.5881
▁reli	-10.5889
▁103	-10.5897
▁outline	-10.5909
▁consult	-10.5929
light	-10.5946
▁Hit	-10.5955
▁touching	-10.5959
▁sad	-10.5971
▁governor	-10.5986
dan	-10.5998
▁chamber	-10.6012
▁invitation	-10.6012
▁spear	-10.6012
▁intense	-10.6012
▁kiss	-10.6012
▁prostitution	-10.6012
▁objective	-10.6014
▁produced	-10.6015
▁:15-17	-10.6015
▁catch	-10.6021
▁mildness	-10.6021
-27	-10.6024
▁commander	-10.6029
▁total	-10.6042
▁Israelite	-10.6042
▁Sel	-10.6043
P	-10.6052
▁miracles	-10.6077
▁Say	-10.6079
▁guid	-10.6088
▁overwhelm	-10.6089
▁emotions	-10.6095
▁joyfully	-10.6097
▁troubled	-10.6099
mai	-10.6106
rar	-10.6106
▁choos	-10.6108
▁Young	-10.6123
while	-10.6141
Isaiah	-10.6141
▁background	-10.6142
▁difference	-10.6142
▁oppose	-10.6143
ek	-10.6147
char	-10.6155
▁twi	-10.6164
▁differ	-10.6168
▁dishonest	-10.6168
▁torture	-10.6169
▁square	-10.6169
▁Body	-10.6169
▁opposite	-10.6171
▁Nathan	-10.6171
▁falls	-10.6172
▁restor	-10.6174
06	-10.6175
▁torn	-10.6175
▁armor	-10.6177
▁spare	-10.6197
▁Ad	-10.6239
▁poles	-10.624
▁purposes	-10.6243
ocratic	-10.6252
M	-10.628
▁commend	-10.6281
▁base	-10.6296
"	-10.6299
-9	-10.6307
05	-10.6319
▁61	-10.632
scus	-10.6326
▁redeem	-10.6327
▁brief	-10.6327
▁profound	-10.6327
▁video	-10.6327
▁repentant	-10.6328
▁hang	-10.6329
▁Good	-10.633
▁slavery	-10.6332
▁stumbl	-10.6334
▁kingdoms	-10.6335
tan	-10.6342
ft	-10.6346
▁product	-10.6361
pa	-10.6368
ci	-10.638
rs	-10.638
▁recommend	-10.6387
▁despise	-10.6389
ier	-10.6393
pah	-10.6398
▁herd	-10.6401
▁pro	-10.6424
▁officials	-10.6425
ct	-10.6432
▁pages	-10.6447
Hebrews	-10.6461
▁donkeys	-10.6467
▁Eritrea	-10.6468
org	-10.6481
thing	-10.6482
▁PAGE	-10.6488
▁disobey	-10.6488
▁holiday	-10.6488
▁majest	-10.6488
▁superior	-10.6488
▁unselfish	-10.6488
▁treacherous	-10.6489
▁abuse	-10.6489
▁current	-10.649
▁sky	-10.649
▁Flood	-10.649
▁opposers	-10.649
▁finger	-10.6491
▁yield	-10.6491
▁coat	-10.6492
▁hardship	-10.6492
▁familiar	-10.6493
▁Pharaoh	-10.6493
▁press	-10.6496
ble	-10.6499
▁sixth	-10.65
▁discover	-10.6501
ot	-10.652
▁:41	-10.653
▁scriptures	-10.6539
▁Speak	-10.6573
▁obeyed	-10.658
ized	-10.658
▁consum	-10.6581
01	-10.6584
-24	-10.6596
50	-10.66
▁respectful	-10.661
year	-10.6625
▁runn	-10.6635
inspiring	-10.6637
rai	-10.6639
▁Zi	-10.664
▁conscious	-10.6652
▁dawn	-10.6652
▁declaring	-10.6652
▁teeth	-10.6652
▁volunteer	-10.6652
▁lepro	-10.6652
▁parable	-10.6653
▁limitations	-10.6653
▁highlight	-10.6655
▁stands	-10.6655
▁Naph	-10.6656
▁wages	-10.6657
▁critical	-10.6657
▁anymore	-10.6663
▁streets	-10.6667
▁wedding	-10.6672
▁receives	-10.6674
▁tool	-10.6675
▁salt	-10.6675
mb	-10.6686
▁Hav	-10.6699
-10	-10.6728
gal	-10.6738
▁inquire	-10.6739
ted	-10.6746
▁worker	-10.6751
▁methods	-10.6759
istic	-10.6766
▁terrif	-10.6769
▁waste	-10.6773
▁conventions	-10.6778
▁Hu	-10.678
ions	-10.678
▁Messia	-10.6787
ging	-10.6791
language	-10.6791
▁highly	-10.6796
▁trade	-10.6797
▁Africa	-10.6798
▁reference	-10.6802
▁street	-10.6804
▁shine	-10.6806
▁defile	-10.6814
▁Children	-10.6819
▁Russell	-10.6819
▁Welcome	-10.6819
▁brochure	-10.6819
▁cherish	-10.6819
▁poverty	-10.6819
▁swallow	-10.6819
▁victim	-10.6819
▁asleep	-10.6819
▁scarlet	-10.6819
▁drove	-10.682
▁marvelous	-10.682
▁disturb	-10.6823
▁impossib	-10.6825
▁st	-10.6826
▁captives	-10.6829
▁resources	-10.6833
▁decades	-10.6855
▁se	-10.6864
▁anoint	-10.6881
▁beg	-10.6886
▁capab	-10.6894
▁cri	-10.6894
kah	-10.6909
▁Witness	-10.691
ept	-10.6913
Y	-10.6929
ermon	-10.6932
▁matur	-10.6939
thi	-10.694
▁:40	-10.6944
▁Teach	-10.6974
stray	-10.6976
▁size	-10.6977
▁acceptabl	-10.6978
▁touche	-10.6981
▁Corinth	-10.6988
▁Philip	-10.6989
▁Armageddon	-10.6989
▁Second	-10.6989
▁exclusive	-10.6989
▁negative	-10.6989
▁terribl	-10.6989
▁haughty	-10.6989
▁vain	-10.6989
▁heal	-10.6989
▁compassionate	-10.699
▁Titus	-10.6999
R	-10.702
▁development	-10.704
bove	-10.7055
▁paths	-10.7065
▁higher	-10.7069
▁forest	-10.707
▁tower	-10.7074
-16	-10.7081
▁Ko	-10.7096
▁memor	-10.7101
▁constant	-10.711
▁endur	-10.7115
ard	-10.7121
▁assure	-10.7133
don	-10.7135
▁lacking	-10.714
▁kinds	-10.7143
▁student	-10.7153
▁match	-10.7155
▁imitat	-10.7157
▁Illustrat	-10.7161
▁abilities	-10.7161
▁capital	-10.7161
▁remnant	-10.7161
▁socket	-10.7161
▁sprout	-10.7161
▁supply	-10.7161
▁Gilead	-10.7161
▁chance	-10.7161
▁increasing	-10.7161
▁perfume	-10.7161
▁womb	-10.7161
▁splendor	-10.7161
▁57	-10.7167
-15	-10.7168
▁Prayer	-10.7168
▁partner	-10.7168
▁:42	-10.7168
▁defil	-10.717
▁spiritism	-10.7177
▁Send	-10.7182
▁Babylonian	-10.7184
▁sw	-10.7184
▁Day	-10.7186
way	-10.7194
ley	-10.7231
▁instruments	-10.7247
▁solve	-10.7253
ian	-10.7253
▁accord	-10.7258
not	-10.7302
after	-10.7305
▁Had	-10.7307
▁Work	-10.7312
▁homes	-10.7322
▁companions	-10.7332
▁Endnote	-10.7336
▁gradual	-10.7336
▁proud	-10.7337
▁ripp	-10.7337
▁code	-10.7338
▁Nile	-10.7338
▁:10-12	-10.734
▁harmful	-10.7342
▁judg	-10.7343
▁polio	-10.7344
▁reaction	-10.7349
▁speaker	-10.7369
G	-10.737
▁Judas	-10.7374
how	-10.7374
cation	-10.7381
▁cease	-10.7385
▁Mak	-10.7392
▁Seed	-10.7392
-17	-10.7395
▁helper	-10.7404
ize	-10.7414
▁theocratic	-10.7422
land	-10.7423
▁settl	-10.7425
based	-10.7428
▁wage	-10.7428
jw	-10.743
▁shape	-10.7437
ug	-10.7439
▁allerg	-10.744
▁hot	-10.7443
math	-10.7448
▁gener	-10.7452
ible	-10.7468
▁properly	-10.7472
▁str	-10.7481
temper	-10.7487
nu	-10.7492
▁tempt	-10.751
▁habits	-10.7511
▁copy	-10.7513
▁Committee	-10.7515
▁purpl	-10.7515
▁stronghold	-10.7515
▁troops	-10.7515
▁uncircumcis	-10.7515
▁attain	-10.7515
▁crag	-10.7515
▁profit	-10.7515
▁sack	-10.7515
▁supplication	-10.7515
▁pedestal	-10.7516
▁cheat	-10.7516
▁Tigrinya	-10.7516
▁fair	-10.7517
▁thread	-10.7517
▁Zech	-10.7517
▁idolatry	-10.7521
▁corner	-10.7525
▁Kir	-10.7526
▁resting	-10.7527
▁kingship	-10.7536
▁style	-10.7539
▁captive	-10.7545
07	-10.7549
▁busy	-10.755
▁height	-10.7554
▁greeting	-10.7569
po	-10.7581
▁con	-10.7586
▁Che	-10.7597
▁priorit	-10.7601
▁groom	-10.7604
lun	-10.7606
▁Mean	-10.7611
shon	-10.7612
hand	-10.7625
▁Gi	-10.7629
▁Note	-10.7633
ka	-10.7634
▁divide	-10.7652
ene	-10.7654
▁star	-10.7654
▁readi	-10.767
Isa	-10.7671
▁impart	-10.7696
▁drunk	-10.7697
▁drop	-10.7697
▁locust	-10.7697
▁variet	-10.7697
▁thrill	-10.7697
▁brain	-10.7697
▁carv	-10.7697
▁international	-10.7697
▁edge	-10.7697
▁vessel	-10.7698
▁assistance	-10.7698
▁Elijah	-10.7699
▁jar	-10.7699
▁trap	-10.77
▁prominent	-10.77
▁science	-10.7702
▁alcohol	-10.7705
▁march	-10.7706
▁Out	-10.7709
▁64	-10.7715
H	-10.7721
▁weeks	-10.7732
▁facts	-10.7733
bas	-10.774
▁thirsty	-10.7745
-31	-10.7747
▁Questions	-10.775
tra	-10.7764
▁religions	-10.7767
ged	-10.777
▁seiz	-10.7771
▁till	-10.7776
▁wel	-10.7811
▁hills	-10.7826
▁reasoning	-10.7839
▁knee	-10.7853
cloth	-10.7854
▁respects	-10.7859
▁Use	-10.7876
▁Jew	-10.7878
▁attempt	-10.7882
▁dishonor	-10.7882
▁quarrel	-10.7882
▁presumptuous	-10.7882
▁print	-10.7882
▁lampstand	-10.7882
▁link	-10.7883
▁dies	-10.7884
▁block	-10.7886
▁habit	-10.7886
▁companion	-10.7887
▁Miz	-10.7891
▁trick	-10.7892
▁discussion	-10.7897
▁deni	-10.7898
▁cure	-10.7899
▁Refugees	-10.7908
▁nurse	-10.7911
▁Translati	-10.7912
▁Gid	-10.7915
▁discouraged	-10.7923
▁300	-10.7923
▁reed	-10.7928
▁translat	-10.7931
▁participate	-10.7936
ail	-10.794
▁rush	-10.7956
tine	-10.7958
▁prey	-10.7958
▁thirst	-10.8021
▁amaz	-10.8024
▁engag	-10.8029
loud	-10.804
▁recogniz	-10.8043
dok	-10.8054
▁distan	-10.8068
U	-10.807
▁campaign	-10.8071
▁degree	-10.8071
▁eagle	-10.8071
▁expand	-10.8071
▁striking	-10.8071
▁stubborn	-10.8071
▪	-10.8071
▁roll	-10.8071
▁vengeance	-10.8071
▁olive	-10.8072
▁construction	-10.8073
▁Gate	-10.8074
▁hunger	-10.8075
ably	-10.8078
▁fond	-10.8079
▁fitting	-10.808
▁bears	-10.8083
▁communit	-10.8097
▁crie	-10.8106
▁66	-10.8114
▁chas	-10.8137
▁challeng	-10.8149
▁divorce	-10.8151
▁measures	-10.8176
▁schools	-10.8176
tha	-10.8183
▁donations	-10.8198
▁finding	-10.8199
▁ridicule	-10.8254
▁Certain	-10.8263
▁fix	-10.8263
▁sweet	-10.8263
▁transfusion	-10.8263
▁exult	-10.8263
▁gratitude	-10.8263
▁attract	-10.8263
▁prompt	-10.8263
▁wrongdoing	-10.8263
▁exert	-10.8263
▁horror	-10.8263
▁viewpoint	-10.8264
▁twist	-10.8265
▁Serv	-10.8266
▁society	-10.8268
▁bag	-10.8269
▁everywhere	-10.827
▁cedar	-10.8273
▁eph	-10.8274
▁payment	-10.8275
▁tired	-10.8277
▁expectation	-10.8279
▁wail	-10.8281
▁lawless	-10.8296
▁passion	-10.8315
▁110	-10.832
ious	-10.833
▁sorrow	-10.8346
▁cured	-10.8347
▁ev	-10.8349
▁assignments	-10.8378
▁leaven	-10.8437
▁Ham	-10.8449
▁vessels	-10.8458
▁Continue	-10.8459
▁Service	-10.8459
▁accusation	-10.8459
▁domestic	-10.8459
▁energy	-10.8459
▁excellent	-10.8459
▁Learn	-10.8459
▁silence	-10.8459
▁miraculous	-10.8459
▁Ruler	-10.8459
▁website	-10.8459
▁bury	-10.8459
▁arrogant	-10.8461
▁infection	-10.8461
▁regret	-10.8462
▁race	-10.8462
▁strict	-10.8463
air	-10.8464
▁won	-10.8464
▁Sina	-10.8465
▁circumcised	-10.8466
rap	-10.8468
▁rewarded	-10.847
▁owe	-10.848
right	-10.8491
▁tablet	-10.8506
▁red	-10.851
▁Any	-10.852
▁ve	-10.8529
▁fruits	-10.8537
end	-10.8538
▁suggestions	-10.8549
▁Red	-10.855
▁exalt	-10.8552
▁submit	-10.8554
▁lover	-10.8555
▁skills	-10.8555
▁En	-10.8557
▁dis	-10.8558
▁meditat	-10.8566
▁tom	-10.8569
▁Sal	-10.8572
▁escaped	-10.8592
▁bars	-10.8603
▁Har	-10.8609
03	-10.8613
▁lions	-10.8614
him	-10.8621
▁symbol	-10.8627
Ephesians	-10.8631
Revelation	-10.8631
▁unjust	-10.8647
▁confront	-10.8651
orry	-10.8657
mmediate	-10.8658
▁Two	-10.8659
▁curtain	-10.8659
▁defense	-10.8659
▁refrain	-10.8659
▁proverb	-10.8659
▁Grand	-10.8659
▁fury	-10.8659
▁green	-10.8659
▁Notice	-10.8659
▁thunder	-10.8659
▁aroma	-10.8659
▁rope	-10.8659
▁double	-10.8659
▁wheel	-10.8659
▁space	-10.8659
▁film	-10.866
▁liar	-10.866
▁dining	-10.866
▁lawyer	-10.866
▁vary	-10.866
▁pleasant	-10.8662
▁hug	-10.8662
▁summer	-10.8662
▁testimony	-10.8664
▁prophesied	-10.8665
desh	-10.8666
▁painful	-10.8667
▁towers	-10.8673
▁multiply	-10.8676
aid	-10.8676
▁shake	-10.8679
▁surprised	-10.8683
▁Germany	-10.8685
▁Jonah	-10.8694
▁Sodom	-10.8695
mong	-10.8701
▁soil	-10.8703
▁truthful	-10.8713
▁distribut	-10.8715
▁minutes	-10.8721
18	-10.8722
▁tremble	-10.873
bu	-10.8731
▁pin	-10.8733
lak	-10.8737
ew	-10.8754
▁Pay	-10.8761
▁game	-10.8807
kind	-10.8811
our	-10.8832
▁Soon	-10.8835
tter	-10.8837
▁custo	-10.8848
▁comforted	-10.885
▁sand	-10.885
gi	-10.8853
-14	-10.8861
▁ac	-10.8861
▁200	-10.8861
▁zeal	-10.8861
▁blossom	-10.8863
▁mortal	-10.8863
▁smooth	-10.8863
▁Turn	-10.8863
▁:1-6	-10.8863
▁uphold	-10.8863
▁Samaritan	-10.8863
▁revolt	-10.8864
▁Deut	-10.8875
▁trip	-10.8878
▁significant	-10.888
▁weighed	-10.888
ich	-10.8884
▁lawful	-10.8898
▁net	-10.8903
▁prepar	-10.8911
▁reserv	-10.8912
▁residents	-10.8912
▁art	-10.8914
noch	-10.893
ory	-10.8932
ING	-10.8936
▁peaceful	-10.894
ko	-10.8943
▁Eu	-10.8956
▁plot	-10.8957
▁repeat	-10.8961
▁sharp	-10.8965
▁sayings	-10.8976
▁73	-10.8988
▁embrace	-10.8992
▁cells	-10.8996
▁factors	-10.9026
ak	-10.9042
▁indigna	-10.9068
▁disgrace	-10.9068
▁Spirit	-10.9069
▁November	-10.9071
▁interview	-10.9071
▁siege	-10.9071
▁Become	-10.9072
▁context	-10.9072
▁network	-10.9072
▁Congregation	-10.9072
▁solid	-10.9072
▁argument	-10.9072
ius	-10.9074
▁accompanie	-10.9075
▁thanksgiving	-10.9077
▁affliction	-10.9078
▁Call	-10.9082
▁preced	-10.9085
▁insist	-10.9086
▁crime	-10.9087
▁repeatedly	-10.9094
09	-10.9095
▁prophetic	-10.9097
▁Gospel	-10.9099
ag	-10.9105
▁63	-10.9111
mation	-10.9135
▁continual	-10.9159
10	-10.9165
▁San	-10.9171
▁rebuke	-10.9176
therwise	-10.9198
▁dedicate	-10.92
▁reminders	-10.9201
▁Us	-10.9208
▁trembl	-10.9209
▁welcome	-10.9225
reth	-10.9231
▁Kor	-10.9237
▁balance	-10.9253
12	-10.9272
▁doesn	-10.9278
▁prosper	-10.9282
▁Faith	-10.9283
▁footnote	-10.9284
▁delay	-10.9284
▁loft	-10.9285
▁function	-10.9285
▁fresh	-10.9285
▁boil	-10.9285
▁adjustment	-10.9287
▁:9-11	-10.9288
-22	-10.9288
▁threaten	-10.9289
▁survivor	-10.929
▁passage	-10.929
▁km	-10.9291
▁:46	-10.9297
western	-10.9299
▁nine	-10.9302
▁injury	-10.9308
▁approaching	-10.9315
▁thorns	-10.9318
ine	-10.9332
▁date	-10.9339
▁endured	-10.9357
▁cit	-10.9365
▁persecuted	-10.9365
▁mis	-10.939
▁surviv	-10.9394
ace	-10.9418
▁perceive	-10.9459
ow	-10.9463
▁fund	-10.9464
▁slander	-10.9472
▁deserve	-10.9475
▁inter	-10.9486
▁trait	-10.9497
▁disappoint	-10.95
▁identi	-10.9501
▁1919	-10.9502
▁April	-10.9502
▁black	-10.9502
▁contempt	-10.9502
▁earthquake	-10.9502
▁pestilence	-10.9502
▁potential	-10.9502
▁principal	-10.9502
▁symptom	-10.9502
▁task	-10.9502
▁Earth	-10.9502
▁ambush	-10.9502
▁confess	-10.9502
▁shelter	-10.9502
▁fiery	-10.9502
▁insult	-10.9502
▁proceed	-10.9502
▁reputation	-10.9502
▁porch	-10.9502
▁miles	-10.9502
▁le	-10.9502
▁Human	-10.9503
▁October	-10.9503
▁adversaries	-10.9503
▁section	-10.9504
▁northern	-10.9505
▁weakness	-10.951
▁round	-10.9511
▁abusive	-10.9513
▁thick	-10.9515
▁owner	-10.9522
▁previously	-10.9525
▁sacrifici	-10.9528
▁designate	-10.9531
▁metal	-10.9534
▁temper	-10.9536
▁59	-10.9538
▁motive	-10.9539
▁liken	-10.9545
▁undergo	-10.9552
▁Tar	-10.9562
▁Whom	-10.9563
▁griev	-10.9568
-11	-10.957
IND	-10.958
lum	-10.9584
▁probabl	-10.9585
▁arrows	-10.9598
▁oppress	-10.9605
▁arrang	-10.961
1-7	-10.9613
▁prior	-10.9618
given	-10.9631
▁Sing	-10.9634
ified	-10.9634
ap	-10.964
▁despis	-10.964
let	-10.9662
▁72	-10.967
▁600	-10.9671
▁greed	-10.9683
See	-10.9696
▁Brothers	-10.9697
Eph	-10.9702
▁rivers	-10.9704
hearted	-10.9715
11	-10.9719
▁profane	-10.9719
pher	-10.972
▁didn	-10.9721
%	-10.9724
▁await	-10.9724
▁circumcision	-10.9724
▁eternity	-10.9724
▁abound	-10.9724
▁comparison	-10.9724
▁mistreat	-10.9724
▁snow	-10.9724
▁adorn	-10.9724
▁alert	-10.9724
▁economic	-10.9724
▁committee	-10.9724
▁Write	-10.9725
▁unique	-10.9725
▁ungodl	-10.9726
▁Answer	-10.9727
▁billion	-10.9727
▁Lam	-10.973
▁Sometime	-10.9731
▁originate	-10.9732
▁urgent	-10.9737
▁Seek	-10.9749
▁rebuild	-10.975
spoken	-10.9753
▁deceiv	-10.9754
▁flame	-10.9755
▁app	-10.9766
heth	-10.9767
▁municipalit	-10.9769
30	-10.9771
▁di	-10.9775
▁sail	-10.9781
▁80	-10.9783
▁preacher	-10.9785
▁sown	-10.9788
leb	-10.9796
▁desired	-10.9803
▁execut	-10.9814
▁islands	-10.9819
▁row	-10.9822
▁string	-10.9824
▁aim	-10.9851
F	-10.9852
▁beat	-10.9898
avior	-10.9898
▁heap	-10.9909
iz	-10.9913
▁Summar	-10.9918
Gen	-10.9926
▁magic	-10.9938
held	-10.9945
▁bare	-10.9946
▁stir	-10.9951
▁prefer	-10.9951
▁Society	-10.9951
▁politics	-10.9951
▁frighten	-10.9951
▁fertil	-10.9951
▁offense	-10.9951
▁ponder	-10.9951
▁Italian	-10.9951
▁access	-10.9951
▁initial	-10.9951
▁dried	-10.9952
▁dignit	-10.9952
▁interpretation	-10.9952
▁hail	-10.9953
▁:5-7	-10.9953
▁implie	-10.9954
▁cultural	-10.9954
▁structure	-10.9954
▁coin	-10.9955
▁color	-10.9955
ife	-10.9956
▁studies	-10.9956
▁sandal	-10.9957
▁singer	-10.9962
▁smile	-10.9963
▁Find	-10.9966
—2	-10.9968
▁dread	-10.997
▁apparent	-10.9971
▁privileges	-10.9975
▁occupie	-10.998
▁adviser	-10.9981
▁remarkabl	-10.9982
▁Ti	-10.9982
▁balanced	-10.9985
▁refus	-10.9993
▁Thank	-11.0001
▁Kings	-11.0008
▁vineyards	-11.0041
▁celebrated	-11.0046
▁cal	-11.0052
▁inquir	-11.0062
▁girls	-11.0064
▁Hor	-11.0079
▁motivat	-11.0101
ning	-11.0102
inate	-11.0104
▁practic	-11.0111
▁II	-11.0115
▁Asa	-11.0119
roth	-11.013
▁lamps	-11.0131
▁trie	-11.0133
▁discourage	-11.0156
▁co	-11.0156
▁environment	-11.0158
-8	-11.0159
▁awake	-11.016
if	-11.0161
▁Mat	-11.0178
▁Naz	-11.0179
estival	-11.0181
▁triumph	-11.0183
both	-11.0184
▁accompany	-11.0184
▁model	-11.0184
▁reassuring	-11.0184
▁stomach	-11.0184
▁thumb	-11.0184
▁victori	-11.0184
▁Canada	-11.0184
▁Hezekiah	-11.0184
▁,500	-11.0184
▁deceptive	-11.0184
▁snare	-11.0184
▁trustworth	-11.0185
▁assume	-11.0185
▁gracious	-11.0185
▁potter	-11.0186
▁dew	-11.0189
▁temptation	-11.019
▁dying	-11.019
▁provok	-11.0195
▁Preach	-11.0196
▁Ethiopian	-11.0197
▁burial	-11.0199
we	-11.0201
▁cleansing	-11.0202
▁creat	-11.0205
▁factor	-11.0206
08	-11.0217
▁basket	-11.0234
▁lamp	-11.0237
▁lame	-11.0243
▁ease	-11.028
▁newly	-11.0291
▁scheme	-11.0304
▁rais	-11.0307
tor	-11.0309
▁answering	-11.031
▁deed	-11.0313
▁hole	-11.0315
▁ma	-11.0318
cha	-11.032
▁Rab	-11.0332
greater	-11.0352
▁participat	-11.0352
▁displeas	-11.0369
▁controll	-11.0374
▁exists	-11.0387
control	-11.0394
Gal	-11.0401
▁disrespect	-11.0408
▁devote	-11.0414
▁depress	-11.0418
▁York	-11.0422
▁atmospher	-11.0422
▁extinguish	-11.0422
▁measuring	-11.0422
▁scourge	-11.0422
▁temporar	-11.0422
▁contend	-11.0422
▁outcry	-11.0422
▁chain	-11.0422
▁district	-11.0422
▁install	-11.0422
▁paraly	-11.0422
▁rebuilt	-11.0422
▁shoot	-11.0422
▁native	-11.0422
▁shock	-11.0422
▁disfellowshipp	-11.0422
▁Japan	-11.0422
▁entitled	-11.0422
▁team	-11.0422
▁credit	-11.0423
▁belt	-11.0423
▁cake	-11.0424
chish	-11.0425
▁pot	-11.0425
▁duties	-11.0425
▁oppression	-11.0425
▁demonstration	-11.0427
▁assurance	-11.043
oven	-11.0441
▁anguish	-11.0445
mal	-11.0449
▁skillful	-11.0452
▁upper	-11.0454
▁arrive	-11.0454
▁500	-11.0457
shes	-11.0468
▁creativ	-11.0469
▁murderer	-11.047
▁68	-11.0476
▁harp	-11.0478
▁bank	-11.048
▁widows	-11.0482
▁considerat	-11.0483
▁Bless	-11.0497
▁contra	-11.0528
du	-11.0528
▁driv	-11.0534
▁plann	-11.0547
▁violate	-11.0554
▁staying	-11.0556
▁falling	-11.0566
▁mi	-11.0572
▁perished	-11.0585
▁wander	-11.0586
eg	-11.0588
▁Shem	-11.0588
▁misuse	-11.0594
▁complex	-11.0597
▁independent	-11.0621
▁motives	-11.0624
▁drag	-11.0641
▁Age	-11.0641
born	-11.0643
▁cultivat	-11.0655
▁East	-11.0657
▁equip	-11.0664
▁persist	-11.0665
▁remote	-11.0666
▁$2	-11.0666
▁clergy	-11.0666
▁disorder	-11.0666
▁palace	-11.0666
▁climb	-11.0666
▁Fear	-11.0666
▁contemplat	-11.0666
▁insurance	-11.0666
▁bind	-11.0666
▁income	-11.0666
▁melt	-11.0667
▁screen	-11.0667
▁rare	-11.0671
▁:3-5	-11.0674
ification	-11.0675
▁Micah	-11.0675
▁thankful	-11.0677
▁entit	-11.068
▁worry	-11.0683
▁board	-11.0686
▁comforting	-11.0698
▁oppos	-11.07
▁Mic	-11.0707
▁differences	-11.0707
▁58	-11.0725
▁104	-11.0731
▁forefather	-11.0733
▁impos	-11.0744
fully	-11.0777
▁forsake	-11.0794
▁helpless	-11.0849
car	-11.0853
LE	-11.0868
▁Reading	-11.0885
▁employ	-11.0889
▁loose	-11.0891
▁behave	-11.0894
▁sigh	-11.0901
ence	-11.0901
lew	-11.0902
duce	-11.0903
fic	-11.0906
▁ti	-11.0908
phan	-11.0915
▁Language	-11.0916
▁Public	-11.0916
▁disown	-11.0916
▁distinguish	-11.0916
▁poison	-11.0916
▁overtake	-11.0916
▁prize	-11.0916
▁deaf	-11.0916
▁1-3	-11.0916
▁narrow	-11.0916
▁timber	-11.0916
▁virtu	-11.0916
▁straw	-11.0916
▁medicine	-11.0916
▁preference	-11.0916
▁copie	-11.0916
▁souls	-11.0916
▁wrapp	-11.0916
▁flourish	-11.0917
dditional	-11.0917
▁winter	-11.0917
▁restoration	-11.0919
▁desperate	-11.0919
▁Sams	-11.0919
▁2013	-11.092
-20	-11.0921
▁tin	-11.0921
▁Beside	-11.0922
▁humiliated	-11.0925
▁interesting	-11.0926
▁Jeb	-11.0939
▁Lo	-11.0965
▁peaceable	-11.0966
ight	-11.0971
The	-11.0979
ech	-11.0981
04	-11.0984
▁badness	-11.0993
ists	-11.1002
▁toil	-11.1007
rous	-11.1026
▁invisible	-11.1031
▁Mari	-11.1037
▁contr	-11.1057
void	-11.1063
▁pointed	-11.1072
-29	-11.1077
▁bath	-11.1081
pha	-11.1086
wa	-11.1092
fall	-11.1116
▁Im	-11.1125
groom	-11.1145
down	-11.1147
▁Heth	-11.1158
▁Mu	-11.1161
▁South	-11.1167
▁exhort	-11.1169
▁nin	-11.117
▁Testimon	-11.1172
▁Worship	-11.1172
▁banquet	-11.1172
▁encounter	-11.1172
▁gloom	-11.1172
▁pool	-11.1172
▁reception	-11.1172
▁revelation	-11.1172
▁shatter	-11.1172
▁compensat	-11.1172
▁element	-11.1172
▁Curs	-11.1173
▁nail	-11.1173
▁market	-11.1174
▁lake	-11.1174
▁acquaint	-11.1174
▁protective	-11.118
▁minor	-11.1181
▁Name	-11.1181
lai	-11.1183
▁Trust	-11.1183
▁bus	-11.1184
▁produc	-11.1184
▁Gath	-11.1186
▁affairs	-11.1189
routin	-11.1193
ED	-11.1194
visible	-11.1223
-28	-11.1235
▁treasur	-11.1236
use	-11.1241
▁hill	-11.1251
▁Levite	-11.1254
▁doubts	-11.1255
phas	-11.1259
▁Judge	-11.1263
wi	-11.1266
eb	-11.1267
of	-11.1271
tham	-11.1278
▁cord	-11.1278
▁subdue	-11.128
▁ban	-11.1287
▁tall	-11.1307
▁roots	-11.1309
▁inhabit	-11.1326
com	-11.1328
▁bene	-11.1331
▁laugh	-11.1354
▁greet	-11.1357
▁push	-11.1357
▁belonging	-11.1357
shi	-11.1363
afety	-11.1374
▁expel	-11.1389
▁pen	-11.1407
▁Christendom	-11.1435
▁abstain	-11.1435
▁companies	-11.1435
▁deception	-11.1435
▁throat	-11.1435
▁vegetation	-11.1435
▁enslave	-11.1435
▁obvious	-11.1435
▁transform	-11.1435
▁Promise	-11.1435
▁check	-11.1435
▁split	-11.1435
▁esteem	-11.1435
▁climate	-11.1436
▁attach	-11.1436
▁Way	-11.1436
▁earn	-11.1437
▁Hil	-11.1438
▁Land	-11.1438
▁desirable	-11.1439
▁preparation	-11.144
▁reprove	-11.1441
▁overlook	-11.1443
▁foolishness	-11.1445
▁cutting	-11.1446
▁facilit	-11.1449
▁smash	-11.1454
▁approachable	-11.1456
▁Stay	-11.1459
▁pile	-11.1464
▁Prophets	-11.1468
known	-11.1469
▁Z	-11.1472
dai	-11.1477
▁Sil	-11.1479
▁145	-11.1488
▁fame	-11.149
ros	-11.1504
▁grapes	-11.1513
▁Ten	-11.1514
▁guest	-11.152
hur	-11.152
▁soldier	-11.1523
▁joint	-11.1536
▁Sod	-11.1548
▁quot	-11.1552
▁nobles	-11.1563
▁fun	-11.1572
ten	-11.1575
▁stat	-11.1587
▁sacrific	-11.1598
-32	-11.16
▁refreshing	-11.1611
▁sacrificed	-11.1616
je	-11.1618
astern	-11.1635
▁courts	-11.1636
mak	-11.1638
ations	-11.166
lock	-11.1661
▁deceive	-11.1669
▁Gospels	-11.167
▁Po	-11.1673
▁surprise	-11.1674
rank	-11.1677
▁furn	-11.1696
▁Pray	-11.1697
▁construct	-11.1702
▁dut	-11.1703
▁Sanhedrin	-11.1706
▁delegate	-11.1706
▁empire	-11.1706
▁guarantee	-11.1706
▁ordinary	-11.1706
▁professional	-11.1706
▁sufficient	-11.1706
▁disregard	-11.1706
▁title	-11.1706
▁gatekeeper	-11.1706
▁Memori	-11.1706
▁Three	-11.1706
▁session	-11.1706
▁hatred	-11.1706
▁furious	-11.1706
▁Rejoic	-11.1707
▁permission	-11.1707
▁planet	-11.1707
▁covers	-11.1708
▁plow	-11.1708
V	-11.1708
▁figure	-11.1708
loh	-11.1709
▁pitch	-11.1709
▁supplies	-11.171
▁depression	-11.171
▁merchant	-11.171
▁indignant	-11.1711
▁weaken	-11.1713
▁thief	-11.1715
43	-11.1715
▁correction	-11.1719
▁Eccl	-11.1721
▁police	-11.1722
▁isolat	-11.1723
▁Jesh	-11.1724
erfor	-11.1728
▁tendenc	-11.173
▁map	-11.1743
▁lend	-11.1743
thar	-11.1751
▁farmer	-11.1752
02	-11.1757
▁expens	-11.1758
hor	-11.176
lim	-11.1763
▁presentation	-11.1764
▁Verse	-11.1764
▁refined	-11.1784
▁herds	-11.1789
▁scholar	-11.1797
▁donation	-11.1808
-19	-11.1812
ac	-11.1839
thite	-11.1845
ability	-11.1848
▁handl	-11.1858
▁ride	-11.1861
▁Hag	-11.1872
▁scales	-11.1878
veh	-11.1897
▁rights	-11.1905
▁fo	-11.1906
▁expense	-11.193
ture	-11.194
even	-11.1945
Deuteronomy	-11.1955
what	-11.1955
tite	-11.1958
▁possibl	-11.1963
▁restrain	-11.1969
▁preserv	-11.1969
ush	-11.1972
▁happi	-11.1979
▁winds	-11.198
tes	-11.198
▁broad	-11.1981
▁eliminate	-11.1983
▁empower	-11.1983
▁evolution	-11.1983
▁locate	-11.1983
▁sweep	-11.1983
▁contaminat	-11.1983
▁pardon	-11.1983
▁Facebook	-11.1983
▁Short	-11.1983
▁withdraw	-11.1983
▁Open	-11.1983
▁vicious	-11.1983
▁crop	-11.1984
▁miscarriage	-11.1984
▁pursuit	-11.1984
▁cheerful	-11.1985
▁Grant	-11.1985
▁peer	-11.1986
▁:19-21	-11.1986
▁France	-11.1986
▁77	-11.1986
▁define	-11.1986
▁ensure	-11.1987
▁tight	-11.1987
▁inclination	-11.1987
▁flight	-11.1988
▁&	-11.199
▁collector	-11.1999
pp	-11.2001
▁arose	-11.2006
▁shaken	-11.2014
▁gaze	-11.2018
tro	-11.2031
▁stray	-11.2033
▁inclin	-11.2043
ual	-11.2062
ually	-11.2067
▁diseases	-11.2081
▁method	-11.2085
▁statute	-11.2085
▁July	-11.2095
▁cell	-11.2096
▁recover	-11.2107
▁overl	-11.2116
▁refugee	-11.212
dar	-11.2122
▁Pi	-11.2125
▁wrongdoers	-11.2135
▁divers	-11.2162
▁ignoran	-11.2165
you	-11.2169
▁YOU	-11.2177
▁glean	-11.2189
▁replace	-11.2194
▁Judea	-11.2196
que	-11.2198
▁admoni	-11.2204
▁hop	-11.2205
▁Pu	-11.221
▁Asia	-11.221
mature	-11.2228
worth	-11.224
can	-11.2245
▁compar	-11.225
▁stumbled	-11.2257
▁organ	-11.2261
coffe	-11.2266
▁hospital	-11.2266
▁imprison	-11.2267
▁obsc	-11.2267
-23	-11.2267
▁consist	-11.2269
▁Jehoshaphat	-11.2269
▁Pentecost	-11.2269
▁September	-11.2269
▁burst	-11.2269
▁cistern	-11.2269
▁reconcile	-11.2269
▁vomit	-11.2269
é	-11.2269
▁Antioch	-11.2269
▁Gentile	-11.2269
▁afford	-11.2269
▁foretell	-11.2269
▁Elders	-11.2269
▁sample	-11.2269
▁scorch	-11.2269
▁destructive	-11.2269
▁statue	-11.2269
▁rotten	-11.2269
▁exhaust	-11.227
▁deny	-11.227
▁June	-11.2271
▁oversee	-11.2272
▁intelligent	-11.2278
▁partial	-11.2278
▁realistic	-11.2279
▁cor	-11.2283
▁IN	-11.2283
▁Nation	-11.2288
RE	-11.2291
▁taxes	-11.2292
▁Earl	-11.2298
▁71	-11.23
▁dare	-11.2303
▁:48	-11.2307
▁realm	-11.2317
ER	-11.2333
▁decree	-11.2343
HE	-11.2345
ound	-11.235
▁fails	-11.2353
line	-11.2355
▁topic	-11.2359
▁seeds	-11.2364
▁adult	-11.2368
▁weeds	-11.2375
▁scene	-11.2377
▁State	-11.2378
▁scale	-11.2383
▁dispute	-11.2399
▁permitt	-11.2413
▁curs	-11.242
▁correspond	-11.2427
▁bitterly	-11.2428
▁sho	-11.2445
▁movie	-11.245
▁adults	-11.2452
▁Ri	-11.2466
bat	-11.2472
▁Bil	-11.2477
▁conclud	-11.2483
dah	-11.2483
ians	-11.2492
nar	-11.2494
▁muster	-11.2494
▁schemes	-11.2495
building	-11.25
▁wonders	-11.2503
▁deprive	-11.2503
▁Mac	-11.251
▁financial	-11.2511
▁Bu	-11.2515
-21	-11.2516
▁Y	-11.2528
▁97	-11.2531
piece	-11.2535
Galatians	-11.2535
lly	-11.2537
zah	-11.2542
▁studi	-11.2557
residing	-11.256
onsequent	-11.2561
▁strip	-11.2561
▁encamp	-11.2561
▁Shal	-11.2561
▁Europe	-11.2562
▁admit	-11.2563
▁dispos	-11.2563
▁Family	-11.2563
▁Review	-11.2563
▁chronic	-11.2563
▁declaration	-11.2563
▁divination	-11.2563
▁inflict	-11.2563
▁neglect	-11.2563
▁plenty	-11.2563
▁pollut	-11.2563
▁reassure	-11.2563
▁Walk	-11.2563
▁indefinite	-11.2563
▁queen	-11.2563
▁swift	-11.2563
▁spouse	-11.2563
▁:2-4	-11.2563
▁astound	-11.2563
▁southern	-11.2563
▁abyss	-11.2563
▁Josiah	-11.2564
▁March	-11.2564
▁Long	-11.2564
▁begun	-11.2564
▁bribe	-11.2564
▁intestine	-11.2564
▁enmit	-11.2564
▁merit	-11.2565
▁Often	-11.2565
▁communication	-11.2566
▁examination	-11.2566
▁:6-8	-11.2567
▁apple	-11.2569
▁gross	-11.2569
▁Zec	-11.2569
▁:7-9	-11.2569
▁wake	-11.2575
▁wither	-11.2579
▁pronounce	-11.2579
▁Ez	-11.2582
▁Gather	-11.2586
▁awaken	-11.2593
ep	-11.2603
▁rent	-11.2604
▁begg	-11.2607
▁useful	-11.2611
bar	-11.2614
▁stirred	-11.2618
▁governors	-11.262
▁repurchase	-11.2622
▁Ber	-11.2631
▁admonish	-11.2631
por	-11.2633
▁bend	-11.2635
▁dedicati	-11.2655
▁resolv	-11.2656
aking	-11.2658
▁Rebe	-11.2662
▁beard	-11.2674
▁Hol	-11.2674
stone	-11.2676
▁threat	-11.2677
▁prince	-11.2683
▁amazing	-11.2688
▁fed	-11.269
thu	-11.2693
▁li	-11.2694
▁bone	-11.27
▁bathe	-11.2709
▁oppressed	-11.271
los	-11.2714
acia	-11.2717
▁numbered	-11.2723
▁reader	-11.2754
▁weather	-11.2754
▁pays	-11.2785
▁announc	-11.2787
▁prayerful	-11.279
▁Canaan	-11.2792
▁paint	-11.2798
▁swords	-11.2798
▁wa	-11.2813
▁diligent	-11.2816
sus	-11.2825
Rev	-11.2838
▁surpass	-11.2841
think	-11.2842
human	-11.2844
▁Persia	-11.2845
look	-11.2849
▁dove	-11.2858
▁Ris	-11.286
▁intent	-11.2864
▁communicate	-11.2864
▁necessit	-11.2866
▁JESUS	-11.2866
▁bloodguilt	-11.2866
▁changing	-11.2866
▁relevan	-11.2866
▁ulcer	-11.2866
▁quantit	-11.2866
▁Guard	-11.2866
▁sentiment	-11.2866
▁location	-11.2866
▁Sunday	-11.2867
▁leap	-11.2867
▁pornograph	-11.2867
▁standpoint	-11.2867
▁Priest	-11.2868
▁conviction	-11.2868
▁pronouncement	-11.2868
▁employment	-11.2869
▁:17-19	-11.2869
▁shortly	-11.287
▁scientist	-11.2872
▁Visit	-11.2872
▁smell	-11.2873
▁allowance	-11.2875
▁wooden	-11.2876
▁Parents	-11.2892
▁tread	-11.2897
▁Dani	-11.2897
▁accused	-11.2897
▁pair	-11.2899
ttle	-11.2903
▁Eritrean	-11.2906
▁indicat	-11.2907
▁favorable	-11.2915
▁imp	-11.2916
▁ripe	-11.2924
▁confus	-11.2929
phi	-11.2931
▁Mer	-11.2939
AH	-11.2948
cal	-11.2956
▁terrify	-11.2958
▁log	-11.2963
▁Reph	-11.2981
▁failing	-11.2994
hal	-11.3003
▁pasture	-11.3004
▁relieve	-11.3009
j	-11.3024
▁reminder	-11.3033
▁accident	-11.3037
▁Ch	-11.3055
▁weary	-11.306
▁Add	-11.3064
▁host	-11.3077
▁Save	-11.308
phel	-11.3086
▁texts	-11.3088
▁lean	-11.3106
▁Thanks	-11.3114
▁comp	-11.3115
bek	-11.3118
▁schedule	-11.3124
bin	-11.3126
▁incite	-11.3131
▁deserves	-11.3133
▁accuse	-11.3137
reb	-11.314
gil	-11.314
Phil	-11.3151
tal	-11.3153
▁container	-11.3155
▁Phin	-11.3165
▁distract	-11.3168
▁bal	-11.3172
▁tie	-11.3172
▁scienti	-11.3176
night	-11.3177
▁rear	-11.3177
▁computer	-11.3179
▁explanation	-11.3179
▁qualify	-11.3179
▸	-11.3179
▁testify	-11.3179
▁solemn	-11.3179
▁ultimate	-11.3179
▁unusual	-11.3179
▁Meeting	-11.3179
▁Malachi	-11.3179
▁extensive	-11.3179
▁adhere	-11.3179
▁stole	-11.3179
▁contract	-11.3179
▁qualification	-11.3179
▁Stand	-11.3179
▁threshold	-11.3179
▁Potter	-11.3179
▁chest	-11.3179
▁torment	-11.318
▁Right	-11.318
▁brick	-11.3182
▁Cush	-11.3182
▁Jes	-11.3183
▁execution	-11.3183
▁excuse	-11.3183
▁:14-16	-11.3185
▁coal	-11.3186
▁demonstrat	-11.3187
▁advancement	-11.3187
▁improvement	-11.3188
▁Try	-11.3188
▁continu	-11.3189
▁transferr	-11.3192
▁dance	-11.3196
▁appointment	-11.3201
▁400	-11.3203
▁shore	-11.3204
▁span	-11.321
▁employees	-11.3217
▁Esh	-11.3223
but	-11.3234
ors	-11.3241
▁blasphem	-11.3255
▁acquir	-11.3257
set	-11.3262
gainst	-11.3267
▁hoped	-11.3267
▁Neg	-11.3277
▁spite	-11.3284
▁robbers	-11.3284
▁69	-11.3285
▁notes	-11.3288
▁manag	-11.3289
aw	-11.3298
shai	-11.3303
▁reache	-11.3319
▁prais	-11.3326
tu	-11.3326
▁citizens	-11.3355
AT	-11.3368
fruitful	-11.3371
warming	-11.3384
▁organize	-11.3393
▁translate	-11.3394
▁excit	-11.3426
▁foundations	-11.343
▁Steph	-11.344
▁Bel	-11.3445
-30	-11.3462
Job	-11.3477
▁wid	-11.3479
▁emphasize	-11.3485
▁ut	-11.3486
van	-11.3487
▁dreams	-11.3493
face	-11.3494
▁recogni	-11.3494
▁enroll	-11.3499
▁Greece	-11.3501
▁Suppos	-11.3501
▁absorb	-11.3501
▁fraction	-11.3501
▁Ephesus	-11.3501
▁expans	-11.3501
▁Shepherd	-11.3501
▁snake	-11.3501
▁storehouse	-11.3501
▁retreat	-11.3501
▁virus	-11.3501
▁shining	-11.3502
▁Queen	-11.3502
▁grandson	-11.3502
▁television	-11.3502
▁consistent	-11.3502
▁Peace	-11.3502
▁Unlike	-11.3503
▁historical	-11.3503
▁Spiritual	-11.3505
▁Lib	-11.3505
▁:12-14	-11.3506
▁:16-18	-11.3507
▁ry	-11.3509
▁cling	-11.3512
▁shave	-11.3521
▁centre	-11.3523
▁upset	-11.3524
▁harden	-11.3531
ps	-11.3533
adi	-11.3544
▁trampled	-11.3547
▁Joel	-11.3548
chin	-11.3555
▁behav	-11.3559
▁127	-11.3562
▁ex	-11.3563
rising	-11.3569
▁descended	-11.358
▁Canaanite	-11.3588
▁Numbers	-11.3589
tus	-11.3591
ler	-11.3605
ez	-11.361
▁rob	-11.3616
▁petition	-11.3645
hel	-11.3648
▁citizen	-11.365
▁stead	-11.3654
tify	-11.3681
▁Gaz	-11.3684
ware	-11.3692
▁struggl	-11.3705
▁App	-11.3707
▁dispers	-11.3717
eth	-11.3717
▁Cyr	-11.3751
▁Shar	-11.3754
▁WH	-11.3758
▁Ken	-11.3763
▁forg	-11.3773
oke	-11.3778
▁freed	-11.3794
room	-11.3801
lem	-11.3806
James	-11.3807
board	-11.3808
▁reduce	-11.3812
▁Tit	-11.3819
▁remembering	-11.382
▁deserv	-11.3821
▁restrict	-11.3826
▁basin	-11.3827
▁67	-11.3832
▁empath	-11.3832
vitamin	-11.3835
▁Foundation	-11.3835
▁London	-11.3835
▁collapse	-11.3835
▁deposit	-11.3835
▁disappear	-11.3835
▁discourse	-11.3835
▁philosoph	-11.3835
▁solution	-11.3835
▁appetite	-11.3835
▁conscientious	-11.3835
▁expert	-11.3835
▁slope	-11.3835
▁uncontroll	-11.3835
▁Sudden	-11.3835
▁impact	-11.3835
▁Greet	-11.3835
ROM	-11.3835
▁diarrhe	-11.3835
▁integration	-11.3835
▁occupation	-11.3835
▁chaste	-11.3836
▁Internet	-11.3837
▁phone	-11.3837
▁Faithful	-11.3837
▁84	-11.3838
▁hospitality	-11.3838
▁equipp	-11.3838
▁bloodshed	-11.3838
shish	-11.3839
▁European	-11.3839
▁meditation	-11.3841
▁deceitful	-11.3843
▁secrets	-11.3844
▁Provid	-11.3845
▁conceive	-11.3848
▁media	-11.3849
▁90	-11.385
▁Moab	-11.3851
▁complain	-11.386
▁badly	-11.3867
▁lock	-11.387
▁independen	-11.3872
▁shameful	-11.3878
rub	-11.3894
▁signal	-11.3895
col	-11.3898
▁hit	-11.391
▁tip	-11.3924
ven	-11.3934
▁Pro	-11.3938
▁washing	-11.3939
▁adopted	-11.3942
▁seri	-11.3947
▁Temp	-11.3948
▁emotion	-11.3952
zed	-11.3965
▁St	-11.3966
▁windows	-11.3985
▁heirs	-11.3991
▁wrongdoer	-11.3994
▁tract	-11.3995
▁seasons	-11.3996
▁warrior	-11.3996
cial	-11.3996
blo	-11.4014
▁Suc	-11.4021
▁Baptis	-11.4042
vites	-11.4049
▁probab	-11.4049
tually	-11.4054
▁adopt	-11.407
▁confirm	-11.4071
▁ministeri	-11.4072
▁belongings	-11.4082
▁Haz	-11.4085
hah	-11.4087
rac	-11.4095
pel	-11.4095
▁killing	-11.4104
▁lords	-11.4106
q	-11.4125
uck	-11.413
▁relationships	-11.4132
▁crow	-11.4138
shed	-11.4144
Jehovah	-11.4152
▁Lev	-11.4154
con	-11.4157
▁Judg	-11.4158
rd	-11.4169
▁futil	-11.4177
▁Bl	-11.4179
-40	-11.4179
▁Barnabas	-11.4179
▁assault	-11.4179
▁associating	-11.4179
▁beneficiar	-11.4179
▁club	-11.4179
▁faint	-11.4179
▁thirty	-11.4179
▁Britain	-11.4179
▁abortion	-11.4179
▁embarrass	-11.4179
▁overflow	-11.4179
▁relax	-11.4179
▁malicious	-11.4179
▁steward	-11.418
▁wasteland	-11.418
▁pneumonia	-11.418
▁submissive	-11.418
▁annual	-11.4181
▁:28-30	-11.4181
▁:21-23	-11.4181
▁blameless	-11.4181
▁futility	-11.4182
▁frank	-11.4182
▁prosperity	-11.4184
▁highway	-11.4184
▁tail	-11.4186
▁imitation	-11.4186
▁purifi	-11.4186
verything	-11.4186
▁:8-10	-11.4187
▁memories	-11.4188
▁OF	-11.4189
▁flowers	-11.4189
▁grip	-11.4191
▁interpreter	-11.4193
▁sale	-11.4197
lek	-11.4198
▁objection	-11.4202
▁End	-11.4204
▁site	-11.4209
▁Far	-11.421
▁deepen	-11.4211
ility	-11.4226
▁woe	-11.4233
▁Mar	-11.4235
hul	-11.424
▁backgrounds	-11.424
▁86	-11.4244
▁maybe	-11.4265
etermination	-11.4267
▁sensitiv	-11.427
▁examin	-11.4271
▁drugs	-11.4289
low	-11.4294
ung	-11.4294
▁Ob	-11.4308
▁argue	-11.4325
tle	-11.4328
bor	-11.4329
▁mock	-11.4343
▁onward	-11.4351
▁inhabitant	-11.4354
bish	-11.4362
▁94	-11.4374
▁swarm	-11.4382
▁Jos	-11.4386
▁beach	-11.4398
▁prisoner	-11.4399
▁blaz	-11.4402
▁chase	-11.4421
hen	-11.4452
▁nurs	-11.4481
zite	-11.4487
▁territor	-11.4487
▁hin	-11.4494
ches	-11.4501
Ruth	-11.4509
soul	-11.4509
trained	-11.4511
▁services	-11.4515
▁corners	-11.4517
▁hunt	-11.4517
tribute	-11.4519
▁separat	-11.4522
mark	-11.4526
▁deceit	-11.4528
▁detest	-11.4534
▁78	-11.4534
▁marvel	-11.4535
▁humiliati	-11.4536
▁possibilit	-11.4537
©	-11.4537
▁August	-11.4537
▁Build	-11.4537
▁Search	-11.4537
▁Zechariah	-11.4537
▁brazen	-11.4537
▁carpenter	-11.4537
▁defraud	-11.4537
▁discharge	-11.4537
▁disobedient	-11.4537
▁fierce	-11.4537
▁target	-11.4537
▁Jericho	-11.4537
▁medium	-11.4537
▁uncover	-11.4537
▁Shout	-11.4537
▁handshake	-11.4537
▁steadfast	-11.4537
▁Remove	-11.4537
▁Play	-11.4537
▁plastic	-11.4537
▁Brit	-11.4537
▁extra	-11.4537
▁representative	-11.4537
▁jaw	-11.4537
▁Setting	-11.4538
▁Twelve	-11.4538
▁Must	-11.4538
Col	-11.4544
▁paper	-11.4548
▁translator	-11.4548
▁headship	-11.4548
ise	-11.4553
▁unlike	-11.4554
▁Josh	-11.4557
mu	-11.4558
▁soft	-11.4576
▁surge	-11.4583
▁146	-11.4597
▁combin	-11.4602
▁bigge	-11.4628
kins	-11.4633
▁corresponding	-11.4635
/1	-11.4636
izing	-11.4636
▁mobil	-11.4652
ES	-11.4694
▁dish	-11.4698
▁kids	-11.4712
▁Speaking	-11.4713
▁idol	-11.4722
▁instrument	-11.4723
▁dominat	-11.4741
adness	-11.4743
▁persecut	-11.4744
▁Sham	-11.4758
ition	-11.4778
▁scholars	-11.4782
ending	-11.4783
▁guests	-11.4789
morr	-11.4793
tites	-11.4797
fterward	-11.4799
ries	-11.4822
▁incline	-11.4823
▁boldly	-11.4832
▁worshiper	-11.484
ign	-11.4845
▁achieve	-11.4849
▁remark	-11.4857
▁calamit	-11.4858
▁tooth	-11.4866
ud	-11.4866
commendation	-11.4875
fear	-11.4879
▁promot	-11.4882
▁pronounc	-11.4884
▁Ethiopia	-11.4886
ERS	-11.4888
zor	-11.4891
▁greatness	-11.4895
▁fro	-11.49
▁Trav	-11.4904
fruits	-11.4904
▁spot	-11.4905
▁Concern	-11.4907
▁Describ	-11.4907
▁Empire	-11.4907
▁January	-11.4907
▁administer	-11.4907
▁bottom	-11.4907
▁dismiss	-11.4907
▁kidney	-11.4907
▁torrent	-11.4907
▁volume	-11.4907
▁Pennsylvania	-11.4907
▁bottle	-11.4907
▁unexpected	-11.4907
▁Thousand	-11.4907
▁enthrone	-11.4907
▁envy	-11.4907
▁gentle	-11.4907
▁sleeve	-11.4907
▁glass	-11.4907
▁Source	-11.4907
▁Honor	-11.4907
▁Practic	-11.4907
▁Modest	-11.4907
▁ensnare	-11.4907
MATT	-11.4907
ACT	-11.4907
▁track	-11.4907
▁overthrow	-11.4907
▁memorial	-11.4908
▁obst	-11.4908
▁tonsillitis	-11.4908
▁plate	-11.4908
▁veil	-11.4908
▁apostate	-11.4909
▁Heaven	-11.4909
▁speed	-11.4909
▁Index	-11.4911
▁defilement	-11.4912
▁coast	-11.4914
▁Rock	-11.4914
▁worn	-11.4916
rance	-11.4917
▁accomplishment	-11.4919
▁persecute	-11.4919
▁donor	-11.492
▁reasonableness	-11.4926
▁:58	-11.4929
OW	-11.4931
▁Additional	-11.4931
▁compell	-11.4932
▁compos	-11.4939
▁Readers	-11.4942
▁symbolize	-11.4944
▁cooperate	-11.495
▁:47	-11.4957
▁sports	-11.496
ake	-11.4961
▁reduced	-11.4962
▁Sho	-11.4962
▁conspir	-11.4962
▁loan	-11.4965
hief	-11.4965
ger	-11.4967
▁expell	-11.4973
▁succeeded	-11.4973
▁treasury	-11.4977
ogether	-11.4983
nam	-11.4992
▁smaller	-11.4998
▁115	-11.5
▁sentenced	-11.5002
lar	-11.5004
▁Tu	-11.5011
▁Mah	-11.5042
▁mud	-11.5044
▁annihilat	-11.5076
hud	-11.5076
▁tradition	-11.5079
▁favorabl	-11.5083
▁submitt	-11.5107
▁kid	-11.5108
▁layer	-11.5117
▁Time	-11.5137
▁cow	-11.5147
▁estimat	-11.5153
▁traveler	-11.5171
▁purchas	-11.5175
▁mob	-11.5177
▁col	-11.5187
neh	-11.5187
-39	-11.5189
▁Sin	-11.5192
sei	-11.5206
bad	-11.522
dding	-11.5225
lat	-11.5226
mber	-11.5228
cent	-11.5232
▁tour	-11.5234
▁German	-11.5245
▁rendering	-11.5252
▁acknowledg	-11.5264
600	-11.5266
▁trace	-11.5268
▁suppli	-11.5289
▁Encyclop	-11.5292
▁Reflect	-11.5292
▁Rescue	-11.5292
▁Wisdom	-11.5292
▁manslayer	-11.5292
▁mount	-11.5292
▁reproof	-11.5292
▁shudder	-11.5292
▁cautious	-11.5292
▁exploit	-11.5292
▁intimate	-11.5292
▁vivid	-11.5292
▁Throw	-11.5292
▁retain	-11.5292
▁adapt	-11.5292
▁egg	-11.5292
▁average	-11.5292
▁defect	-11.5292
▁bacteria	-11.5292
▁wagon	-11.5292
▁withhold	-11.5292
▁:32-3	-11.5292
▁unreasonable	-11.5293
▁description	-11.5293
▁population	-11.5293
▁fuel	-11.5294
▁dig	-11.5294
▁alcoholic	-11.5294
ww	-11.5295
▁observance	-11.5295
▁:20-22	-11.5295
▁panic	-11.5296
▁progressive	-11.5296
▁Zeph	-11.5298
▁operation	-11.5298
▁frequent	-11.5298
▁profan	-11.53
▁stool	-11.5301
▁Gold	-11.5301
▁quotation	-11.5304
▁polic	-11.5305
▁saving	-11.5306
▁bab	-11.531
▁borrow	-11.5311
▁noise	-11.5314
▁Abba	-11.5316
▁fad	-11.5321
▁movement	-11.5324
ency	-11.5327
rath	-11.5332
▁Prepare	-11.5335
ink	-11.5344
▁incur	-11.5361
lish	-11.5363
▁era	-11.5363
▁92	-11.5363
▁unbelievers	-11.5364
▁verb	-11.5366
▁groaning	-11.5369
▁depriv	-11.5371
▁Than	-11.5378
rable	-11.5383
▁requests	-11.5392
▁Hur	-11.5403
▁intentions	-11.5407
▁purchase	-11.541
liness	-11.5413
▁items	-11.5414
nite	-11.5416
cid	-11.5434
▁whistle	-11.5451
▁Bath	-11.5455
rene	-11.5459
rite	-11.546
lus	-11.5467
ean	-11.5471
▁Mel	-11.5473
city	-11.5476
44	-11.5478
▁traditions	-11.5482
▁holder	-11.5486
▁flash	-11.5486
▁Ru	-11.5489
horn	-11.5491
▁Cat	-11.5491
▁forehead	-11.5504
▁pole	-11.5508
▁exc	-11.5511
▁capa	-11.5522
▁Tir	-11.5563
▁cords	-11.5572
venge	-11.5573
▁pains	-11.5574
▁pregnanc	-11.5579
▁believer	-11.5598
▁lo	-11.5599
▁groan	-11.5612
▁cook	-11.5622
her	-11.5626
14	-11.5628
▁nets	-11.5646
▁Arab	-11.5647
26	-11.5653
▁Rais	-11.5656
K	-11.5657
▁attacks	-11.5661
Exodus	-11.5664
▁scorn	-11.5665
▁Easter	-11.567
▁cedars	-11.5671
lmighty	-11.5675
▁Nah	-11.5676
AS	-11.5677
▁91	-11.5677
▁unbeliev	-11.5681
▁hung	-11.5684
▁galax	-11.5692
▁England	-11.5692
▁Footnote	-11.5692
▁IMAG	-11.5692
▁Michael	-11.5692
▁Sweden	-11.5692
▁drunkenness	-11.5692
▁footstep	-11.5692
▁harbor	-11.5692
▁immortal	-11.5692
▁medication	-11.5692
▁newspaper	-11.5692
▁scepter	-11.5692
▁vaccine	-11.5692
▁attentive	-11.5692
▁enlighten	-11.5692
▁nourish	-11.5692
▁thrust	-11.5692
▁compuls	-11.5692
▁barren	-11.5692
▁confine	-11.5692
▁snatch	-11.5692
▁sparrow	-11.5692
▁windstorm	-11.5692
CHR	-11.5692
▁deput	-11.5692
▁myriad	-11.5692
▁Draw	-11.5692
▁appreciative	-11.5692
▁cool	-11.5692
▁dirt	-11.5692
▁puff	-11.5693
▁insignificant	-11.5693
▁trespasses	-11.5694
▁z	-11.5695
▁flat	-11.5696
▁Kish	-11.5697
▁surprising	-11.5699
▁prov	-11.57
▁colon	-11.5701
▁Zim	-11.5701
▁Shechem	-11.5702
▁university	-11.5705
▁grabb	-11.571
▁bake	-11.5713
▁:52	-11.5715
▁Nazi	-11.5716
wn	-11.5716
fold	-11.5719
▁Dig	-11.5723
▁fold	-11.5726
▁Zu	-11.5741
▁Dead	-11.5744
gs	-11.5749
▁Apply	-11.5755
▁cooperat	-11.5755
itis	-11.5767
nom	-11.5767
▁Ek	-11.5769
▁cooking	-11.5772
kil	-11.5785
OV	-11.579
▁dominate	-11.5791
table	-11.5793
▁fearless	-11.5794
▁endless	-11.5806
mech	-11.5807
▁Don	-11.5816
▁cur	-11.5816
▁Alas	-11.5823
▁settings	-11.5824
▁wandering	-11.5824
▁operat	-11.5833
rez	-11.584
▁sufferings	-11.5853
20	-11.5858
▁supreme	-11.5861
IB	-11.5865
▁aveng	-11.5873
▁welcom	-11.5873
tire	-11.588
▁compromise	-11.5884
▁expose	-11.5914
▁prisoners	-11.5917
▁criminal	-11.5918
▁window	-11.5924
▁em	-11.5929
▁arrow	-11.5934
▁suggestion	-11.5938
raged	-11.5939
▁noble	-11.5941
▁householder	-11.5945
sts	-11.5951
▁rocks	-11.5966
ON	-11.5975
▁Univers	-11.6001
mesh	-11.6003
▁America	-11.6005
rak	-11.6008
▁Abim	-11.6018
lways	-11.6029
shad	-11.6031
J	-11.6033
▁shy	-11.6037
▁prostrat	-11.6045
▁skip	-11.6055
edia	-11.6056
▁anxiet	-11.6059
nowledge	-11.6068
45	-11.6077
aten	-11.6077
▁Gu	-11.6077
Philippians	-11.608
incense	-11.608
wood	-11.608
includ	-11.608
bear	-11.6082
rate	-11.6087
▁Kit	-11.6088
▁pierce	-11.6091
long	-11.6091
orldwide	-11.6096
▁profess	-11.6106
▁Din	-11.6107
▁Tract	-11.6108
▁deviate	-11.6108
▁exquisite	-11.6108
▁helmet	-11.6108
▁machine	-11.6108
▁muscle	-11.6108
▁perspective	-11.6108
▁shrewd	-11.6108
▁supernatural	-11.6108
▁universal	-11.6108
▁valid	-11.6108
▁vegetable	-11.6108
▁Natural	-11.6108
▁deliberate	-11.6108
▁hammer	-11.6108
▁incident	-11.6108
▁typical	-11.6108
▁vanish	-11.6108
▁Writing	-11.6108
AVE	-11.6108
▁keen	-11.6108
▁Honest	-11.6108
▁lazy	-11.6108
▁alliance	-11.6108
▁experiment	-11.6108
▁rapid	-11.6108
▁Martha	-11.6108
▁gray	-11.6109
▁stroke	-11.6109
▁forgot	-11.6109
▁Discussion	-11.6109
▁guy	-11.6109
althcare	-11.6109
▁bereave	-11.611
▁Rabbi	-11.611
▁email	-11.611
▁crash	-11.6111
▁Cause	-11.6111
▁arrival	-11.6111
EH	-11.6111
▁Leader	-11.6112
▁2015	-11.6113
▁Million	-11.6114
besh	-11.6114
▁reverse	-11.6114
▁destin	-11.6114
▁Six	-11.6115
▁:13-15	-11.6116
▁gems	-11.6117
▁Power	-11.6118
▁intervene	-11.6121
▁Russian	-11.6123
▁technology	-11.6124
▁anywhere	-11.6124
▁Along	-11.6125
▁cash	-11.6128
▁Span	-11.613
▁shot	-11.613
▁sinning	-11.6132
▁complet	-11.6148
▁ornaments	-11.6152
▁los	-11.6157
▁enjoyable	-11.6158
▁rank	-11.6159
▁senseless	-11.616
▁sprinkl	-11.616
▁thie	-11.616
▁miser	-11.6166
▁tolerate	-11.6177
▁comprehensi	-11.618
▁Jok	-11.6183
shap	-11.6186
▁lifetime	-11.6187
▁interfere	-11.6196
▁explore	-11.6205
dominant	-11.6213
ide	-11.6215
▁cr	-11.6219
▁strange	-11.6242
▁Agen	-11.6246
▁slight	-11.6257
▁Hand	-11.626
▁Pad	-11.6264
▁embrac	-11.6271
▁recovered	-11.6273
▁beating	-11.6281
▁poster	-11.6291
▁Ner	-11.6298
▁violat	-11.6299
chir	-11.6307
his	-11.6312
▁Den	-11.6321
▁crossing	-11.6326
▁imply	-11.6336
mim	-11.6339
▁Ter	-11.6345
▁Tax	-11.6356
▁miracle	-11.6359
▁cherub	-11.6359
▁weapon	-11.6359
▁sole	-11.6366
▁scenes	-11.638
▁remov	-11.6383
▁transmit	-11.6385
▁testifie	-11.6393
dod	-11.6396
▁desir	-11.6405
▁:24-2	-11.6414
ache	-11.6425
▁Mov	-11.6426
▁hinder	-11.643
▁arrives	-11.6443
nania	-11.6447
dor	-11.6451
▁wo	-11.6463
▁treatments	-11.6479
▁honored	-11.6493
che	-11.6494
▁suppose	-11.6511
quarter	-11.6514
]	-11.6515
Christian	-11.6515
experienced	-11.652
▁Australia	-11.6521
roar	-11.6522
▁critic	-11.6523
shore	-11.6529
▁valleys	-11.6529
together	-11.6532
▁farm	-11.6533
▁Person	-11.6539
ologists	-11.6539
▁infect	-11.6541
welve	-11.6541
▁Accept	-11.6543
▁Maintain	-11.6543
▁Quebec	-11.6543
▁affirm	-11.6543
▁carriage	-11.6543
▁crooked	-11.6543
▁disobedience	-11.6543
▁disrupt	-11.6543
▁elevat	-11.6543
▁hurry	-11.6543
▁mirror	-11.6543
▁reconsider	-11.6543
▁thornbush	-11.6543
▁trailer	-11.6543
▁turban	-11.6543
▁French	-11.6543
▁ethnic	-11.6543
▁:4-6	-11.6543
▁Gideon	-11.6543
▁fraud	-11.6543
▁Asmara	-11.6543
▁liberat	-11.6543
▁abdom	-11.6543
▁admir	-11.6543
▁sanct	-11.6543
erior	-11.6544
▁cunning	-11.6544
▁mill	-11.6544
▁Choose	-11.6544
▁mutual	-11.6544
▁assess	-11.6545
▁flatter	-11.6547
▁disappointment	-11.6547
▁homeland	-11.6548
▁Plain	-11.6548
▁lifestyle	-11.655
▁:11-14	-11.655
▁tire	-11.6552
▁island	-11.6554
▁motivation	-11.6556
illai	-11.6557
▁Zep	-11.656
▁stem	-11.656
▁repurchaser	-11.6561
▁complaint	-11.6562
▁unwa	-11.6562
▁imitator	-11.6563
▁mail	-11.6565
▁collection	-11.6574
hith	-11.6574
▁unwise	-11.6575
cia	-11.6584
▁employer	-11.6587
▁Beyon	-11.6589
▁ink	-11.6596
▁83	-11.6608
▁traged	-11.6613
▁Ai	-11.6634
▁multiplie	-11.6644
▁upward	-11.6646
▁heir	-11.6646
off	-11.6648
▁banne	-11.6658
▁masters	-11.6661
▁Vers	-11.6662
range	-11.6682
being	-11.6683
▁forbidd	-11.6692
▁disperse	-11.6699
▁befall	-11.67
▁card	-11.67
mat	-11.6702
▁ca	-11.6719
▁blaze	-11.6722
▁organizational	-11.6728
TION	-11.6728
sam	-11.6735
▁injur	-11.6738
rian	-11.6742
KE	-11.6746
▁Live	-11.6751
▁spy	-11.6751
▁fever	-11.6758
▁cows	-11.6758
▁Head	-11.6785
uel	-11.6788
atic	-11.6799
▁Mil	-11.6803
▁argu	-11.6805
▁descend	-11.6807
urb	-11.6807
▁concubine	-11.681
Wh	-11.6811
vah	-11.6812
▁Understand	-11.6814
▁Sen	-11.6816
aps	-11.6819
▁threats	-11.6819
▁decrees	-11.6829
▁impose	-11.6837
nach	-11.6839
nes	-11.685
▁bestow	-11.6866
▁designs	-11.6909
▁shak	-11.6919
99	-11.6922
▁wors	-11.6926
▁craft	-11.6927
ncy	-11.6927
-7	-11.6945
▁productiv	-11.6947
▁lodg	-11.6965
▁disast	-11.6966
▁centr	-11.6966
foot	-11.697
Daniel	-11.697
speaking	-11.697
”	-11.697
married	-11.697
preaching	-11.6971
▁hell	-11.6972
▁trample	-11.6972
life	-11.6977
▁interpret	-11.6977
▁devoured	-11.6979
▁oblig	-11.6982
▁significan	-11.6983
whe	-11.6983
eath	-11.6985
▁tolerat	-11.6986
▁hypocri	-11.6988
aware	-11.6989
▁emphasi	-11.6989
▁user	-11.6993
-25	-11.6997
▁STUD	-11.6998
▁Ghana	-11.6998
▁Husband	-11.6998
▁corpse	-11.6998
▁cymbal	-11.6998
▁eunuch	-11.6998
▁gossip	-11.6998
▁juniper	-11.6998
▁penalty	-11.6998
▁psycholog	-11.6998
▁puzzl	-11.6998
▁unnecessar	-11.6998
▁whisper	-11.6998
▁Branch	-11.6998
▁Place	-11.6998
▁amazement	-11.6998
▁fragments	-11.6998
▁milestone	-11.6998
▁roast	-11.6998
▁incompa	-11.6998
▁improper	-11.6998
▁inspect	-11.6998
▁fervent	-11.6998
▁Charl	-11.6998
▁Antoni	-11.6998
▁overturn	-11.6998
▁Testament	-11.6998
▁yellow	-11.6998
▁Water	-11.6998
▁Shiloh	-11.6998
▁General	-11.6998
▁fatten	-11.6998
rib	-11.6999
▁jail	-11.6999
partment	-11.7
scope	-11.7
▁broaden	-11.7001
▁House	-11.7001
▁stripp	-11.7001
▁:16-19	-11.7002
▁shortage	-11.7003
▁Hope	-11.7004
▁:5-8	-11.7005
▁dishes	-11.7005
▁undu	-11.7009
▁kn	-11.7014
rown	-11.7015
▁nest	-11.7016
▁impression	-11.7017
loth	-11.7019
▁symbolic	-11.7025
▁emphasiz	-11.7029
▁supposed	-11.7031
▁waited	-11.7034
hin	-11.7038
ology	-11.7041
hach	-11.7048
▁Bala	-11.7049
thon	-11.7049
▁fisher	-11.7051
▁builder	-11.7052
▁sub	-11.7055
▁stage	-11.7056
▁Su	-11.7061
▁pose	-11.7067
ager	-11.708
▁pomegranates	-11.7081
▁craftsm	-11.7084
▁Nine	-11.7088
▁allot	-11.7093
▁Things	-11.7093
handed	-11.7099
▁Jub	-11.7105
▁sink	-11.711
going	-11.7137
nim	-11.7137
qui	-11.7142
▁partak	-11.7143
▁confirmed	-11.7146
▁refine	-11.7163
HEN	-11.7167
hol	-11.7175
▁mentally	-11.7212
▁Ram	-11.7221
▁Sheb	-11.7223
tur	-11.723
tai	-11.7235
▁rebuk	-11.7237
▁Hab	-11.7241
bearer	-11.7248
▁uncle	-11.7249
ull	-11.725
han	-11.7257
▁mass	-11.7273
▁subdu	-11.7274
▁Iz	-11.7282
▁introduc	-11.7292
-36	-11.7297
tam	-11.7298
▁rang	-11.731
▁yearn	-11.731
ire	-11.7331
▁,7	-11.7359
▁TO	-11.7366
▁Mag	-11.7374
▁visionar	-11.7389
▁Abi	-11.7392
cur	-11.7394
▁Ur	-11.741
▁Joe	-11.7411
▁adulter	-11.7422
▁previous	-11.7422
gen	-11.743
▁stab	-11.7432
▁74	-11.7443
joy	-11.7444
Eccl	-11.7445
Deut	-11.7446
suffering	-11.7446
Titus	-11.7447
active	-11.7447
▁Sit	-11.7448
call	-11.7467
▁adversar	-11.747
▁congregat	-11.747
▁entertain	-11.7472
▁excess	-11.7473
scription	-11.7473
▁spit	-11.7473
INE	-11.7473
▁redempti	-11.7474
▁¶1	-11.7474
▁Article	-11.7474
▁February	-11.7474
▁Wicked	-11.7474
▁adversit	-11.7474
▁certificate	-11.7474
▁convert	-11.7474
▁diagnos	-11.7474
▁dirge	-11.7474
▁engineer	-11.7474
▁grind	-11.7474
▁haughtiness	-11.7474
▁immense	-11.7474
▁manuscript	-11.7474
▁prejudice	-11.7474
▁purify	-11.7474
▁spatter	-11.7474
▁sulfur	-11.7474
▁turmoil	-11.7474
▁unpunished	-11.7474
▁vehicle	-11.7474
▁wield	-11.7474
▁detect	-11.7474
▁famous	-11.7474
▁figurative	-11.7474
▁overpower	-11.7474
▁pervert	-11.7474
▁consent	-11.7474
▁drain	-11.7474
▁conform	-11.7474
▁disposition	-11.7474
▁injurious	-11.7474
▁colour	-11.7474
▁physician	-11.7474
▁Obey	-11.7474
▁Health	-11.7474
▁percent	-11.7474
drach	-11.7474
▁COVER	-11.7474
holic	-11.7475
▁distinction	-11.7475
▁achievement	-11.7476
▁token	-11.7477
▁debate	-11.7479
▁anchor	-11.748
▁pause	-11.748
▁exhortation	-11.748
▁contentment	-11.748
▁subtle	-11.748
▁stock	-11.7481
▁undermine	-11.7482
3-6	-11.7483
▁pret	-11.7483
▁reveren	-11.7485
▁Ezra	-11.7486
yin	-11.749
▁instantly	-11.7491
▁emergenc	-11.7491
lor	-11.7491
▁dignifie	-11.7492
acious	-11.7493
coth	-11.7493
rays	-11.7495
▁India	-11.7496
▁Kei	-11.7502
▁newcomers	-11.7506
mother	-11.7507
resh	-11.7511
change	-11.7513
▁Gog	-11.7513
book	-11.7513
▁astonished	-11.7525
▁concept	-11.7528
▁89	-11.7533
▁wishe	-11.7542
▁Neph	-11.7546
▁Ach	-11.7549
phu	-11.7553
▁submissi	-11.7553
In	-11.7556
▁hopeless	-11.7564
leph	-11.7565
▁Part	-11.7567
▁fragran	-11.7576
▁watche	-11.7591
CH	-11.7598
▁gleaning	-11.761
▁Eg	-11.7611
▁99	-11.7621
▁confusi	-11.7632
▁giver	-11.7633
▁:50	-11.7648
▁refin	-11.7649
▁quietly	-11.7652
▁Years	-11.7655
-13	-11.7674
▁undo	-11.7677
▁pop	-11.7678
▁repeated	-11.7682
lines	-11.7688
▁sour	-11.7721
▁reaper	-11.7723
▁overwhelming	-11.7725
eparation	-11.7777
dul	-11.7797
▁Year	-11.7802
▁unknow	-11.7807
ilee	-11.7813
▁Mich	-11.7815
▁longing	-11.7817
▁misle	-11.7822
self	-11.7829
▁distribute	-11.7833
▁worshipper	-11.784
oph	-11.7851
▁147	-11.7863
▁Set	-11.7878
▁Hash	-11.7892
▁ga	-11.7897
▁Fin	-11.7898
lag	-11.7899
▁Pel	-11.7904
ump	-11.7918
▁contribut	-11.7927
▁Eat	-11.7935
sites	-11.7939
ator	-11.7943
ric	-11.7944
practic	-11.7945
▁Ste	-11.7946
spread	-11.7946
grown	-11.7947
▁Va	-11.7956
▁breathe	-11.7961
▁entice	-11.7963
-33	-11.7963
▁sect	-11.7966
maker	-11.7967
made	-11.7968
▁Nin	-11.797
nternational	-11.7973
▁embroider	-11.7974
▁Appendi	-11.7974
▁Assembly	-11.7974
▁Brazil	-11.7974
▁Include	-11.7974
▁bosom	-11.7974
▁captain	-11.7974
▁concentrate	-11.7974
▁creep	-11.7974
▁desolation	-11.7974
▁disguis	-11.7974
▁eyewitness	-11.7974
▁liquid	-11.7974
▁marauder	-11.7974
▁Origin	-11.7974
▁goddess	-11.7974
▁regain	-11.7974
▁Brook	-11.7974
▁Initial	-11.7974
▁cramp	-11.7974
▁reconcili	-11.7974
▁shift	-11.7974
▁honour	-11.7974
▁Tetragram	-11.7974
▁ocean	-11.7974
▁resent	-11.7974
▁interior	-11.7974
▁Rudol	-11.7974
▁Freedom	-11.7974
▁Guide	-11.7974
▁Physic	-11.7974
▁jewel	-11.7974
▁swine	-11.7974
▁winepress	-11.7974
▁lust	-11.7974
▁descent	-11.7974
▁loom	-11.7975
▁Nazirite	-11.7975
▁Sister	-11.7975
▁readjust	-11.7975
▁Commandment	-11.7975
▁excessive	-11.7975
▁disagreement	-11.7975
1940	-11.7976
▁beggar	-11.7976
▁flag	-11.7976
▁Bank	-11.7977
▁Frank	-11.7977
▁Habakkuk	-11.7977
▁worrie	-11.7978
▁spell	-11.7979
latter	-11.798
▁stain	-11.798
▁ethic	-11.798
▁:11-13	-11.7981
▁hall	-11.7982
▁hypocrite	-11.7982
▁Zil	-11.7982
thoth	-11.7988
▁Ezek	-11.7989
▁fasten	-11.7989
▁2008	-11.7994
▁dash	-11.7995
▁debtor	-11.7995
▁wholeheartedly	-11.7999
▁US	-11.8
▁logical	-11.8004
TEEN	-11.8006
▁Persian	-11.8009
▁statements	-11.801
scent	-11.8014
▁thoughtful	-11.8015
▁rash	-11.8017
bai	-11.8019
▁q	-11.8022
▁arch	-11.8029
▁Neth	-11.8029
▁Meditat	-11.8039
▁visitor	-11.8039
▁:49	-11.8048
▁diligently	-11.8061
▁descending	-11.8064
▁invad	-11.8064
stretch	-11.8068
▁Mir	-11.807
▁Laz	-11.8071
▁136	-11.8075
▁Nis	-11.8075
ving	-11.8077
▁101	-11.8079
▁Ver	-11.8085
▁displease	-11.8091
had	-11.8092
iling	-11.8107
▁replac	-11.8113
kay	-11.8119
▁laughing	-11.8129
▁Om	-11.813
▁trans	-11.8131
▁butter	-11.8133
▁powerless	-11.8134
mental	-11.815
▁introduce	-11.8168
▁foolishly	-11.817
bub	-11.8179
loved	-11.8201
▁determin	-11.8204
▁chat	-11.8204
▁Yo	-11.8208
nath	-11.822
▁Bi	-11.8232
mid	-11.8233
gon	-11.824
mun	-11.8244
par	-11.8261
▁Mam	-11.8266
▁career	-11.8283
▁stores	-11.8285
▁Iran	-11.8305
▁exam	-11.8308
odia	-11.8325
▁formal	-11.8336
▁luxuri	-11.8337
▁discerning	-11.8341
▁Ce	-11.8367
drin	-11.8378
▁doves	-11.8379
▁demanded	-11.8384
▁baskets	-11.8385
▁uproot	-11.8388
▁distort	-11.8389
▁tast	-11.8392
▁mix	-11.8393
13	-11.8396
▁invade	-11.8408
bul	-11.8408
▁murmur	-11.842
▁conspira	-11.8422
▁surg	-11.8433
▁tu	-11.8449
break	-11.8454
▁civil	-11.8455
▁advise	-11.8465
▁exterminate	-11.8467
▁remembers	-11.8471
Leviticus	-11.8472
log	-11.8475
house	-11.8475
400	-11.8475
lives	-11.8479
pour	-11.848
▁Actual	-11.8482
stand	-11.8483
Ex	-11.8485
chal	-11.8486
ained	-11.8486
▁enabl	-11.8491
▁portray	-11.8495
▁communicat	-11.8499
▁Begin	-11.85
▁PUBLISH	-11.85
▁:45-47	-11.85
▁Church	-11.85
▁Comment	-11.85
▁Emperor	-11.85
▁colleague	-11.85
▁concentrati	-11.85
▁disloyal	-11.85
▁enhance	-11.85
▁exclaim	-11.85
▁fascinat	-11.85
▁lecture	-11.85
▁platform	-11.85
▁profile	-11.85
▁strateg	-11.85
▁telephone	-11.85
▁thigh	-11.85
▁park	-11.85
▁William	-11.85
▁consoling	-11.85
▁sunrise	-11.85
▁Wait	-11.85
▁Philippines	-11.85
▁inviting	-11.85
▁genealogical	-11.85
▁phrase	-11.85
▁neat	-11.85
▁chew	-11.85
▁Old	-11.85
▁spill	-11.85
▁micro	-11.85
▁rampart	-11.85
▁Uriah	-11.8501
▁midnight	-11.8501
▁entreat	-11.8501
▁doorpost	-11.8501
▁fountain	-11.8501
▁calves	-11.8501
▁consolation	-11.8501
▁Talk	-11.8501
▁heavi	-11.8501
▁admitted	-11.8501
▁uncertain	-11.8501
▁password	-11.8501
▁massive	-11.8501
▁estate	-11.8502
▁filth	-11.8502
▁Righteousness	-11.8502
▁:23-25	-11.8502
▁Enter	-11.8503
▁status	-11.8503
▁blame	-11.8503
▁:10-13	-11.8504
▁imprisonment	-11.8504
▁trem	-11.8504
NCE	-11.8504
▁Sis	-11.8505
▁presiding	-11.8506
acco	-11.8506
▁hooks	-11.8506
▁persecutor	-11.8508
▁ox	-11.8508
▁raid	-11.8509
▁scoff	-11.8509
▁Back	-11.8509
▁Seven	-11.851
▁lifesav	-11.8511
▁Donation	-11.8514
▁furni	-11.8515
▁cultivator	-11.8516
▁indication	-11.8516
▁scream	-11.8516
▁Five	-11.852
▁2011	-11.852
▁Careful	-11.8521
▁2009	-11.8524
▁ridiculer	-11.8526
tree	-11.8526
▁Too	-11.8529
▁exempl	-11.8534
▁stepp	-11.8534
▁Week	-11.8535
▁fortress	-11.8537
▁Bear	-11.8543
▁tough	-11.8547
▁Spa	-11.8548
▁references	-11.8558
▁shines	-11.8558
▁marit	-11.8569
▁shear	-11.8578
▁influences	-11.8594
▁scar	-11.8594
▁perceiv	-11.8605
ker	-11.861
▁Leave	-11.8613
▁75	-11.8622
date	-11.8626
▁American	-11.8641
iction	-11.8644
▁authoriz	-11.8645
shma	-11.8656
tial	-11.8662
▁misus	-11.8665
ange	-11.8665
DA	-11.8667
▁infants	-11.867
▁Tom	-11.8673
▁Sir	-11.8676
▁estimate	-11.8694
ov	-11.873
kindness	-11.8732
▁seduce	-11.8742
cut	-11.8763
phib	-11.8764
▁anti	-11.877
shu	-11.8778
▁domin	-11.8779
act	-11.8796
lene	-11.88
▁apos	-11.8811
ado	-11.8812
▁announce	-11.8814
▁cat	-11.8822
▁fatal	-11.8825
▁whistl	-11.8829
owing	-11.8843
iest	-11.8865
▁doctrine	-11.8866
7-10	-11.8869
▁robber	-11.8875
▁marrying	-11.8902
▁donat	-11.8917
▁bruise	-11.8922
▁publisher	-11.8922
▁harps	-11.8924
39	-11.8944
▁materials	-11.8944
nda	-11.8944
▁Sta	-11.8959
▁comprehen	-11.896
▁users	-11.8964
leg	-11.8979
▁sprinkle	-11.8987
dee	-11.8998
fit	-11.9015
post	-11.9023
search	-11.9025
Numbers	-11.9027
Witness	-11.9027
Ecclesiastes	-11.9028
stream	-11.9028
week	-11.9028
What	-11.9034
viously	-11.9035
tim	-11.9046
criptural	-11.9051
eptic	-11.9052
wedish	-11.9054
▁specifi	-11.9054
▁fift	-11.9055
▁astrolog	-11.9056
▁Education	-11.9056
▁ISSUE	-11.9056
▁Marriage	-11.9056
▁Purpose	-11.9056
▁Republic	-11.9056
▁ancestor	-11.9056
▁channel	-11.9056
▁dancing	-11.9056
▁dragnet	-11.9056
▁drift	-11.9056
▁engrave	-11.9056
▁exaggerat	-11.9056
▁exempt	-11.9056
▁fortune	-11.9056
▁harass	-11.9056
▁immers	-11.9056
▁immun	-11.9056
▁obstacle	-11.9056
▁proportion	-11.9056
▁trend	-11.9056
▁unrepentant	-11.9056
▁insolent	-11.9056
▁Immigra	-11.9056
▁booth	-11.9056
▁definite	-11.9056
▁fashion	-11.9056
▁limp	-11.9056
▁rabbi	-11.9056
▁Reason	-11.9056
▁dollar	-11.9056
▁evildoer	-11.9056
▁dropped	-11.9056
▁undertone	-11.9056
▁Cross	-11.9056
▁index	-11.9056
▁commercial	-11.9056
▁fluid	-11.9056
▁recount	-11.9056
▁Strengthen	-11.9056
▁drunkard	-11.9056
▁cheek	-11.9056
▁football	-11.9056
▁cancer	-11.9057
▁aposta	-11.9057
▁stern	-11.9057
▁persistent	-11.9057
itude	-11.9057
▁craftsman	-11.9058
▁sunset	-11.9058
▁disturbance	-11.9058
▁Foo	-11.9058
▁teenager	-11.9058
▁magnificent	-11.9059
▁charit	-11.9059
▁Nazare	-11.906
▁president	-11.906
itage	-11.906
▁:18-20	-11.906
▁bleed	-11.9061
▁neighborhood	-11.9062
enior	-11.9063
lves	-11.9063
▁disgraceful	-11.9064
▁nationality	-11.9065
▁Syn	-11.9067
▁rot	-11.9067
▁pack	-11.9068
▁Hoph	-11.9069
▁Child	-11.907
▁criticize	-11.9072
nication	-11.9073
▁outbreak	-11.9075
▁declin	-11.9075
▁Mother	-11.9077
▁spra	-11.9079
tub	-11.908
spiration	-11.908
▁Line	-11.9085
▁respective	-11.9087
▁magical	-11.9088
▁Neh	-11.9089
▁subsid	-11.9092
▁sickle	-11.9093
▁History	-11.9093
▁impell	-11.9095
▁Mild	-11.9096
▁restraint	-11.91
▁Days	-11.9107
▁Gem	-11.9107
vin	-11.911
48	-11.9112
▁bald	-11.9116
▁chap	-11.9117
▁funera	-11.9124
▁myster	-11.9128
▁route	-11.913
▁82	-11.9132
▁slanderer	-11.9132
▁Millenni	-11.9136
▁facet	-11.9142
▁loath	-11.915
▁def	-11.9153
▁lit	-11.9157
▁Ah	-11.9158
▁characters	-11.916
chiz	-11.9161
▁outward	-11.918
▁79	-11.9189
47	-11.9195
1-13	-11.9197
▁Shin	-11.9197
▁leaning	-11.9202
sai	-11.9202
RY	-11.9204
17-21	-11.9211
▁hips	-11.9214
rick	-11.9215
mind	-11.922
▁2016	-11.922
nstructor	-11.9222
AL	-11.9222
ague	-11.9232
lite	-11.9236
headed	-11.9268
tych	-11.9269
-41	-11.9281
▁Ath	-11.9281
▁concubines	-11.9291
▁graves	-11.9293
▁follower	-11.9322
ench	-11.9326
▁DO	-11.9333
▁beam	-11.9334
▁roads	-11.9335
pas	-11.9354
mus	-11.9357
▁Saying	-11.9357
▁flu	-11.9362
▁relat	-11.9367
ova	-11.9372
▁Giv	-11.9378
▁hairs	-11.9385
▁IT	-11.9392
22	-11.9421
▁sore	-11.9422
gid	-11.9439
bir	-11.9441
▁infant	-11.9457
▁multipl	-11.9459
▁drug	-11.946
▁item	-11.9461
▁forbid	-11.9462
▁Mish	-11.9465
▁minute	-11.9467
▁stare	-11.947
▁cooperati	-11.9483
▁decid	-11.9485
▁persevere	-11.9498
▁celebrat	-11.9499
▁saves	-11.9499
▁searche	-11.95
mission	-11.9511
▁blesse	-11.952
authorize	-11.9524
▁stirr	-11.9544
LU	-11.9545
▁establishing	-11.9549
▁damag	-11.9549
▁Liv	-11.9555
▁Mala	-11.9574
skirt	-11.9615
discipline	-11.9616
Jews	-11.9616
field	-11.9616
from	-11.9616
Z	-11.9616
will	-11.9618
free	-11.9618
nothing	-11.9618
▁mission	-11.9619
▁Russia	-11.9623
▁shoe	-11.9626
etters	-11.9632
▁port	-11.9638
ania	-11.9641
are	-11.9642
▁disagree	-11.9642
▁transport	-11.9642
▁Loyal	-11.9643
▁Modern	-11.9644
▁Counsel	-11.9644
▁Gamaliel	-11.9644
▁Library	-11.9644
▁Nebuchad	-11.9644
▁Nicaragua	-11.9644
▁Participa	-11.9644
▁Scienti	-11.9644
▁View	-11.9644
▁Zephaniah	-11.9644
▁administrati	-11.9644
▁advertising	-11.9644
▁ceremony	-11.9644
▁device	-11.9644
▁diminish	-11.9644
▁electric	-11.9644
▁extremit	-11.9644
▁facult	-11.9644
▁favour	-11.9644
▁inaugurat	-11.9644
▁intimidat	-11.9644
▁nervous	-11.9644
▁nostrils	-11.9644
▁patriarch	-11.9644
▁recipient	-11.9644
▁renounce	-11.9644
▁resort	-11.9644
▁revive	-11.9644
▁temperature	-11.9644
▁traffic	-11.9644
▁trivial	-11.9644
▁Boldness	-11.9644
▁gazelle	-11.9644
▁blast	-11.9644
▁unintentional	-11.9644
▁undertake	-11.9644
▁controvers	-11.9644
▁protest	-11.9644
▁unwilling	-11.9644
teller	-11.9644
EMO	-11.9644
▁doorkeeper	-11.9644
fathom	-11.9644
▁reform	-11.9644
▁alternative	-11.9644
IES	-11.9645
▁Centr	-11.9645
▁loop	-11.9645
▁impurity	-11.9645
▁chaf	-11.9645
▁Light	-11.9645
▁legitimate	-11.9645
▁carcasses	-11.9645
▁analys	-11.9645
▁inflame	-11.9646
heikh	-11.9646
▁sadden	-11.9646
▁doorway	-11.9646
▁rooster	-11.9647
▁bondage	-11.9647
▁circle	-11.9647
shah	-11.9647
▁Four	-11.9648
▁Baptism	-11.9648
perna	-11.9649
▁:4-7	-11.9649
PS	-11.9649
▁Swedish	-11.9649
▁bio	-11.9649
▁assert	-11.9649
▁dip	-11.9649
ivor	-11.965
▁violation	-11.965
▁Development	-11.965
▁flare	-11.9651
▁institution	-11.9652
▁copyist	-11.9652
zur	-11.9652
▁newborn	-11.9652
▁Box	-11.9654
▁hesitate	-11.9654
▁rafter	-11.9654
▁Imitate	-11.9655
rdes	-11.9657
▁combat	-11.9659
▁twig	-11.966
bab	-11.966
▁manifestation	-11.9663
term	-11.9664
▁entic	-11.9665
▁directive	-11.9665
▁adequate	-11.9666
▁cheer	-11.9666
▁Zal	-11.9666
▁Pat	-11.9667
▁Union	-11.967
▁cart	-11.9671
▁skirt	-11.9673
▁procession	-11.9673
▁vent	-11.9674
▁1950	-11.9677
▁Fest	-11.9695
▁specialist	-11.9696
▁hearers	-11.9698
thun	-11.9705
▁ignor	-11.971
▁lab	-11.9714
▁warp	-11.9717
hib	-11.9717
eraph	-11.9722
put	-11.9724
▁lair	-11.9726
▁dens	-11.9735
▁murmuring	-11.9735
▁err	-11.9737
▁financially	-11.9751
▁meddl	-11.9757
▁greedi	-11.976
god	-11.9762
▁Caes	-11.9764
▁ON	-11.9772
▁85	-11.978
▁contacts	-11.9785
▁savior	-11.9788
lel	-11.9796
itable	-11.9805
▁analyze	-11.9817
▁Gra	-11.9839
79	-11.9841
▁West	-11.986
▁possesse	-11.9884
hum	-11.9891
▁rim	-11.9892
▁badge	-11.9921
leth	-11.9921
mple	-11.9947
NA	-11.9956
▁Forgive	-11.9957
▁converse	-11.997
▁rightful	-11.9994
▁unkind	-11.9998
▁aright	-12.0001
mite	-12.0014
IC	-12.0036
ular	-12.0068
ative	-12.0068
▁destroyer	-12.0072
▁operate	-12.0077
▁bother	-12.0079
▁Same	-12.0083
▁grape	-12.0084
zin	-12.0085
▁Question	-12.0085
▁approache	-12.0085
▁intention	-12.0096
▁attribute	-12.0109
▁banks	-12.0122
▁Sun	-12.0134
ference	-12.0138
vite	-12.0146
▁jobs	-12.0163
▁customar	-12.0178
▁photo	-12.0196
doubted	-12.0198
72	-12.0204
pan	-12.0204
▁advis	-12.0227
▁obe	-12.023
sions	-12.023
▁striv	-12.023
inal	-12.0232
organiz	-12.024
▁grab	-12.024
appropriate	-12.0241
Colossians	-12.0241
▁conceiv	-12.0247
▁Satur	-12.0248
who	-12.0249
with	-12.0251
▁vo	-12.0254
▁intelligen	-12.0254
▁Ezr	-12.0263
▁devou	-12.0265
▁bill	-12.0266
▁parch	-12.0267
xerx	-12.0269
▁Example	-12.0269
▁Friend	-12.0269
▁apportion	-12.0269
▁cloak	-12.0269
▁cycle	-12.0269
▁earthenware	-12.0269
▁equivalen	-12.0269
▁grandchildren	-12.0269
▁hurried	-12.0269
▁immigrant	-12.0269
▁intuition	-12.0269
▁knob	-12.0269
▁radio	-12.0269
▁reunification	-12.0269
▁tambourine	-12.0269
▁thrive	-12.0269
▁varied	-12.0269
▁vulnerab	-12.0269
▁Organize	-12.0269
▁pledge	-12.0269
▁Evident	-12.0269
▁approximate	-12.0269
▁sincerity	-12.0269
▁denounce	-12.0269
▁diploma	-12.0269
▁peak	-12.0269
▁stagger	-12.0269
RIAL	-12.0269
▁False	-12.0269
▁genetic	-12.0269
▁Middle	-12.0269
▁braid	-12.0269
▁thwart	-12.0269
▁Latin	-12.0269
▁bait	-12.0269
▁stuff	-12.0269
▁Epaphr	-12.0269
▁contradict	-12.0269
▁Relie	-12.0269
AND	-12.027
▁fringe	-12.027
▁registr	-12.027
▁overlay	-12.027
▁okay	-12.027
▁impartial	-12.027
▁saddle	-12.027
▁COM	-12.0271
▁flute	-12.0271
▁sympathize	-12.0271
▁Milan	-12.0271
▁flawless	-12.0271
▁hostility	-12.0272
▁Full	-12.0272
▁transgressor	-12.0273
▁auto	-12.0273
▁sedition	-12.0273
▁sunlight	-12.0274
oves	-12.0274
▁furnish	-12.0274
▁supplement	-12.0274
▁enrollment	-12.0275
▁sharpen	-12.0275
▁salut	-12.0275
▁Religion	-12.0275
▁Personal	-12.0276
▁foli	-12.0277
▁riddle	-12.0277
▁essen	-12.0277
▁alienate	-12.0278
▁Might	-12.0278
▁Nim	-12.0279
▁evangelizer	-12.0281
▁lone	-12.0283
▁oppressor	-12.0285
▁:51	-12.0285
▁Jesse	-12.0286
▁faultless	-12.0286
▁restriction	-12.0286
▁JOHN	-12.0288
▁Color	-12.0289
▁accura	-12.029
giver	-12.029
▁fishing	-12.0292
▁glow	-12.0293
▁Sinai	-12.0295
gus	-12.0296
▁dramatic	-12.0296
▁guardian	-12.0296
▁watchful	-12.0299
▁everybody	-12.0301
raging	-12.0305
▁Cre	-12.0313
▁Bow	-12.0325
▁Jop	-12.0329
▁renewed	-12.033
adel	-12.0333
▁dragg	-12.0334
▁fl	-12.0338
chan	-12.0339
▁decreed	-12.0341
▁wayward	-12.0341
▁Ever	-12.0344
zil	-12.0374
▁Oh	-12.0376
▁Main	-12.0378
hyness	-12.038
gently	-12.0384
▁hint	-12.0386
▁agenc	-12.0387
EA	-12.039
▁wiser	-12.0393
▁Step	-12.0395
pu	-12.0397
▁rap	-12.0399
▁distorted	-12.0403
▁Benefits	-12.0411
▁marketplaces	-12.0411
▁counter	-12.0465
▁Kid	-12.0467
alia	-12.0467
▁summ	-12.0475
▁Rich	-12.0483
▁excited	-12.0491
▁Chin	-12.0534
98	-12.0549
▁menstrua	-12.0551
▁unlov	-12.0565
▁Hel	-12.0568
▁solv	-12.058
▁Move	-12.0582
▁absen	-12.0587
▁hostil	-12.0595
▁consulting	-12.0611
istress	-12.0641
llen	-12.0645
▁sum	-12.067
▁spin	-12.0677
▁promis	-12.0693
▁Jeho	-12.0697
▁Zac	-12.0722
elling	-12.0733
▁hip	-12.075
▁Judges	-12.0751
▁regulation	-12.0752
chab	-12.0756
▁Gar	-12.0758
cher	-12.076
▁experienc	-12.0761
▁fork	-12.0766
dim	-12.0772
▁Corne	-12.0776
phar	-12.078
▁Plan	-12.0799
▁rip	-12.0805
▁Mana	-12.0842
UL	-12.0846
33	-12.086
▁swim	-12.0872
▁improv	-12.0876
style	-12.0879
▁besieg	-12.088
▁Pal	-12.0894
▁impel	-12.0898
review	-12.0904
▁transfer	-12.0906
X	-12.0906
possess	-12.0907
text	-12.0907
respect	-12.0907
How	-12.0908
town	-12.091
▁marrie	-12.091
limit	-12.0911
isation	-12.0915
Jer	-12.0922
▁Dor	-12.0925
▁merci	-12.0928
▁forsak	-12.0928
etween	-12.0929
▁dictat	-12.0931
▁splend	-12.0934
ncline	-12.0935
▁delicac	-12.0935
▁Blood	-12.0936
▁Content	-12.0936
▁Convention	-12.0936
▁Credit	-12.0936
▁Friday	-12.0936
▁Repurchase	-12.0936
▁accumulat	-12.0936
▁array	-12.0936
▁caution	-12.0936
▁deport	-12.0936
▁discriminat	-12.0936
▁encircl	-12.0936
▁enormous	-12.0936
▁exterminati	-12.0936
▁hollow	-12.0936
▁intensity	-12.0936
▁jackals	-12.0936
▁myrrh	-12.0936
▁pilot	-12.0936
▁pocket	-12.0936
▁recreation	-12.0936
▁stubble	-12.0936
▁ticket	-12.0936
▁turtledove	-12.0936
▁wrestle	-12.0936
▁1928	-12.0936
▁Perfect	-12.0936
▁constitutional	-12.0936
▁crippl	-12.0936
▁empti	-12.0936
▁hygien	-12.0936
▁illegal	-12.0936
▁overshadow	-12.0936
▁Grow	-12.0936
▁Iehova	-12.0936
▁exceeding	-12.0936
▁stalk	-12.0936
▁Ephraim	-12.0936
▁George	-12.0936
▁roadways	-12.0936
MIT	-12.0936
▁Reveal	-12.0936
▁beverage	-12.0936
▁Justice	-12.0936
▁restorative	-12.0936
▁casual	-12.0936
▁passenger	-12.0936
▁plaster	-12.0936
▁Change	-12.0936
▁Trini	-12.0936
▁erect	-12.0936
▁magnify	-12.0936
▁clap	-12.0936
▁raven	-12.0936
▁roman	-12.0936
▁substance	-12.0937
ustenance	-12.0937
▁Lift	-12.0937
▁brokenhearted	-12.0938
▁harmonious	-12.0938
▁chok	-12.0938
▁Research	-12.0938
▁Jehova	-12.0939
▁globe	-12.0939
▁Ziph	-12.0939
▁Happiness	-12.0939
▁Judgment	-12.094
▁ancestr	-12.094
▁SEC	-12.094
▁Lesson	-12.094
▁discussions	-12.094
▁booklet	-12.0941
▁professor	-12.0941
▁magnifi	-12.0942
TTEN	-12.0942
▁fence	-12.0942
▁Lys	-12.0943
▁unfold	-12.0944
▁:8-11	-12.0946
▁Wester	-12.0948
▁falsehood	-12.0948
▁trapped	-12.0949
motional	-12.095
▁Near	-12.0952
▁wrestling	-12.0952
▁Proclaim	-12.0954
▁misunderstand	-12.0957
▁instill	-12.0957
▁thin	-12.0967
▁programme	-12.0968
▁production	-12.0968
▁schoolmate	-12.0968
▁measurement	-12.0971
▁version	-12.0971
▁lunches	-12.0974
▁disrespectful	-12.0976
pach	-12.0978
▁Glor	-12.0979
ID	-12.0984
▁Rem	-12.0992
▁besiege	-12.0992
▁ice	-12.0995
▁quarter	-12.0995
▁substitute	-12.1
fan	-12.1008
▁95	-12.1009
▁oven	-12.102
▁canceled	-12.1031
▁reflection	-12.1036
▁Tal	-12.1036
lath	-12.1037
mil	-12.1037
▁achiev	-12.1039
irus	-12.1042
▁keeper	-12.1042
ilies	-12.1046
▁incit	-12.1049
ridge	-12.1054
olf	-12.1056
▁Heart	-12.1063
▁148	-12.1071
▁scent	-12.1073
▁128	-12.1075
phir	-12.1092
gai	-12.1095
▁Japh	-12.1096
25	-12.1099
▁Hin	-12.1101
▁Divin	-12.111
▁mistaken	-12.1122
rove	-12.1124
▁PE	-12.1125
75	-12.1131
sburg	-12.1132
3-8	-12.1134
▁shad	-12.1142
▁Jar	-12.115
▁mocked	-12.1152
15	-12.1158
▁donate	-12.1158
▁sew	-12.1163
estial	-12.1165
▁Mach	-12.1172
sade	-12.1184
▁occasional	-12.1186
▁105	-12.1186
▁wip	-12.1201
AM	-12.1206
▁Nai	-12.121
hub	-12.122
▁Deb	-12.1233
ico	-12.1233
▁ski	-12.1236
▁Repent	-12.1239
▁injure	-12.1255
gan	-12.1257
▁convers	-12.1258
▁foreheads	-12.1263
▁——	-12.1272
▁penn	-12.1274
▁mar	-12.1301
rites	-12.131
▁fisherm	-12.1312
▁loads	-12.1313
ill	-12.1318
▁petitions	-12.1332
▁pleading	-12.1332
stones	-12.1332
och	-12.1361
60	-12.1362
kh	-12.1369
▁Bad	-12.1371
hash	-12.1372
fellowship	-12.1376
▁supervise	-12.1384
▁internal	-12.1402
▁via	-12.142
▁scarce	-12.1436
▁analyz	-12.1442
▁eradicate	-12.1444
▁rubb	-12.1464
ank	-12.1471
▁diet	-12.1475
▁arriv	-12.1509
▁compet	-12.1518
omer	-12.1522
56	-12.1528
▁:41-4	-12.153
▁frustrat	-12.1536
▁investigate	-12.1539
▁trag	-12.154
▁pleas	-12.154
41	-12.1546
▁dense	-12.1553
▁ceremoni	-12.1563
▁mal	-12.1568
▁knock	-12.1568
▁loathe	-12.1574
▁appendi	-12.1599
▁identifie	-12.1601
▁Ci	-12.1604
▁Joi	-12.1605
▁North	-12.1615
precedent	-12.162
▁shun	-12.162
grip	-12.1621
strengthen	-12.1622
tribe	-12.1622
God	-12.1623
▁fee	-12.1627
34	-12.1627
▁interven	-12.1627
LY	-12.1631
back	-12.1631
▁reprov	-12.1633
▁prominen	-12.1635
▁Bibl	-12.1637
▁data	-12.1639
mportant	-12.1643
▁invalid	-12.1648
avor	-12.1648
▁arouse	-12.1648
▁vigor	-12.1648
▁librar	-12.165
▁shovel	-12.165
Secret	-12.165
▁GOD	-12.165
▁Minister	-12.165
▁Principle	-12.165
▁Regular	-12.165
▁Strike	-12.165
▁convincing	-12.165
▁election	-12.165
▁evaluate	-12.165
▁incredibl	-12.165
▁leopard	-12.165
▁pluck	-12.165
▁pronunciation	-12.165
▁relentless	-12.165
▁1993	-12.165
▁Absolute	-12.165
▁Special	-12.165
▁passport	-12.165
▁historian	-12.165
▁option	-12.165
▁unleash	-12.165
▁brag	-12.165
▁indecent	-12.165
▁motion	-12.165
▁pertain	-12.165
▁stamp	-12.165
▁tactful	-12.165
▁Interest	-12.165
▁derive	-12.165
▁console	-12.165
▁endanger	-12.165
▁foster	-12.165
▁enrich	-12.165
▁breach	-12.165
▁crisis	-12.165
▁libert	-12.165
▁brave	-12.165
▁Offer	-12.165
▁insect	-12.165
▁interact	-12.165
▁aggressive	-12.165
uriosity	-12.165
▁limb	-12.165
▁Location	-12.165
▁instinctive	-12.1651
▁witch	-12.1651
▁legend	-12.1651
▁cock	-12.1651
▁terminal	-12.1651
▁passionate	-12.1651
▁Close	-12.1651
▁laughter	-12.1652
▁adulterers	-12.1653
▁refinement	-12.1653
▁confidential	-12.1653
▁digest	-12.1654
▁bandage	-12.1655
▁absence	-12.1655
▁darkened	-12.1655
▁caps	-12.1656
▁Wise	-12.1657
▁1937	-12.1657
▁Pour	-12.1657
shom	-12.1658
▁collective	-12.1658
▁stair	-12.1664
▁parallel	-12.1664
▁spice	-12.1666
▁:7-12	-12.1666
▁1920	-12.1666
▁creditor	-12.1667
die	-12.1668
▁hys	-12.1674
▁couch	-12.168
▁pierc	-12.168
▁Last	-12.1686
▁Geth	-12.169
▁exterminated	-12.1695
▁lure	-12.1696
▁traditional	-12.17
▁wrap	-12.1701
▁pet	-12.1702
▁avail	-12.1703
▁Reach	-12.1706
▁Yehova	-12.1711
▁rough	-12.1711
▁competiti	-12.1713
▁dec	-12.1714
▁orphan	-12.1715
▁proselyte	-12.172
moz	-12.173
ila	-12.1734
ograph	-12.1736
▁Table	-12.1737
▁file	-12.174
▁96	-12.1744
▁offender	-12.1751
▁hewn	-12.1754
▁Mem	-12.177
▁archer	-12.1771
▁counselor	-12.1776
cul	-12.1786
▁driver	-12.1811
otic	-12.1816
▁pounds	-12.1828
▁Jona	-12.1842
cess	-12.1845
vo	-12.1882
▁deject	-12.1895
▁skinn	-12.1896
ioth	-12.1902
▁artist	-12.1907
▁rider	-12.1933
EC	-12.1946
▁sting	-12.1951
▁smok	-12.1953
▁persuad	-12.1955
▁cards	-12.1969
corruptible	-12.1979
icate	-12.1979
▁Witnessing	-12.2008
naz	-12.2009
▁circulat	-12.2012
▁Er	-12.2017
IG	-12.2019
bro	-12.2021
▁flie	-12.2041
54	-12.2045
asting	-12.2053
▁costly	-12.2054
▁Fle	-12.2069
hite	-12.207
▁feasting	-12.2077
▁Mik	-12.2096
▁AS	-12.2112
▁enthusias	-12.2121
TV	-12.2143
▁passe	-12.2147
7-11	-12.2159
ook	-12.2165
▁Num	-12.2167
rash	-12.2169
NE	-12.2172
tretch	-12.2179
tery	-12.2196
tar	-12.2199
water	-12.22
▁Cho	-12.2219
73	-12.2229
▁bite	-12.2231
▁pound	-12.2238
▁relation	-12.224
▁eradicat	-12.2253
▁frag	-12.2253
▁laborer	-12.2262
▁appreciat	-12.2263
▁Tah	-12.2263
nointed	-12.2293
ncient	-12.2307
zel	-12.2312
▁multi	-12.2314
gad	-12.2321
illa	-12.2324
▁Dr	-12.2326
▁format	-12.233
yx	-12.2339
▁trad	-12.2351
62	-12.2355
▁vigorous	-12.2368
dek	-12.2383
point	-12.2386
sylum	-12.2387
▁replie	-12.2388
oordinator	-12.2388
▁educat	-12.2388
adequate	-12.239
craft	-12.239
Jesus	-12.2391
ryone	-12.2391
fast	-12.2392
▁accur	-12.2393
Jas	-12.2393
abundant	-12.2396
▁commo	-12.2396
200	-12.2397
door	-12.2402
▁transgress	-12.2403
center	-12.2409
▁convict	-12.2414
▁econom	-12.2417
▁advertise	-12.2417
▁Command	-12.2417
▁procla	-12.2417
iscarriage	-12.2417
▁import	-12.2418
▁leaf	-12.2419
א	-12.2419
ב	-12.2419
ג	-12.2419
ה	-12.2419
ז	-12.2419
ח	-12.2419
ט	-12.2419
כ	-12.2419
ל	-12.2419
ע	-12.2419
פ	-12.2419
ר	-12.2419
ש	-12.2419
ת	-12.2419
▁COR	-12.2419
▁Effective	-12.2419
▁Integrity	-12.2419
▁LIFE	-12.2419
▁Latvia	-12.2419
▁Orthodo	-12.2419
▁Pioneer	-12.2419
▁advocat	-12.2419
▁autumn	-12.2419
▁brutal	-12.2419
▁college	-12.2419
▁complement	-12.2419
▁demean	-12.2419
▁electronic	-12.2419
▁embryo	-12.2419
▁exhibit	-12.2419
▁juice	-12.2419
▁license	-12.2419
▁molecule	-12.2419
▁reluctant	-12.2419
▁tactic	-12.2419
▁adverse	-12.2419
▁bloom	-12.2419
▁excitement	-12.2419
▁grammar	-12.2419
▁margin	-12.2419
▁perplex	-12.2419
▁prevalen	-12.2419
▁reprimand	-12.2419
▁ruthless	-12.2419
▁1990	-12.2419
▁blott	-12.2419
▁calculate	-12.2419
▁conscript	-12.2419
▁disapprov	-12.2419
▁pigeon	-12.2419
▁unanimous	-12.2419
▁gesture	-12.2419
▁taint	-12.2419
▁extort	-12.2419
▁Monday	-12.2419
▁Ireland	-12.2419
▁recip	-12.2419
▁organisation	-12.2419
▁Felix	-12.2419
▁censu	-12.2419
▁batter	-12.2419
▁persuasive	-12.2419
▁pig	-12.2419
▁nerve	-12.2419
▁Enjoy	-12.2419
▁:31-35	-12.242
▁Communication	-12.242
▁Finish	-12.242
▁Drink	-12.242
PLE	-12.242
▁Deliver	-12.242
▁cupbearer	-12.242
▁Link	-12.242
▁evaluation	-12.242
▁Philippi	-12.242
▁hillside	-12.242
▁Milk	-12.2421
▁alarm	-12.2421
▁Norway	-12.2421
▁Feder	-12.2421
▁poly	-12.2422
▁Drive	-12.2422
found	-12.2422
▁transportation	-12.2422
▁notifications	-12.2422
▁Comfort	-12.2423
polit	-12.2423
▁sealskin	-12.2423
▁Fran	-12.2423
▁edition	-12.2423
▁continuous	-12.2424
▁shopp	-12.2424
▁reck	-12.2424
▁dull	-12.2424
mitted	-12.2425
▁:9-13	-12.2425
▁annul	-12.2426
▁compli	-12.2427
▁skies	-12.2427
▁Face	-12.2428
▁Sign	-12.2429
▁crave	-12.243
▁Compar	-12.2432
icated	-12.2432
four	-12.2435
▁rampa	-12.2435
▁blemish	-12.2439
▁flaw	-12.2439
▁severity	-12.2439
▁lung	-12.2439
dental	-12.244
mash	-12.2441
▁CD	-12.2441
▁:1-9	-12.2442
▁anyway	-12.2443
▁observation	-12.2446
▁Maybe	-12.2447
▁presume	-12.2448
▁lance	-12.245
▁Gradua	-12.245
▁baker	-12.2453
away	-12.2455
▁nice	-12.2458
▁trac	-12.2465
▁Sheph	-12.2465
▁Cher	-12.2467
▁educate	-12.2467
▁boxes	-12.2469
▁Gir	-12.247
▁Arama	-12.247
▁scornful	-12.247
▁characterize	-12.2471
▁Free	-12.2476
▁Self	-12.2477
▁Care	-12.2479
▁2000	-12.2482
ellow	-12.2489
▁surpasse	-12.2491
vocation	-12.2492
▁Start	-12.2493
▁cancel	-12.2502
49	-12.2506
▁Pot	-12.2507
▁shell	-12.2508
▁:35-3	-12.2517
rumbling	-12.2519
those	-12.253
▁sober	-12.2534
zon	-12.2535
▁pearls	-12.2535
▁tro	-12.2539
▁deer	-12.254
▁prostrate	-12.254
▁instructors	-12.2552
color	-12.2571
RI	-12.2583
wt	-12.2584
ison	-12.2584
▁98	-12.2586
▁uprooted	-12.2587
CE	-12.2601
▁mocking	-12.2602
UR	-12.2607
ictionar	-12.2608
▁Creati	-12.2628
▁Observe	-12.268
▁doctrines	-12.2691
▁Mede	-12.2705
▁Aha	-12.2705
▁supervis	-12.2709
▁Sib	-12.2712
love	-12.2717
▁ledge	-12.2742
rice	-12.2749
▁Rid	-12.2756
pol	-12.2764
onia	-12.2773
▁Eth	-12.2786
▁criminals	-12.2787
dden	-12.2787
▁clarif	-12.2791
emen	-12.2797
rod	-12.2802
▁confuse	-12.2804
▁vote	-12.2813
▁calmly	-12.2818
▁abs	-12.2823
▁Chi	-12.2828
llie	-12.2833
▁imagined	-12.2834
▁unsu	-12.2836
gam	-12.2851
▁quote	-12.2856
▁plott	-12.2865
▁tracts	-12.2867
tive	-12.2873
ita	-12.2883
▁growl	-12.2904
▁pale	-12.2908
▁rushe	-12.2926
▁informal	-12.2929
▁:30-3	-12.293
▁resemble	-12.2934
▁Jab	-12.2943
IL	-12.2944
rau	-12.2951
grat	-12.2958
OUR	-12.2964
tricke	-12.2968
eased	-12.2992
form	-12.3012
▁quarantine	-12.3013
eserve	-12.3047
▁Author	-12.3062
unk	-12.3063
▁Benefit	-12.3064
▁marketplace	-12.3065
▁Number	-12.3068
▁decade	-12.3068
vement	-12.3088
hob	-12.3106
▁escap	-12.3108
xamination	-12.311
▁Translat	-12.3115
▁Juda	-12.3123
▁assemble	-12.3136
▁poli	-12.3141
▁Medit	-12.3143
▁irre	-12.3156
▁flam	-12.3161
ological	-12.3164
noon	-12.3167
-43	-12.317
word	-12.3171
▁swell	-12.3193
▁battled	-12.3198
TEE	-12.3199
▁logic	-12.3207
▁lac	-12.3209
-1	-12.3212
thai	-12.3212
iko	-12.3212
▁compel	-12.3214
righteous	-12.3219
▁humiliate	-12.3221
roads	-12.3224
thankful	-12.3224
assurance	-12.3224
custom	-12.3224
Jeremiah	-12.3224
blood	-12.3225
pagan	-12.3229
100	-12.3229
▁merchan	-12.3238
▁numb	-12.3238
▁mat	-12.3238
▁alien	-12.3242
▁repai	-12.3243
80	-12.3246
▁Happi	-12.3248
verlasting	-12.325
mail	-12.3251
undred	-12.3251
fensive	-12.3252
▁slip	-12.3252
▁commerc	-12.3252
▁entry	-12.3252
▁Levitic	-12.3252
▁crack	-12.3252
°	-12.3252
í	-12.3252
ד	-12.3252
ו	-12.3252
מ	-12.3252
נ	-12.3252
ס	-12.3252
צ	-12.3252
ק	-12.3252
▁Administrat	-12.3252
▁Elizabeth	-12.3252
▁Harteva	-12.3252
▁Increase	-12.3252
▁Protect	-12.3252
▁Quit	-12.3252
▁Respect	-12.3252
▁blotch	-12.3252
▁brillian	-12.3252
▁cluster	-12.3252
▁decreas	-12.3252
▁draft	-12.3252
▁enclos	-12.3252
▁graphic	-12.3252
▁mortar	-12.3252
▁phenomen	-12.3252
▁pupil	-12.3252
▁retirement	-12.3252
▁retribution	-12.3252
▁sapphire	-12.3252
▁sensible	-12.3252
▁thriving	-12.3252
▁uniform	-12.3252
▁¶4	-12.3252
▁1946	-12.3252
▁1953	-12.3252
▁Disaster	-12.3252
▁Evil	-12.3252
▁Palestine	-12.3252
▁Present	-12.3252
▁Safeguard	-12.3252
▁archaeologi	-12.3252
▁chemical	-12.3252
▁complicate	-12.3252
▁crouch	-12.3252
▁enlarge	-12.3252
▁infinite	-12.3252
▁summarize	-12.3252
▁gender	-12.3252
▁moist	-12.3252
▁racial	-12.3252
▁speck	-12.3252
▁unfair	-12.3252
▁Train	-12.3252
▁haul	-12.3252
▁illuminat	-12.3252
▁Foreign	-12.3252
▁Ohio	-12.3252
▁stoop	-12.3252
▁techni	-12.3252
▁Philemon	-12.3252
▁intellectual	-12.3252
▁pouch	-12.3252
▁automatic	-12.3252
▁dropping	-12.3252
▁flint	-12.3252
▁Prince	-12.3252
▁winnow	-12.3252
▁cyber	-12.3253
▁depict	-12.3253
▁conquest	-12.3253
▁entryway	-12.3253
▁propos	-12.3253
▁Pardon	-12.3253
▁mixture	-12.3253
▁dispossess	-12.3253
▁feeble	-12.3253
▁radian	-12.3253
▁Dwell	-12.3253
▁Sudan	-12.3253
▁stump	-12.3253
▁polite	-12.3253
▁storeroom	-12.3253
HEB	-12.3253
▁fluent	-12.3253
▁Tigr	-12.3253
▁twenty	-12.3253
ceasing	-12.3253
▁contentious	-12.3254
Mal	-12.3254
▁civilian	-12.3254
▁Fill	-12.3254
biotic	-12.3254
▁contemporar	-12.3254
ggl	-12.3254
RO	-12.3254
▁signpost	-12.3254
▁decent	-12.3255
quest	-12.3255
▁Humili	-12.3255
▁COUNT	-12.3256
▁Stephan	-12.3257
▁buckler	-12.3257
▁budge	-12.3257
lative	-12.3258
▁drown	-12.3258
▁shop	-12.3258
▁Carry	-12.3259
▁:5-13	-12.3259
▁1938	-12.3259
▁1895	-12.3259
▁stunn	-12.3259
▁dung	-12.3259
▁prime	-12.3259
▁Moabites	-12.326
▁cud	-12.3261
▁worm	-12.3261
▁Relat	-12.3261
▁decisive	-12.3261
▁madness	-12.3261
▁grace	-12.3262
▁hypocritical	-12.3264
▁:6-11	-12.3264
▁Hill	-12.3265
▁OK	-12.3265
shak	-12.3266
racious	-12.3267
▁List	-12.3267
▁Down	-12.3267
▁obligat	-12.327
▁omen	-12.327
▁hoof	-12.3271
▁venue	-12.3274
▁echo	-12.3277
▁ambassador	-12.3278
▁accuser	-12.3278
▁pretend	-12.328
▁envious	-12.3282
uff	-12.3287
▁alter	-12.3288
▁Shall	-12.329
ourtyard	-12.3291
▁pillag	-12.3304
▁ball	-12.3305
arm	-12.3306
kan	-12.3308
▁components	-12.3311
▁lodge	-12.3314
told	-12.3316
▁objector	-12.3318
▁joyous	-12.3323
▁brim	-12.3326
polis	-12.3328
▁Truth	-12.3335
▁competenc	-12.3337
▁rec	-12.3342
▁tar	-12.3348
▁knocking	-12.3349
▁sooth	-12.335
▁Letter	-12.3351
▁handsome	-12.3357
▁African	-12.3364
▁unrel	-12.3365
fire	-12.3367
▁agent	-12.337
▁Worker	-12.3372
gand	-12.3374
seman	-12.3379
▁mad	-12.3389
▁betrayer	-12.3395
▁111	-12.3401
dise	-12.3407
▁recovery	-12.341
▁stretcher	-12.3423
▁Du	-12.3425
unc	-12.3431
▁124	-12.3436
rug	-12.3437
zan	-12.3444
▁moth	-12.3447
▁bruis	-12.346
▁dam	-12.3461
▁handful	-12.3474
▁cel	-12.3478
▁spices	-12.348
bstin	-12.35
▁harmonize	-12.351
ique	-12.3511
▁attributes	-12.3515
▁Israeli	-12.3516
▁predict	-12.3521
urious	-12.3541
▁soar	-12.3552
▁exams	-12.3567
▁rub	-12.3571
round	-12.3585
▁sharer	-12.3585
raw	-12.3646
▁litera	-12.3649
▁Bin	-12.365
▁Join	-12.3656
▁Sk	-12.3675
▁disab	-12.3687
▁eradicati	-12.3687
alom	-12.3695
chus	-12.37
▁compromis	-12.3726
▁UN	-12.3733
▁seduc	-12.3751
37	-12.3765
ardo	-12.3783
▁circula	-12.3792
▁confid	-12.3793
▁Phili	-12.3793
iversity	-12.3809
▁Sid	-12.3822
▁Declare	-12.3827
▁hopeful	-12.3846
92	-12.3854
▁Aqu	-12.3856
nything	-12.3874
▁Thir	-12.3874
▁Instruct	-12.3889
▁recline	-12.3916
axes	-12.393
▁repurchas	-12.3938
have	-12.3938
onge	-12.3939
▁Zin	-12.3957
bite	-12.3992
▁popul	-12.3996
▁Hal	-12.4012
nun	-12.4013
▁wor	-12.4027
▁illustrat	-12.4037
▁erase	-12.4081
wear	-12.4084
apo	-12.4092
HIS	-12.4093
erran	-12.4098
east	-12.4109
alvation	-12.411
▁discre	-12.4123
▁circumcise	-12.413
resident	-12.413
JOHN	-12.4133
Neh	-12.4133
disturb	-12.4133
familiar	-12.4133
acceptabl	-12.4133
stitute	-12.4137
Give	-12.4143
onderful	-12.4148
scape	-12.415
anointed	-12.415
▁rememb	-12.4151
apping	-12.4153
▁dim	-12.4154
▁append	-12.4155
aster	-12.4155
▁influen	-12.4156
enturies	-12.4158
ultitude	-12.416
▁instinct	-12.416
▁Thessaloni	-12.4161
▁brand	-12.4161
▁arbitra	-12.4161
▁Advertis	-12.4161
▁FOR	-12.4161
▁childbirth	-12.4161
▁Argentin	-12.4161
▁Cogniti	-12.4161
▁Commend	-12.4161
▁Communist	-12.4161
▁Direct	-12.4161
▁Discipline	-12.4161
▁Dishonest	-12.4161
▁IMP	-12.4161
▁Nigeria	-12.4161
▁Portug	-12.4161
▁Respond	-12.4161
▁Sapphira	-12.4161
▁Trembl	-12.4161
▁Tuesday	-12.4161
▁Unclean	-12.4161
▁Wednesday	-12.4161
▁accusing	-12.4161
▁airport	-12.4161
▁anticipat	-12.4161
▁constellation	-12.4161
▁discard	-12.4161
▁egotis	-12.4161
▁expulsion	-12.4161
▁fabric	-12.4161
▁garrison	-12.4161
▁industry	-12.4161
▁inscribe	-12.4161
▁intimac	-12.4161
▁jacket	-12.4161
▁journal	-12.4161
▁lovable	-12.4161
▁maneuver	-12.4161
▁metalworker	-12.4161
▁narrative	-12.4161
▁obsess	-12.4161
▁ostrich	-12.4161
▁postcard	-12.4161
▁relinquish	-12.4161
▁rigid	-12.4161
▁ritual	-12.4161
▁tranquil	-12.4161
▁uncomfort	-12.4161
▁vocabular	-12.4161
▁1935	-12.4161
▁1942	-12.4161
▁Common	-12.4161
▁Soviet	-12.4161
▁hospitabl	-12.4161
▁mood	-12.4161
▁vacation	-12.4161
▁viper	-12.4161
▁Spread	-12.4161
▁drought	-12.4161
▁finance	-12.4161
▁motor	-12.4161
▁unstopp	-12.4161
▁verify	-12.4161
▁ambition	-12.4161
▁scrap	-12.4161
▁overstep	-12.4162
▁management	-12.4162
▁Depend	-12.4162
▁gravit	-12.4162
▁precise	-12.4162
▁Design	-12.4162
▁Strip	-12.4162
▁:2-5	-12.4162
▁wormwood	-12.4162
▁Sacr	-12.4162
▁Gibeon	-12.4162
▁sympathetic	-12.4162
▁characteristic	-12.4162
▁Violence	-12.4162
▁Hosea	-12.4162
▁almond	-12.4162
▁resume	-12.4162
▁surgeons	-12.4162
▁orchard	-12.4162
▁prolong	-12.4162
▁rivalry	-12.4162
▁Outline	-12.4162
▁champion	-12.4163
▁poet	-12.4163
▁Select	-12.4163
▁radiati	-12.4163
▁legac	-12.4163
▁investigation	-12.4163
▁Check	-12.4163
▁housing	-12.4164
▁Mountain	-12.4164
▁imagination	-12.4164
▁advertisement	-12.4164
▁coward	-12.4164
▁afar	-12.4164
▁foreskin	-12.4164
▁Gilgal	-12.4165
▁charm	-12.4165
egie	-12.4165
▁plunge	-12.4165
▁dipp	-12.4166
▁interrupt	-12.4166
▁democra	-12.4166
▁Post	-12.4166
purity	-12.4166
▁utterance	-12.4166
then	-12.4168
tuation	-12.4168
▁encampment	-12.4168
▁wreck	-12.4169
▁Lower	-12.4169
▁Shyness	-12.4169
▁regulate	-12.4171
▁Create	-12.4172
▁scorpion	-12.4175
eligi	-12.4175
▁Government	-12.4175
▁Block	-12.4176
▁Kib	-12.4176
▁Amos	-12.4178
▁:1-14	-12.4183
riot	-12.4184
21-25	-12.4184
▁Lead	-12.4185
▁Methus	-12.4186
▁:31-3	-12.4188
▁chee	-12.4189
▁soften	-12.419
▁81	-12.4193
▁Saturn	-12.4193
▁exception	-12.4194
▁distraction	-12.4194
▁representation	-12.4197
▁tension	-12.4198
▁coordinat	-12.4199
▁2012	-12.4199
▁Tab	-12.4202
▁X	-12.4202
▁9-11	-12.4204
▁establishment	-12.4207
▁proclaimer	-12.4209
▁emerged	-12.421
▁leftover	-12.4214
▁Cut	-12.422
toph	-12.4223
▁vigorously	-12.4225
▁vowel	-12.4229
aff	-12.4231
▁rein	-12.4241
▁halted	-12.4243
▁sheet	-12.4244
▁metro	-12.4248
▁perishes	-12.425
gourd	-12.4251
83	-12.4255
▁quake	-12.426
▁loosen	-12.4261
▁swimm	-12.4261
▁ceremonial	-12.4274
▁undertaking	-12.4278
▁unfit	-12.4282
▁opponents	-12.4282
▁multil	-12.4287
It	-12.429
▁asset	-12.4294
rney	-12.4307
▁kneel	-12.4313
▁mules	-12.4319
▁humanity	-12.4324
▁137	-12.4341
waters	-12.4349
▁babe	-12.4349
rthern	-12.4352
▁tube	-12.4355
▁fan	-12.4355
▁nois	-12.4356
▁graduate	-12.4357
▁workman	-12.4358
abet	-12.4359
▁devise	-12.4373
▁trader	-12.4373
ceptive	-12.4385
▁tim	-12.439
▁mist	-12.4392
▁Samari	-12.4395
▁persever	-12.4397
▁hindered	-12.4408
▁forceful	-12.4417
▁Leon	-12.4422
▁Shel	-12.4438
▁Cares	-12.4446
reaching	-12.4449
▁settler	-12.4452
▁pushing	-12.4459
tress	-12.446
henna	-12.4462
▁designer	-12.4479
▁:40-4	-12.448
▁workmate	-12.4483
4-13	-12.4486
▁trench	-12.4487
▁Jeth	-12.4489
▁tea	-12.4498
ization	-12.4504
liva	-12.4514
▁starv	-12.4547
▁infirm	-12.4551
umin	-12.4553
meth	-12.4558
asper	-12.4574
▁masse	-12.4583
part	-12.4604
▁Par	-12.4624
▁memoriz	-12.4632
mates	-12.4648
▁vindicate	-12.4668
▁Deca	-12.4685
idle	-12.4711
▁agon	-12.4712
▁marker	-12.4729
▁convenien	-12.4734
▁persuade	-12.4743
▁MAR	-12.4757
▁div	-12.4786
corporate	-12.4832
▁irritat	-12.4842
lept	-12.4847
▁grieve	-12.4849
culo	-12.4859
▁Magd	-12.4863
▁Est	-12.4882
mul	-12.4883
▁Pit	-12.4893
phon	-12.4893
▁Ni	-12.4904
▁character	-12.4905
mination	-12.4906
NG	-12.4908
▁Sara	-12.4932
▁plea	-12.4935
▁BC	-12.4937
▁clas	-12.4952
lab	-12.4972
▁pomegranate	-12.4975
▁combine	-12.4979
▁unbeliever	-12.4997
▁Bill	-12.4998
phaz	-12.5003
36	-12.5019
▁Nic	-12.5024
▁occup	-12.5035
nxiety	-12.5049
▁astonish	-12.5051
▁miserabl	-12.5062
▁author	-12.5088
▁sorcer	-12.5096
▁Oph	-12.5096
▁Jec	-12.5099
ignificant	-12.5106
anctify	-12.5109
US	-12.511
tenance	-12.5118
▁wholehearted	-12.5121
press	-12.5123
▁Mig	-12.5125
▁Gim	-12.5126
▁prophesie	-12.513
ground	-12.5131
Proclaim	-12.5133
divid	-12.5133
Picture	-12.5133
confiden	-12.5133
answered	-12.5134
Joshua	-12.5134
friend	-12.5134
blaze	-12.5134
wives	-12.5135
▁acqui	-12.5141
▁stopp	-12.5142
shine	-12.5142
important	-12.5142
94	-12.5145
would	-12.5147
rob	-12.5153
▁bud	-12.5153
▁trespass	-12.5156
▁Kind	-12.5157
insula	-12.5158
▁Encourage	-12.5159
▁capt	-12.516
▁script	-12.516
▁alternat	-12.516
OM	-12.5161
▁Comp	-12.5161
tercourse	-12.5161
prehensi	-12.5161
ት	-12.5161
▁neighbour	-12.5161
ñ	-12.5161
▁Approach	-12.5161
▁COA	-12.5161
▁Cantwell	-12.5161
▁Jihova	-12.5161
▁Kaunas	-12.5161
▁Promote	-12.5161
▁Prophec	-12.5161
▁Resurrect	-12.5161
▁Synagogue	-12.5161
▁Terror	-12.5161
▁Treasure	-12.5161
▁Yahweh	-12.5161
▁Yawe	-12.5161
▁agitated	-12.5161
▁architectur	-12.5161
▁bicycle	-12.5161
▁breastplate	-12.5161
▁catastroph	-12.5161
▁categories	-12.5161
▁charcoal	-12.5161
▁defiant	-12.5161
▁evolve	-12.5161
▁fugitive	-12.5161
▁gigantic	-12.5161
▁invigorat	-12.5161
▁monitor	-12.5161
▁perception	-12.5161
▁plentiful	-12.5161
▁propitiat	-12.5161
▁reinforce	-12.5161
▁reptile	-12.5161
▁spectacle	-12.5161
▁tsunami	-12.5161
▁tyrant	-12.5161
ô	-12.5161
▁1952	-12.5161
▁Austria	-12.5161
▁Click	-12.5161
▁apologiz	-12.5161
▁click	-12.5161
▁efficient	-12.5161
▁embark	-12.5161
▁escort	-12.5161
▁granddaughter	-12.5161
▁guess	-12.5161
▁lamentation	-12.5161
▁Apostle	-12.5161
▁apprehensi	-12.5161
▁dishearten	-12.5161
▁float	-12.5161
▁maxim	-12.5161
▁spark	-12.5161
▁stabiliz	-12.5161
▁Point	-12.5161
▁fantas	-12.5161
▁specify	-12.5161
▁Incident	-12.5161
▁refute	-12.5161
hour	-12.5161
▁gloat	-12.5161
▁squander	-12.5161
▁Clean	-12.5162
▁rational	-12.5162
▁Treat	-12.5162
▁thunderstorm	-12.5162
▁clever	-12.5162
▁bracelet	-12.5162
▁ferment	-12.5162
▁idolater	-12.5162
▁snuff	-12.5162
IANS	-12.5162
▁roam	-12.5162
▁technical	-12.5162
▁hallmark	-12.5162
▁grudge	-12.5162
▁digitis	-12.5162
▁ailment	-12.5162
▁Loving	-12.5162
▁cheap	-12.5162
▁Local	-12.5162
▁sift	-12.5162
▁Surg	-12.5162
▁annoy	-12.5162
▁Humbl	-12.5162
▁WORD	-12.5162
▁Henry	-12.5162
▁statistic	-12.5162
▁Publishers	-12.5163
▁rust	-12.5163
ALL	-12.5163
eluge	-12.5163
▁bias	-12.5163
▁crawl	-12.5163
cutter	-12.5163
▁whipp	-12.5163
▁Amorite	-12.5164
▁introduction	-12.5164
▁Norwegian	-12.5164
▁thicket	-12.5164
▁fox	-12.5164
▁reproduc	-12.5164
▁wax	-12.5164
▁Big	-12.5165
▁pathway	-12.5165
▁stall	-12.5165
▁Haggai	-12.5166
▁preview	-12.5167
▁punc	-12.5167
▁mound	-12.5168
▁tithe	-12.5168
▁Office	-12.5169
▁birthright	-12.5169
▁Twi	-12.5169
▁Receiv	-12.517
▁momentary	-12.517
▁addiction	-12.5171
▁Tear	-12.5171
▁landscape	-12.5172
▁Ruin	-12.5172
▁personalities	-12.5173
ideo	-12.5173
▁Zip	-12.5174
▁institut	-12.5174
▁1960	-12.5175
credit	-12.5175
▁ascertain	-12.5176
▁Steel	-12.5176
educat	-12.5177
gog	-12.5178
▁abhorr	-12.5178
▁lengthen	-12.5179
zo	-12.5179
▁endow	-12.5179
▁consultation	-12.5181
▁minim	-12.5181
risto	-12.5182
IA	-12.5182
▁Want	-12.5182
rches	-12.5183
▁hotel	-12.5184
▁exceptional	-12.5184
urine	-12.5185
gag	-12.5188
▁kick	-12.5192
▁Jane	-12.5193
▁2002	-12.5198
▁matches	-12.5198
▁Athen	-12.5198
▁93	-12.5202
morse	-12.5203
efly	-12.5209
their	-12.5212
▁2007	-12.5215
▁Test	-12.522
gage	-12.522
▁WE	-12.5221
▁seventy	-12.5221
▁6-8	-12.5226
▁Gl	-12.5228
THER	-12.5229
breadth	-12.5234
pression	-12.5236
▁robb	-12.524
▁appendic	-12.5243
▁fil	-12.5245
PROV	-12.5248
▁cough	-12.5256
▁swelling	-12.5262
▁verbal	-12.5264
▁Shec	-12.5269
▁louder	-12.5283
▁untie	-12.5285
embers	-12.5288
▁Eastern	-12.529
anic	-12.5291
▁76	-12.5291
▁:56	-12.5298
FUL	-12.53
▁gum	-12.5311
▁AD	-12.5316
▁Zer	-12.5335
▁Touch	-12.5336
▁speeches	-12.5337
rass	-12.5341
zen	-12.5343
95	-12.5374
▁fist	-12.5379
under	-12.5382
▁:29-3	-12.5387
▁Allow	-12.5403
3-7	-12.5421
▁worsen	-12.5437
▁reclin	-12.544
▁112	-12.5445
▁118	-12.5456
▁Fer	-12.5462
▁Kad	-12.5471
ummary	-12.55
▁corporat	-12.5502
unction	-12.5534
▁visibl	-12.5539
▁Uzz	-12.5573
▁ensu	-12.5577
▁che	-12.5621
▁intr	-12.5627
iterate	-12.5643
▁accidental	-12.5646
▁Prepar	-12.5683
▁:34-3	-12.5694
▁transit	-12.571
▁befit	-12.5728
laud	-12.5737
▁cavalrym	-12.5763
▁disput	-12.5764
▁chatt	-12.5765
ayer	-12.577
▁specialize	-12.5776
▁Examine	-12.5787
▁blaspheme	-12.58
▁infirmit	-12.5812
aste	-12.5827
▁:25-3	-12.5841
59	-12.5847
14-19	-12.5856
lity	-12.587
bade	-12.5893
roving	-12.5912
▁Van	-12.5913
TH	-12.5916
itarian	-12.5928
azor	-12.5936
burg	-12.6
▁explor	-12.6009
▁devis	-12.6018
IONS	-12.6033
▁graduat	-12.6041
▁unreason	-12.6047
▁compil	-12.6051
ficial	-12.6057
▁mule	-12.6081
state	-12.6084
▁thorn	-12.6097
▁raisin	-12.6102
▁instructor	-12.6113
▁battl	-12.6127
▁imagin	-12.6151
nguish	-12.6159
▁renew	-12.6161
mir	-12.6185
ball	-12.6197
▁Digi	-12.6201
▁justif	-12.6218
▁pill	-12.6223
▁drama	-12.6223
treat	-12.6243
blemish	-12.6244
arrow	-12.6244
wrestling	-12.6244
restraint	-12.6244
venue	-12.6244
guard	-12.6244
&	-12.6244
stool	-12.6244
connect	-12.6245
▁crim	-12.6245
priest	-12.6245
direct	-12.6245
defile	-12.6245
strong	-12.6245
lived	-12.6245
bring	-12.6246
crown	-12.6248
garden	-12.625
▁Imitat	-12.6252
trust	-12.6253
Jonah	-12.6254
300	-12.6254
▁magn	-12.6261
▁invent	-12.6262
▁Alexand	-12.6264
▁addict	-12.6264
▁Righteous	-12.6268
▁distinct	-12.6269
rofessor	-12.6269
ustoms	-12.6269
nrollment	-12.627
rwegian	-12.627
ndurance	-12.627
▁whip	-12.6271
▁rival	-12.6272
nsurance	-12.6272
nfortunate	-12.6272
▁Liverpool	-12.6273
▁Missionar	-12.6273
▁authentic	-12.6273
▁excellenc	-12.6273
ccommodation	-12.6273
ubsequent	-12.6273
æ	-12.6273
▁Accurate	-12.6273
▁Bulgaria	-12.6273
▁Cooperat	-12.6273
▁Feeling	-12.6273
▁Halloween	-12.6273
▁Hospital	-12.6273
▁LESSON	-12.6273
▁Prophesy	-12.6273
▁Recogniz	-12.6273
▁Reject	-12.6273
▁Sexual	-12.6273
▁Switzerland	-12.6273
▁Symptoms	-12.6273
▁Vitamin	-12.6273
▁Volume	-12.6273
▁adjutant	-12.6273
▁athlete	-12.6273
▁bridle	-12.6273
▁confiscat	-12.6273
▁congratulat	-12.6273
▁daunt	-12.6273
▁degrad	-12.6273
▁delicate	-12.6273
▁deteriorat	-12.6273
▁detract	-12.6273
▁devious	-12.6273
▁dialect	-12.6273
▁disadvantage	-12.6273
▁dispense	-12.6273
▁furrow	-12.6273
▁genital	-12.6273
▁glimpse	-12.6273
▁knead	-12.6273
▁luminar	-12.6273
▁metaphor	-12.6273
▁monster	-12.6273
▁ointment	-12.6273
▁permeate	-12.6273
▁pervasive	-12.6273
▁powder	-12.6273
▁quiver	-12.6273
▁reaffirm	-12.6273
▁republic	-12.6273
▁restaurant	-12.6273
▁saturate	-12.6273
▁squeez	-12.6273
▁succumb	-12.6273
▁suspect	-12.6273
▁tempest	-12.6273
▁throng	-12.6273
▁underscore	-12.6273
▁untrue	-12.6273
▁whitewash	-12.6273
▁1932	-12.6273
▁Current	-12.6273
▁Message	-12.6273
▁compartment	-12.6273
▁download	-12.6273
▁drowsy	-12.6273
▁envoy	-12.6273
▁expire	-12.6273
▁graft	-12.6273
▁necklace	-12.6273
▁reservoir	-12.6273
annica	-12.6273
▁Mennonite	-12.6273
▁client	-12.6273
▁gadfl	-12.6273
▁owl	-12.6273
▁suicid	-12.6273
▁Garima	-12.6273
▁eleven	-12.6273
▁Smith	-12.6273
▁abolish	-12.6273
▁dismay	-12.6273
▁glance	-12.6273
▁pipe	-12.6273
▁plumb	-12.6273
▁divert	-12.6273
▁resign	-12.6273
▁definiti	-12.6273
▁dissent	-12.6273
▁inflammat	-12.6273
▁bolt	-12.6273
▁crystal	-12.6273
▁barrier	-12.6273
▁confer	-12.6273
▁drachma	-12.6273
▁infuriate	-12.6273
▁loneliness	-12.6273
recycl	-12.6273
roadcast	-12.6273
▁floodgate	-12.6273
▁Studi	-12.6273
▁nut	-12.6273
▁Washing	-12.6273
▁complication	-12.6273
▁Coming	-12.6273
▁Money	-12.6273
▁unruly	-12.6273
olini	-12.6273
▁behold	-12.6273
▁prun	-12.6273
▁Primar	-12.6273
▁chant	-12.6273
▁lugg	-12.6273
ECI	-12.6273
▁apath	-12.6273
▁impostor	-12.6273
▁Standard	-12.6273
▁Proper	-12.6274
▁suppress	-12.6274
avelin	-12.6274
SION	-12.6274
▁earring	-12.6274
▁jump	-12.6274
▁edit	-12.6274
▁Pick	-12.6274
▁premature	-12.6274
▁Prevent	-12.6274
▁juris	-12.6274
▁nucle	-12.6275
▁stew	-12.6275
▁Midian	-12.6275
▁external	-12.6275
▁steer	-12.6275
EWS	-12.6275
▁:31-33	-12.6276
▁lowland	-12.6276
▁KING	-12.6276
▁Burn	-12.6276
▁caregiver	-12.6276
igma	-12.6276
▁educator	-12.6276
▁invalidate	-12.6276
▁WRIT	-12.6277
▁Patter	-12.6277
▁dictionar	-12.6277
▁angle	-12.6277
▁Gobit	-12.6278
▁linger	-12.6278
▁Yourself	-12.6279
▁emission	-12.6279
▁supervisor	-12.628
iliar	-12.628
▁label	-12.628
▁Judaea	-12.628
▁:8-13	-12.6281
▁chr	-12.6281
▁grandfather	-12.6281
▁Prisc	-12.6282
▁deck	-12.6282
▁Democrat	-12.6282
▁Jack	-12.6283
▁chao	-12.6284
▁superb	-12.6284
▁grove	-12.6284
count	-12.6284
▁decoration	-12.6285
▁1980	-12.6285
menia	-12.6285
▁Considerate	-12.6285
bread	-12.6287
▁Assyrian	-12.6287
▁warrant	-12.6288
▁plank	-12.6289
▁agoniz	-12.629
▁Anti	-12.6292
▁receptive	-12.6293
▁unfruitful	-12.6293
▁Eric	-12.6293
▁uneven	-12.6295
▁priva	-12.6296
▁breeze	-12.6296
▁Basic	-12.6297
-60	-12.6297
▁traitor	-12.6299
▁Bur	-12.6301
▁dozen	-12.6301
▁Chim	-12.6302
wp	-12.6308
▁agriculture	-12.6309
▁lender	-12.631
▁Count	-12.6311
ctors	-12.6311
▁Pass	-12.6314
▁sailor	-12.6315
▁successor	-12.6316
▁Wors	-12.6317
▁Hebron	-12.6317
▁hedge	-12.632
▁1930	-12.632
▁Bru	-12.6325
▁unsee	-12.6328
▁Australian	-12.6331
▁backward	-12.6334
▁hunter	-12.6336
▁incapab	-12.6343
udge	-12.6356
▁Path	-12.6356
▁soak	-12.6368
▁bush	-12.6375
▁mingl	-12.6377
▁THI	-12.6382
shite	-12.6385
38	-12.6386
chen	-12.6395
▁Informa	-12.6396
▁Levi	-12.6419
▁realiz	-12.642
▁Ammon	-12.6428
bath	-12.6433
bert	-12.6441
▁Tel	-12.6443
▁Kra	-12.6449
aux	-12.6454
▁Arabia	-12.6454
▁Ivo	-12.6462
▁cou	-12.6467
▁Mill	-12.6473
▁AT	-12.6543
▁Log	-12.6545
tact	-12.6553
AME	-12.6578
▁disco	-12.6586
pil	-12.661
71	-12.6644
▁Polic	-12.6671
▁commemorat	-12.6712
76	-12.6716
▁resembl	-12.6719
▁Bapti	-12.6742
▁player	-12.6744
▁stimulate	-12.6766
96	-12.6784
gistrat	-12.6802
▁Poli	-12.6803
▁harvester	-12.6856
shone	-12.6876
61	-12.6918
▁Realiz	-12.693
▁clarifi	-12.6934
▁grat	-12.6954
▁divorc	-12.6981
▁shutt	-12.6994
FIL	-12.7
▁deb	-12.701
▁commemorate	-12.7047
mula	-12.7059
▁Chil	-12.7064
▁Observ	-12.7103
robe	-12.7116
▁Star	-12.7147
▁vot	-12.715
▁obscure	-12.7171
▁lowli	-12.7178
▁Recepti	-12.721
▁graze	-12.7232
ION	-12.7252
▁Cai	-12.7263
chor	-12.7263
▁recite	-12.7267
▁Mahl	-12.7287
▁kit	-12.7309
tfo	-12.7319
18-21	-12.7319
▁pursuer	-12.7324
▁inject	-12.7326
lusion	-12.7326
▁considerabl	-12.7327
▁etc	-12.7328
▁pearl	-12.7333
▁sport	-12.7337
▁Refugee	-12.7338
▁circumstance	-12.734
▁lik	-12.735
▁stag	-12.7365
plica	-12.7373
ewell	-12.7387
▁discourag	-12.7392
▁intensif	-12.7393
▁substitut	-12.7399
OS	-12.7403
pparent	-12.741
▁halt	-12.7415
▁responsi	-12.7434
web	-12.7437
▁Nob	-12.744
▁Cultur	-12.7461
lobe	-12.747
harm	-12.7471
▁presum	-12.7475
tically	-12.7477
Lev	-12.7494
Judg	-12.7494
Jude	-12.7494
valuable	-12.7495
correct	-12.7495
spiritual	-12.7495
complete	-12.7495
filled	-12.7495
▁priv	-12.7495
fell	-12.7496
mobil	-12.7497
combat	-12.7499
Josh	-12.7503
lori	-12.7505
▁hesita	-12.7507
▁decorat	-12.751
Dan	-12.7513
▁horr	-12.7515
were	-12.7517
▁sympath	-12.7518
lawful	-12.7519
▁compass	-12.7519
▁drip	-12.752
bak	-12.752
▁stiff	-12.7521
▁preside	-12.7521
▁treacher	-12.7521
▁chair	-12.7522
▁aggressi	-12.7522
▁sovereign	-12.7522
▁genealog	-12.7522
▁teen	-12.7522
grudg	-12.7522
▁Surviv	-12.7523
▁monarch	-12.7523
▁1970	-12.7523
▁Circle	-12.7523
▁Commission	-12.7523
▁Different	-12.7523
▁Focus	-12.7523
▁Macedonia	-12.7523
▁Mexico	-12.7523
▁Motivat	-12.7523
▁Organization	-12.7523
▁Paraguay	-12.7523
▁Stock	-12.7523
▁Wamblán	-12.7523
▁agitation	-12.7523
▁airplane	-12.7523
▁alleviate	-12.7523
▁boisterous	-12.7523
▁caretaker	-12.7523
▁coarse	-12.7523
▁cobra	-12.7523
▁dehydrat	-12.7523
▁demolish	-12.7523
▁diamond	-12.7523
▁disfigur	-12.7523
▁dissension	-12.7523
▁dissolv	-12.7523
▁elaborate	-12.7523
▁eloquen	-12.7523
▁emblem	-12.7523
▁encompass	-12.7523
▁evaporat	-12.7523
▁folk	-12.7523
▁grandparent	-12.7523
▁impatien	-12.7523
▁implication	-12.7523
▁implicit	-12.7523
▁lavish	-12.7523
▁legislat	-12.7523
▁lurk	-12.7523
▁manipulat	-12.7523
▁nurture	-12.7523
▁occult	-12.7523
▁oxygen	-12.7523
▁perpetual	-12.7523
▁plowshares	-12.7523
▁prohibit	-12.7523
▁refrigerator	-12.7523
▁reunite	-12.7523
▁shredd	-12.7523
▁spontaneous	-12.7523
▁switch	-12.7523
▁tissue	-12.7523
▁trigger	-12.7523
▁unsuspecting	-12.7523
◆	-12.7523
STORY	-12.7523
▁Maureen	-12.7523
▁academic	-12.7523
▁cleft	-12.7523
▁courier	-12.7523
▁digital	-12.7523
▁flex	-12.7523
▁passersby	-12.7523
▁sparingly	-12.7523
▁spider	-12.7523
▁unfailing	-12.7523
jebena	-12.7523
▁Stephanie	-12.7523
▁bountiful	-12.7523
▁sneez	-12.7523
▁conjurer	-12.7523
▁palate	-12.7523
▁Limit	-12.7523
▁clinic	-12.7523
▁incentive	-12.7523
▁qua	-12.7523
ü	-12.7523
▁Worth	-12.7523
▁batch	-12.7523
▁impetu	-12.7523
▁reinstate	-12.7523
hydro	-12.7523
▁gnaw	-12.7523
▁Animal	-12.7523
▁rumor	-12.7523
▁surp	-12.7523
▁waterpit	-12.7523
▁Victor	-12.7523
▁craving	-12.7523
▁Angel	-12.7523
▁Defend	-12.7523
▁flavor	-12.7523
CLES	-12.7523
licious	-12.7523
▁wreath	-12.7523
▁Wendy	-12.7523
ASTE	-12.7523
OUT	-12.7523
▁Redeem	-12.7523
▁cardinal	-12.7523
▁Saint	-12.7523
▁chill	-12.7523
▁nano	-12.7523
▁score	-12.7523
▁feather	-12.7523
▁wrist	-12.7523
▁swoop	-12.7523
▁constitute	-12.7523
▁wafer	-12.7523
▁uneas	-12.7523
▁spoon	-12.7523
MAN	-12.7523
▁corals	-12.7523
▁unfortunate	-12.7523
▁mutter	-12.7523
▁Rehobo	-12.7523
▁scab	-12.7523
ALM	-12.7523
▁unsteady	-12.7523
▁venom	-12.7523
▁brandish	-12.7523
▁gases	-12.7523
▁Country	-12.7523
▁filter	-12.7524
▁textbook	-12.7524
▁Persevere	-12.7524
▁millennium	-12.7524
▁Resist	-12.7524
▁Haiti	-12.7524
▁humiliating	-12.7524
▁endorsement	-12.7524
▁charioteer	-12.7524
▁lick	-12.7524
▁smart	-12.7525
▁Encouragement	-12.7525
ALO	-12.7525
▁gnat	-12.7525
▁Mental	-12.7526
▁twins	-12.7526
▁slipp	-12.7526
▁chart	-12.7526
▁foresee	-12.7526
▁Galile	-12.7527
▁Patient	-12.7528
▁reckless	-12.7528
needed	-12.7528
▁carbon	-12.7528
▁ninety	-12.7528
▁oak	-12.7528
▁conversion	-12.7529
▁Stress	-12.7529
▁random	-12.753
▁gateway	-12.753
▁energize	-12.753
▁Recent	-12.7531
–2	-12.7531
▁+	-12.7533
▁superstition	-12.7533
curel	-12.7533
▁grocery	-12.7533
▁:38-4	-12.7534
▁hardhearted	-12.7534
▁Gul	-12.7535
▁ALS	-12.7536
▁clan	-12.7537
▁creativity	-12.7537
▁bullet	-12.7538
muth	-12.7538
▁:16-20	-12.7538
phek	-12.754
▁toilet	-12.754
▁Mound	-12.7541
▁comb	-12.7541
▁:43-4	-12.7542
▁Serg	-12.7542
relian	-12.7542
▁patch	-12.7543
▁nav	-12.7543
▁bay	-12.7543
itism	-12.7545
▁Lyc	-12.7545
▁advantageous	-12.7546
▁mire	-12.7552
▁colorful	-12.7555
▁Christoph	-12.7555
forni	-12.7555
opped	-12.7556
▁banner	-12.7558
▁Evan	-12.7558
when	-12.756
▁malle	-12.756
▁clipp	-12.7561
▁denial	-12.7561
▁pap	-12.7562
▁Korea	-12.7562
▁:1-18	-12.7563
▁meekness	-12.7566
vity	-12.7571
▁generate	-12.7576
▁shunn	-12.7578
▁precedent	-12.758
zai	-12.7583
▁Culture	-12.7586
▁passive	-12.7597
▁Cry	-12.7605
▁Mith	-12.7605
▁Gre	-12.7605
▁incurr	-12.7607
3-5	-12.7608
▁preten	-12.7618
▁housetop	-12.7619
▁Reduc	-12.762
nders	-12.7632
▁Edit	-12.7635
▁biolog	-12.7646
▁Less	-12.7653
▁intensifie	-12.7654
▁Climat	-12.7655
▁Emil	-12.7688
▁robot	-12.7706
▁ideal	-12.7707
▁swo	-12.7712
▁tune	-12.7713
▁Balti	-12.7713
▁Hate	-12.7739
nard	-12.7765
▁Messi	-12.7766
▁Express	-12.7804
▁graz	-12.7822
▁headline	-12.7829
▁frustrate	-12.783
rink	-12.7831
NI	-12.7848
▁toast	-12.7886
▁diviner	-12.7891
▁sixt	-12.7894
oil	-12.792
▁envelope	-12.7942
▁irritate	-12.7944
▁commissioner	-12.7964
▁vindicati	-12.7987
aria	-12.7999
heav	-12.8024
▁Allerg	-12.8036
▁Yeho	-12.8045
21	-12.8069
▁disclose	-12.809
▁LIV	-12.8158
wan	-12.8161
nouncement	-12.8174
▁Clau	-12.8174
▁disciplin	-12.8185
aving	-12.8192
▁flashe	-12.8225
▁pope	-12.8232
zem	-12.8253
reasonably	-12.8255
▁Elisha	-12.8265
bib	-12.8307
▁:23-2	-12.8313
kem	-12.8326
URES	-12.8403
gate	-12.8407
▁Grai	-12.8423
nction	-12.8428
82	-12.8438
trenche	-12.8448
▁herder	-12.8464
lung	-12.8476
RA	-12.8497
ected	-12.8509
▁Hush	-12.853
▁spic	-12.8558
▁plunderer	-12.8589
▁simplif	-12.861
▁:33-3	-12.8651
conception	-12.8666
▁focuse	-12.867
▁TIM	-12.8712
▁unchang	-12.8717
▁Ninev	-12.8741
▁GA	-12.875
▁opponent	-12.876
▁crumb	-12.8762
ILE	-12.8766
▁employee	-12.8766
▁Prophet	-12.8766
▁Tro	-12.8775
▁troubl	-12.8794
▁quak	-12.8796
▁trampl	-12.882
▁frustrati	-12.884
vail	-12.8851
▁cruci	-12.8885
dating	-12.8898
ecurity	-12.8899
▁instant	-12.8899
▁Chris	-12.89
▁idolatr	-12.8906
▁clip	-12.8907
▁sanctifie	-12.892
▁activ	-12.892
forgett	-12.8921
strict	-12.8922
parallel	-12.8922
trapped	-12.8922
technology	-12.8923
coast	-12.8923
yield	-12.8923
gross	-12.8923
establish	-12.8923
protect	-12.8923
different	-12.8923
people	-12.8923
through	-12.8923
debt	-12.8924
goats	-12.8924
▁evangeliz	-12.8925
comb	-12.8926
glow	-12.893
something	-12.8931
Num	-12.8932
whole	-12.8934
▁emerge	-12.8935
▁frequen	-12.8936
six	-12.8937
▁speci	-12.8941
▁bodi	-12.8947
hanks	-12.8947
▁Photo	-12.8947
ontemporar	-12.8948
ornograph	-12.8948
▁Plea	-12.8948
abernacle	-12.8948
onsillitis	-12.8948
vangelizer	-12.8948
▁pedest	-12.8949
▁Publish	-12.8949
▁disfellowship	-12.8949
edicine	-12.895
▁applica	-12.895
ntegration	-12.895
engeance	-12.8951
nstantly	-12.8951
▁revis	-12.8951
mplifie	-12.8951
sufficien	-12.8951
EPH	-12.8951
▁envision	-12.8951
|	-12.8951
á	-12.8951
▁Abstain	-12.8951
▁Birthday	-12.8951
▁CHRISTIAN	-12.8951
▁Field	-12.8951
▁Filip	-12.8951
▁Future	-12.8951
▁Neighbor	-12.8951
▁POPULATION	-12.8951
▁Portuguese	-12.8951
▁Pursu	-12.8951
▁Slaughter	-12.8951
▁Testimonium	-12.8951
▁Turkey	-12.8951
▁Ukraine	-12.8951
▁blank	-12.8951
▁bucket	-12.8951
▁bundle	-12.8951
▁cliff	-12.8951
▁clutch	-12.8951
▁commute	-12.8951
▁consecrat	-12.8951
▁counterfeit	-12.8951
▁drench	-12.8951
▁dynamic	-12.8951
▁elegant	-12.8951
▁elephant	-12.8951
▁episode	-12.8951
▁expend	-12.8951
▁flask	-12.8951
▁forfeit	-12.8951
▁fracture	-12.8951
▁grasshopper	-12.8951
▁homosexual	-12.8951
▁implement	-12.8951
▁impoverishe	-12.8951
▁impulse	-12.8951
▁industrious	-12.8951
▁initiate	-12.8951
▁investment	-12.8951
▁ladder	-12.8951
▁maggot	-12.8951
▁museum	-12.8951
▁navigat	-12.8951
▁ordinance	-12.8951
▁outburst	-12.8951
▁pepper	-12.8951
▁ravage	-12.8951
▁reclaim	-12.8951
▁recurr	-12.8951
▁regime	-12.8951
▁rehears	-12.8951
▁repetiti	-12.8951
▁repuls	-12.8951
▁scythes	-12.8951
▁shroud	-12.8951
▁sponsor	-12.8951
▁tariff	-12.8951
▁taskmaster	-12.8951
▁transaction	-12.8951
▁turbulen	-12.8951
▁unavoidabl	-12.8951
▁unequal	-12.8951
▁unhappy	-12.8951
▁unprofitable	-12.8951
▁vinedresser	-12.8951
▁1931	-12.8951
▁1951	-12.8951
▁Appoint	-12.8951
▁Black	-12.8951
▁Correct	-12.8951
▁Improve	-12.8951
▁Introduction	-12.8951
▁Quick	-12.8951
▁awkward	-12.8951
▁concrete	-12.8951
▁flax	-12.8951
▁indistinct	-12.8951
▁moderate	-12.8951
▁rainbow	-12.8951
▁reunion	-12.8951
▁revolution	-12.8951
▁rhythm	-12.8951
▁solicit	-12.8951
▁specta	-12.8951
Margaret	-12.8951
sequence	-12.8951
ə	-12.8951
▁Excellen	-12.8951
▁Exult	-12.8951
▁morsel	-12.8951
▁neuro	-12.8951
▁sensation	-12.8951
▁shrink	-12.8951
▁¶2	-12.8951
▁liberal	-12.8951
▁overconfident	-12.8951
▁reddish	-12.8951
▁Issue	-12.8951
▁Virg	-12.8951
▁Imperfect	-12.8951
▁chemist	-12.8951
▁rural	-12.8951
▁trough	-12.8951
▁Daughter	-12.8951
▁Report	-12.8951
▁Possibl	-12.8951
▁particle	-12.8951
▁uplift	-12.8951
▁smear	-12.8951
▁moan	-12.8951
▁Region	-12.8951
▁galler	-12.8951
▁churn	-12.8951
▁rude	-12.8951
▁visa	-12.8951
▁detain	-12.8951
▁outcast	-12.8951
▁Strong	-12.8951
▁differentiate	-12.8951
▁Coloss	-12.8951
▁Tender	-12.8951
▁cousin	-12.8951
▁Yearbook	-12.8951
▁orient	-12.8951
▁ASK	-12.8951
▁Opposers	-12.8951
▁Hermes	-12.8951
▁Mauri	-12.8951
▁Slave	-12.8951
▁leaflet	-12.8952
▁Phoe	-12.8952
REAS	-12.8952
▁germ	-12.8952
▁illusion	-12.8952
▁lewd	-12.8952
▁Adolf	-12.8952
▁Concordance	-12.8952
▁Adria	-12.8952
▁domain	-12.8952
▁Beginning	-12.8952
▁chore	-12.8952
▁condone	-12.8952
▁purg	-12.8952
▁yard	-12.8952
ORT	-12.8952
▁evoke	-12.8953
▁denunciation	-12.8953
▁conju	-12.8953
▁slide	-12.8953
▁ankle	-12.8953
▁plas	-12.8953
▁BOOK	-12.8953
▁Flesh	-12.8953
▁clash	-12.8953
▁occurrence	-12.8953
▁troublemaker	-12.8953
▁Anita	-12.8953
▁exit	-12.8953
▁stiffen	-12.8953
▁Contra	-12.8954
▁speedily	-12.8954
▁banish	-12.8954
NESS	-12.8955
▁Lyd	-12.8955
▁umb	-12.8955
▁terrace	-12.8955
▁Eleven	-12.8955
▁Georgi	-12.8956
▁semina	-12.8956
▁parchment	-12.8956
▁glutton	-12.8956
▁Nahum	-12.8957
▁Buk	-12.8957
▁:22-25	-12.8957
▁Wood	-12.8958
▁coerc	-12.8958
CC	-12.8959
▁Fight	-12.8959
▁luck	-12.896
▁Vari	-12.896
▁ignit	-12.8961
▁gripp	-12.8961
▁foam	-12.8961
larity	-12.8962
▁:2-7	-12.8962
▁Statement	-12.8962
ibbe	-12.8962
▁periodical	-12.8962
▁yell	-12.8963
▁Feed	-12.8963
▁sector	-12.8964
▁slay	-12.8964
▁carvings	-12.8964
▁spotless	-12.8964
▁brace	-12.8965
▁Travel	-12.8966
▁portrayal	-12.8967
▁perverse	-12.8967
▁minimize	-12.8968
▁Iranian	-12.8968
▁selective	-12.8968
▁Shil	-12.8969
enuine	-12.8969
rtle	-12.8975
▁Home	-12.8975
▁:1-21	-12.8975
▁Spr	-12.8977
▁Own	-12.8977
▁Repa	-12.8977
▁classmate	-12.8977
▁Pop	-12.8977
▁:12-17	-12.8979
▁sinew	-12.8982
▁seawater	-12.8982
▁dine	-12.8986
▁triad	-12.8987
▁Cup	-12.8987
▁shipp	-12.8987
▁bubble	-12.8988
▁outdoor	-12.8988
▁Bell	-12.8988
▁revil	-12.8991
▁:1-15	-12.8993
▁Page	-12.8993
▁lash	-12.8995
▁19-21	-12.8999
▁expressive	-12.9005
▁abid	-12.9005
▁deno	-12.9005
▁Tap	-12.9006
pension	-12.9009
▁shorten	-12.9013
▁nutritio	-12.9014
mill	-12.9026
▁geographic	-12.903
▁selection	-12.9033
ehind	-12.9046
▁sorcerer	-12.9048
▁Leav	-12.9052
pham	-12.9055
esert	-12.9074
robo	-12.9081
▁waver	-12.9093
▁:39-4	-12.9104
▁skeptic	-12.9105
▁contention	-12.9114
▁environmental	-12.9122
▁rouse	-12.9133
notice	-12.9144
ctic	-12.9169
▁Wall	-12.9187
nega	-12.9189
etch	-12.9207
▁blasphemer	-12.9211
excus	-12.9213
▁schedul	-12.922
▁rudd	-12.9237
GAL	-12.9244
▁Plant	-12.9263
cap	-12.9339
realistic	-12.937
▁complexit	-12.9387
▁luxur	-12.9431
▁indulge	-12.951
kop	-12.955
▁enthusiastic	-12.9551
▁Understandabl	-12.9582
▁gap	-12.96
▁Fir	-12.9616
▁DU	-12.9639
mmed	-12.9689
▁Stori	-12.9703
3-9	-12.9715
▁adj	-12.976
IVE	-12.9812
IST	-12.9834
rative	-12.9844
▁Regist	-12.9851
onti	-12.9877
▁plac	-12.9924
▁strang	-12.9947
witting	-12.9953
▁Appreciat	-12.999
▁indulg	-12.9997
xis	-13.0003
LS	-13.0005
lkan	-13.0011
▁Seph	-13.002
rselves	-13.0041
stair	-13.0109
▁unreal	-13.0115
jection	-13.0153
▁Hurr	-13.0172
▁prec	-13.0184
fallen	-13.034
citi	-13.0351
▁torch	-13.0357
Highlight	-13.0378
▁ornament	-13.044
ttention	-13.0508
AY	-13.0529
cience	-13.0567
▁pleasur	-13.0568
▁universit	-13.0568
▁societ	-13.0568
just	-13.0581
empe	-13.0585
stock	-13.0587
keeper	-13.0588
responsi	-13.0588
American	-13.0589
qualifi	-13.0589
provok	-13.059
approaching	-13.059
threaten	-13.059
▁abhor	-13.059
Ezekiel	-13.059
condemn	-13.059
happiness	-13.059
powerful	-13.059
Israel	-13.059
Ezek	-13.0591
white	-13.0591
WH	-13.0593
pack	-13.0594
▁agricultur	-13.0595
RS	-13.0596
▁Assyria	-13.0596
receptive	-13.0597
▁Develop	-13.0598
regulat	-13.06
▁arrogan	-13.0603
▁energi	-13.0607
▁historic	-13.0608
▁permissi	-13.0609
▁conclusi	-13.0609
▁teenage	-13.061
ountain	-13.061
▁divisi	-13.0611
cream	-13.0613
▁terra	-13.0614
ONG	-13.0615
▁Strength	-13.0616
▁Que	-13.0616
▁extensi	-13.0617
bedience	-13.0617
▁Coco	-13.0617
▁beautif	-13.0617
▁Oppose	-13.0617
rulers	-13.0618
▁tyrann	-13.0618
clop	-13.0618
▁Announc	-13.0618
▁Commit	-13.0618
▁Comprehensi	-13.0618
▁adjoin	-13.0618
▁debauche	-13.0618
▁deprav	-13.0618
▁fluctuat	-13.0618
▁frailt	-13.0618
▁smolder	-13.0618
▁speculati	-13.0618
<	-13.0618
AIN	-13.0618
COL	-13.0618
MENT	-13.0618
onstitution	-13.0618
▁$3	-13.0618
▁ARTICLES	-13.0618
▁CHILD	-13.0618
▁CIYOTA	-13.0618
▁Coast	-13.0618
▁Connect	-13.0618
▁Constantin	-13.0618
▁Dedication	-13.0618
▁Disciples	-13.0618
▁Electric	-13.0618
▁Experienc	-13.0618
▁Google	-13.0618
▁Group	-13.0618
▁Influen	-13.0618
▁Miracle	-13.0618
▁Obadiah	-13.0618
▁Procedure	-13.0618
▁Rotterdam	-13.0618
▁Scholar	-13.0618
▁Section	-13.0618
▁Specific	-13.0618
▁Submit	-13.0618
▁Sustain	-13.0618
▁Thursday	-13.0618
▁Thyatira	-13.0618
▁Visual	-13.0618
▁abbreviat	-13.0618
▁accelerate	-13.0618
▁accommodate	-13.0618
▁applause	-13.0618
▁assimilate	-13.0618
▁authoritative	-13.0618
▁birdcatcher	-13.0618
▁calendar	-13.0618
▁chicks	-13.0618
▁contemptuous	-13.0618
▁crutch	-13.0618
▁cuisine	-13.0618
▁deducti	-13.0618
▁engraving	-13.0618
▁engulf	-13.0618
▁export	-13.0618
▁grandmaster	-13.0618
▁harlot	-13.0618
▁horizon	-13.0618
▁horoscope	-13.0618
▁humid	-13.0618
▁insensitiv	-13.0618
▁laptop	-13.0618
▁lentil	-13.0618
▁mammal	-13.0618
▁martyr	-13.0618
▁muzzle	-13.0618
▁nutrient	-13.0618
▁outnumber	-13.0618
▁pessimis	-13.0618
▁poem	-13.0618
▁practise	-13.0618
▁precipi	-13.0618
▁predecessor	-13.0618
▁scenario	-13.0618
▁scratch	-13.0618
▁suspicious	-13.0618
▁unrestrained	-13.0618
▁vaccinat	-13.0618
▁variation	-13.0618
▁vault	-13.0618
▁¶3	-13.0618
▁ABC	-13.0618
▁Appropriate	-13.0618
▁Attack	-13.0618
▁Historian	-13.0618
▁Progress	-13.0618
▁SEVEN	-13.0618
▁bankrupt	-13.0618
▁candidate	-13.0618
▁cinema	-13.0618
▁concert	-13.0618
▁coworker	-13.0618
▁foreshadow	-13.0618
▁grope	-13.0618
▁immodest	-13.0618
▁shrivel	-13.0618
▁splash	-13.0618
▁tackl	-13.0618
▁vigilan	-13.0618
▁volcan	-13.0618
▁Apollo	-13.0618
▁Fox	-13.0618
▁Frequent	-13.0618
▁Identify	-13.0618
▁Mehari	-13.0618
▁blend	-13.0618
▁bounce	-13.0618
▁lactose	-13.0618
▁pamper	-13.0618
▁peddler	-13.0618
▁remedie	-13.0618
▁resolute	-13.0618
▁inevitabl	-13.0618
▁subvert	-13.0618
naphyla	-13.0618
▁Pierce	-13.0618
▁YOURSEL	-13.0618
▁sledge	-13.0618
▁suffic	-13.0618
▁visual	-13.0618
▁entail	-13.0618
▁reverbera	-13.0618
▁Utopia	-13.0618
▁convulsion	-13.0618
▁slippery	-13.0618
▁urban	-13.0618
▁mischie	-13.0618
▁Amazon	-13.0618
▁Diane	-13.0618
▁Center	-13.0618
▁Analyz	-13.0618
PARE	-13.0618
▁Territor	-13.0618
▁tonsil	-13.0618
▁Boucher	-13.0618
▁decay	-13.0618
▁giant	-13.0618
▁reverential	-13.0618
▁Forget	-13.0618
▁subscription	-13.0618
phyl	-13.0618
▁patri	-13.0618
▁Acquir	-13.0618
OST	-13.0618
▁Heidi	-13.0618
▁dictatorship	-13.0618
Amharic	-13.0618
▁coalition	-13.0618
▁Richard	-13.0618
▁revisit	-13.0618
ITH	-13.0619
▁clue	-13.0619
▁fortification	-13.0619
▁compound	-13.0619
▁reduction	-13.0619
▁slap	-13.0619
▁Adult	-13.0619
▁Beroea	-13.0619
▁coastland	-13.0619
cessant	-13.0619
▁whirl	-13.0619
CLU	-13.0619
iquity	-13.0619
▁emphatic	-13.0619
▁Attend	-13.0619
▁defensive	-13.0619
▁Compani	-13.0619
IVES	-13.0619
▁portent	-13.062
▁Night	-13.062
▁Order	-13.062
▁Mahala	-13.062
▁Smok	-13.062
▁formulat	-13.062
▁Loyalty	-13.0621
▁dripp	-13.0621
▁Remain	-13.0621
▁masturbation	-13.0621
▁Workplace	-13.0621
▁mechanical	-13.0622
▁youngster	-13.0622
phobi	-13.0623
▁topple	-13.0623
▁deluge	-13.0623
▁Season	-13.0623
▁integrate	-13.0623
▁Buz	-13.0623
▁odd	-13.0624
▁Trad	-13.0624
▁zoo	-13.0624
▁Robert	-13.0624
▁grey	-13.0624
stract	-13.0624
▁666	-13.0625
▁weekend	-13.0625
▁activate	-13.0626
ekiah	-13.0626
▁Emma	-13.0627
▁horrifi	-13.0627
▁erode	-13.0627
▁Kindness	-13.0627
▁affectionate	-13.0627
▁denote	-13.0627
▁dictator	-13.0629
▁Board	-13.0629
▁blasphemous	-13.0629
▁triang	-13.0629
▁Lunch	-13.063
▁dreadful	-13.063
▁Alexandria	-13.0631
▁endorse	-13.0631
zek	-13.0637
▁Annu	-13.0637
▁blad	-13.0638
▁expectant	-13.0639
▁Ute	-13.0641
▁:42-4	-13.0642
▁angr	-13.0643
References	-13.0648
▁renam	-13.0652
▁Donate	-13.0652
▁Angl	-13.0653
HOU	-13.0653
Karen	-13.0656
▁paw	-13.0658
▁belittl	-13.0658
▁citation	-13.0659
▁appease	-13.066
▁Believe	-13.0662
▁gorge	-13.0663
▁inventor	-13.0672
sugar	-13.0682
▁sync	-13.0685
▁confrontation	-13.0688
yriad	-13.0691
▁desperat	-13.0695
▁Dj	-13.0699
▁Prob	-13.07
▁scarr	-13.0711
INT	-13.0748
knowledge	-13.0766
mpathetic	-13.0768
▁irritab	-13.0768
ophist	-13.08
isuse	-13.0817
urned	-13.0823
ivilization	-13.0845
▁dogma	-13.0846
▁skipp	-13.0853
▁investigat	-13.0891
populate	-13.0932
▁Term	-13.0949
▁recit	-13.0982
▁marsh	-13.1038
▁obscur	-13.113
▁Nico	-13.114
opping	-13.1142
carcer	-13.1179
▁equat	-13.1211
ilitar	-13.1218
▁untruth	-13.1254
▁Declar	-13.1288
▁toleran	-13.1334
▁signifi	-13.1351
pinions	-13.1355
TEN	-13.1471
▁impur	-13.1477
▁Seiz	-13.1486
▁PET	-13.1582
uddy	-13.1589
▁Repentan	-13.1737
▁Examin	-13.1739
▁disclos	-13.174
▁stimulat	-13.1755
kg	-13.1815
▁gobl	-13.1845
novation	-13.1865
ieve	-13.1947
▁Hug	-13.1976
lute	-13.1999
well	-13.2013
▁superfi	-13.2068
▁:36-3	-13.2085
▁Park	-13.2125
▁omit	-13.2142
baptize	-13.2147
ddler	-13.2227
unning	-13.2246
icken	-13.2248
illennium	-13.231
arried	-13.234
▁Informati	-13.2406
▁resource	-13.2434
OVER	-13.2436
▁irri	-13.2437
▁Parent	-13.2437
▁reduc	-13.2455
▁circ	-13.2456
ickbed	-13.246
ickness	-13.2464
warm	-13.2482
bundant	-13.2493
lcohol	-13.2505
ddress	-13.2511
busive	-13.2516
▁Civil	-13.2523
often	-13.2536
icker	-13.254
▁guil	-13.2557
▁testimon	-13.2568
▁securit	-13.2569
▁ministr	-13.2569
▁Refer	-13.2575
▁fami	-13.2575
pleasing	-13.2576
product	-13.2584
vidence	-13.2586
▁Visi	-13.2588
patch	-13.2588
warrant	-13.2588
riddle	-13.2589
minute	-13.2589
improvement	-13.259
cultural	-13.259
structure	-13.259
pleasant	-13.259
breast	-13.259
accurate	-13.259
First	-13.259
After	-13.259
assign	-13.259
two	-13.259
horses	-13.2592
owner	-13.2594
▁pervers	-13.2596
wife	-13.2596
gathering	-13.2599
▁Religio	-13.26
▁incorrupti	-13.2602
arina	-13.2602
ainstorm	-13.2603
storm	-13.2604
▁buckle	-13.2606
▁integr	-13.2606
▁induc	-13.2606
ternet	-13.2607
▁curren	-13.2611
eautiful	-13.2612
▁stimul	-13.2612
▁repla	-13.2612
▁mechanic	-13.2612
▁masturbat	-13.2614
▁Discuss	-13.2615
ultivat	-13.2615
onsolation	-13.2615
neumonia	-13.2615
recious	-13.2615
isplay	-13.2615
onsult	-13.2615
▁mut	-13.2616
agnify	-13.2616
orbid	-13.2616
ORD	-13.2617
▁muc	-13.2617
pposition	-13.2617
▁ferv	-13.2617
quo	-13.2617
▁intellect	-13.2618
vantage	-13.2618
ˈ	-13.2618
ʼ	-13.2618
ʽ	-13.2618
ፍ	-13.2618
▁bount	-13.2618
▁kilomet	-13.2618
▁Maxim	-13.2618
▁Neutral	-13.2618
▁denarii	-13.2618
▁hurricane	-13.2618
▁irrational	-13.2618
27-42	-13.2618
ANT	-13.2618
QUEST	-13.2618
bilitat	-13.2618
iohacker	-13.2618
nsibilities	-13.2618
ó	-13.2618
ር	-13.2618
▁CLOSE	-13.2618
▁Celebrat	-13.2618
▁Challenge	-13.2618
▁Collect	-13.2618
▁Darkness	-13.2618
▁Earnest	-13.2618
▁Effort	-13.2618
▁Essential	-13.2618
▁Etruscan	-13.2618
▁Hypocrite	-13.2618
▁LOVE	-13.2618
▁Laodicea	-13.2618
▁Material	-13.2618
▁Merciful	-13.2618
▁Mordecai	-13.2618
▁Resource	-13.2618
▁Scotland	-13.2618
▁Support	-13.2618
▁Vatican	-13.2618
▁WORLD	-13.2618
▁Wilderness	-13.2618
▁Zambia	-13.2618
▁administrator	-13.2618
▁antichrist	-13.2618
▁audio	-13.2618
▁auditorium	-13.2618
▁bewilder	-13.2618
▁blurt	-13.2618
▁category	-13.2618
▁cigarette	-13.2618
▁consonant	-13.2618
▁cucumber	-13.2618
知	-13.2618
ä	-13.2618
ö	-13.2618
ን	-13.5118
+	-13.8422
®	-13.8451
ã	-13.8451
ç	-13.8451
ɾ	-13.8451
Š	-14.3451
θ	-14.3451
ማ	-14.3451
@	-14.3451
è	-14.3451
ê	-14.3451
ú	-14.3451
ē	-14.3451
ł	-14.3451
ا	-14.3451
ረ	-14.3451
ሬ	-14.3451
ፎ	-14.3451
€	-14.3451
️	-14.3451
🎉	-14.3451
👌	-14.3451
(	-15.3425
#	-15.3451
ō	-15.3451
=	-15.3451
Ã	-15.3451
É	-15.3451
î	-15.3451
ā	-15.3451
ĕ	-15.3451
ě	-15.3451
ū	-15.3451
ɨ	-15.3451
ʺ	-15.3451
̊	-15.3451
ί	-15.3451
α	-15.3451
ι	-15.3451
ο	-15.3451
ة	-15.3451
خ	-15.3451
ص	-15.3451
ل	-15.3451
ي	-15.3451
ሂ	-15.3451
ለ	-15.3451
ላ	-15.3451
ሓ	-15.3451
ራ	-15.3451
ሴ	-15.3451
ሻ	-15.3451
ቅ	-15.3451
ቐ	-15.3451
ቤ	-15.3451
ቲ	-15.3451
ና	-15.3451
ኣ	-15.3451
ኮ	-15.3451
ዓ	-15.3451
ይ	-15.3451
ገ	-15.3451
ጛ	-15.3451
ጥ	-15.3451
፡	-15.3451
።	-15.3451
፥	-15.3451
ḫ	-15.3451
ḳ	-15.3451
ṓ	-15.3451
ṣ	-15.3451
ṭ	-15.3451
ἰ	-15.3451
‛	-15.3451
値	-15.3451
와	-15.3451
호	-15.3451
🍽	-15.3451
👋	-15.3451
👍	-15.3451
💔	-15.3451
💪	-15.3451
🤝	-15.3451
መ	-15.3451
ክ	-15.3451
여	-15.3451
Α	-15.3451
π	-15.3451
❤	-15.3997
ቡ	-15.3998
🙂	-15.3999
ግ	-15.4
õ	-15.4001
በ	-15.4002
*	-15.4003
י	-15.4004
>	-15.4005
¶	-15.4006
Q	-15.4007
$	-15.4008
[	-15.4009
‘	-15.401
!	-15.4011
;	-15.4012
?	-15.4013
“	-15.4014
:	-15.4015
.	-15.4016
,	-15.4017
