<unk>	0
<s>	0
</s>	0
▁።	-3.28492
▁፡	-3.33431
ን	-3.60377
▁	-3.86983
▁ኣብ	-4.17396
▁እዩ	-4.40759
▁፣	-4.78377
▁.	-4.87356
▁እቲ	-4.90168
▁“	-4.98817
▁ድማ	-5.0017
ቲ	-5.04108
▁፧	-5.06513
▁”	-5.0842
▁የሆዋ	-5.13958
ና	-5.16647
▁ከም	-5.19642
▁:	-5.20768
▁ን	-5.21093
ም	-5.241
▁ብ	-5.30512
▁ምስ	-5.31559
▁ካብ	-5.31598
ስ	-5.41846
▁(	-5.45285
▁)	-5.46126
▁ኣምላኽ	-5.46457
▁እዚ	-5.47978
ት	-5.50053
▁ናብ	-5.50344
▁እውን	-5.53294
▁ናይ	-5.53644
▁ነቲ	-5.56153
▁ዚ	-5.58732
ካ	-5.62995
▁ይ	-5.63741
▁፦	-5.65322
▁ከኣ	-5.68186
▁ኸኣ	-5.68861
▁እንተ	-5.71394
▁ዝ	-5.76504
▁እዮም	-5.7808
▁ኣ	-5.79759
ሉ	-5.83826
▁ኪ	-5.86508
▁ግና	-5.88219
▁ክ	-5.9982
ታ	-6.02643
▁ሓደ	-6.0694
▁ኸም	-6.07132
▁እንታይ	-6.07219
▁ወይ	-6.11882
,	-6.11992
▁የሱስ	-6.1279
ኒ	-6.13502
▁ብዛዕባ	-6.1504
▁እየ	-6.15561
▁ኺ	-6.16021
ር	-6.16195
ብ	-6.16826
▁ሰብ	-6.17235
እቶም	-6.17661
▁ኢና	-6.19668
▁እሞ	-6.21216
▁እ	-6.21933
ሲ	-6.25406
▁’	-6.26117
ል	-6.27147
‘	-6.28357
ኡ	-6.32386
ኸ	-6.34035
▁መ	-6.36028
▁ኻብ	-6.36213
▁ስለ	-6.39931
ዎ	-6.40716
▁ሰባት	-6.41251
▁2	-6.42744
▁ተ	-6.44047
ላ	-6.44752
ቶም	-6.47199
▁ምድሪ	-6.48801
ኻ	-6.49384
▁ኢሉ	-6.49502
▁1	-6.49705
▁ቅዱስ	-6.4981
▁ቤት	-6.51727
ድ	-6.5189
▁—	-6.52293
▁ዘይ	-6.54048
▁እታ	-6.54052
▁ኣይ	-6.5469
ኩም	-6.55577
ፍ	-6.5715
ዊ	-6.57155
▁መጽሓፍ	-6.57164
ታት	-6.59024
▁ንሱ	-6.6035
▁ዘሎ	-6.60776
▁ኣሎ	-6.60782
▁ዘ	-6.60948
ዶ	-6.6132
▁ኽ	-6.61945
ረ	-6.6304
▁ነበረ	-6.6325
ቱ	-6.64276
ሕ	-6.66705
▁እያ	-6.67397
ዕ	-6.67439
ኣ	-6.67541
▁እኳ	-6.67907
ይ	-6.70018
▁ግዜ	-6.70322
▁ምእንቲ	-6.70422
▁ኵሉ	-6.70643
ጽ	-6.70679
▁ብኸመይ	-6.70695
▁ዝዀነ	-6.73341
ራ	-6.74114
፡	-6.74774
ሪ	-6.75091
▁የ	-6.76869
▁ክት	-6.77347
ነ	-6.78599
▁ከምዚ	-6.78657
▁12	-6.79059
▁ኣነ	-6.80102
ነቶም	-6.8036
▁7	-6.80389
▁እተ	-6.81375
ደ	-6.8155
▁ኢኻ	-6.81577
▁10	-6.82129
▁ንጉስ	-6.82326
▁ወዲ	-6.82353
ዓ	-6.83812
▁ቅድሚ	-6.84109
▁ንየሆዋ	-6.84148
▁እት	-6.84259
ሎም	-6.84504
▁8	-6.84573
▁4	-6.84683
ሩ	-6.84735
▁ት	-6.85767
▁3	-6.85998
ሳዕ	-6.86288
ቕ	-6.86634
▁ነይሩ	-6.86885
▁6	-6.87718
ኦም	-6.87833
ለ	-6.87859
▁ስለዚ	-6.88856
▁!	-6.89124
▁14	-6.89184
ማ	-6.89701
▁9	-6.89931
ግ	-6.90006
ከ	-6.90163
▁13	-6.91193
▁11	-6.91413
▁5	-6.92332
▁ህዝቢ	-6.92598
ዋ	-6.93318
▁15	-6.94155
-	-6.94169
▁መዓልቲ	-6.94282
▁ዝነበረ	-6.96359
ባ	-6.96431
▁ኣብቲ	-6.96433
ያ	-6.96668
▁ዜ	-6.96688
▁ነዚ	-6.97603
ክ	-6.98791
ተ	-6.98902
ሰ	-6.99508
▁ሓ	-7.00203
▁ስለምንታይ	-7.00431
መ	-7.01443
▁ከ	-7.0205
▁ነገር	-7.02109
▁ም	-7.03036
▁ኽት	-7.03674
▁19	-7.05347
እ	-7.05933
▁16	-7.06138
ው	-7.06399
ኽ	-7.06421
ጥ	-7.06669
▁እስራኤል	-7.07969
.	-7.08177
▁ብዙሕ	-7.08721
▁ይኽእል	-7.08755
▁18	-7.08906
▁17	-7.09087
▁20	-7.09491
ሓ	-7.10234
▁መገዲ	-7.10434
▁ነ	-7.10585
ዳ	-7.10712
▁ሓቂ	-7.1097
ገ	-7.13866
▁ይኹን	-7.14148
▁ዅሉ	-7.14874
▁ጥራይ	-7.1611
▁እምበር	-7.16112
▁ኪኸውን	-7.16712
ቡ	-7.17056
▁ሽዑ	-7.17139
ዩ	-7.17194
ዮ	-7.18573
ሙ	-7.19556
▁ዘለዎ	-7.19642
▁ኬ	-7.21321
የ	-7.21787
▁ከመይ	-7.23022
▁ዓመት	-7.23958
▁ከሎ	-7.24933
▁በለ	-7.25005
▁ከምኡ	-7.25202
ወ	-7.25208
▁ልዕሊ	-7.25541
በ	-7.26112
▁ዓ	-7.26403
ሊ	-7.26687
▁ምዃኑ	-7.26918
▁ወ	-7.27552
▁ነገራት	-7.27662
▁ዓለም	-7.28843
▁ደቂ	-7.29053
▁ጽቡቕ	-7.29256
ሱ	-7.30143
ዲ	-7.31345
▁በቲ	-7.32938
▁ፍቕሪ	-7.33396
▁ክን	-7.33846
ኪ	-7.34789
ዝ	-7.35146
▁21	-7.35751
ትን	-7.36109
▁ኸምዚ	-7.36296
ጸ	-7.36518
ውን	-7.36642
▁መንግስቲ	-7.36673
▁በሎ	-7.36828
▁ዝነበሩ	-7.36875
▁እዚኣ	-7.38074
▁ነበሩ	-7.38228
ሽ	-7.39323
▁ኣይት	-7.39735
▁ግን	-7.40485
▁ሕጂ	-7.40785
ቅ	-7.41637
▁ንኣምላኽ	-7.4238
▁ይብል	-7.43855
▁ነታ	-7.44122
ሳ	-7.44454
▁ሰ	-7.44905
▁ዳዊት	-7.45007
ቶ	-7.45061
▁ኽን	-7.45427
▁22	-7.4644
ኹም	-7.46498
ዎም	-7.46671
▁ኵሎም	-7.46907
▁ክርስቶስ	-7.46967
▁ማለት	-7.47579
▁ህይወት	-7.48025
ዱ	-7.48915
▁ዘበለ	-7.48994
▁ገይሩ	-7.49117
ህ	-7.50083
ሃ	-7.51483
▁ንስኻ	-7.52564
▁መንፈስ	-7.53561
▁ደኣ	-7.54217
▁ቃል	-7.54331
▁ኢዩ	-7.55519
ፈ	-7.56242
▁እን	-7.56362
▁እዋን	-7.567
ጋ	-7.56758
▁ኣብዚ	-7.57122
▁ንሳቶም	-7.57557
▁ኢኹም	-7.58143
ቐ	-7.58326
▁ቦታ	-7.58749
▁ለ	-7.5911
▁ሰብኣይ	-7.59546
ሚ	-7.60274
▁ዀይኑ	-7.60284
ዛ	-7.60369
▁ኣፍ	-7.60527
ጠ	-7.60629
▁23	-7.60718
ኑ	-7.60905
▁ጳውሎስ	-7.6121
▁ካልእ	-7.62145
▁መን	-7.62202
▁ኼ	-7.62441
▁ሓንቲ	-7.62588
▁ኣለኹ	-7.63336
▁ብዙሓት	-7.63405
▁መንጎ	-7.6403
▁ኦ	-7.64404
ዘ	-7.64701
▁ዕዮ	-7.65998
▁በዚ	-7.66164
▁24	-7.66642
▁ኸ	-7.66856
ፋ	-7.66932
▁ኣይኰነን	-7.67291
▁ኰይኑ	-7.67312
▁ዘሎና	-7.67556
▁ጉባኤ	-7.67746
▁ድሕሪ	-7.6825
▁ገለ	-7.6856
▁ሮሜ	-7.68801
ለይ	-7.68986
ቢ	-7.70527
▁ማይ	-7.71355
▁መዝሙር	-7.71488
▁ዘለዉ	-7.71699
▁25	-7.72179
▁መስዋእቲ	-7.7218
▁ኢሎም	-7.72318
▁ዝበለ	-7.72382
▁ካልኦት	-7.73715
▁ኣሎና	-7.73853
▁ምሉእ	-7.74338
▁ኣለዎ	-7.75531
▁ዮሃንስ	-7.75715
▁ዓብዪ	-7.76632
▁[	-7.76652
ናን	-7.76845
▁ሕጊ	-7.7693
▁]	-7.76955
ሮም	-7.77629
▁ኣብኡ	-7.78458
▁ዚብል	-7.7852
▁ዓይነት	-7.78555
▁ሎሚ	-7.78827
▁ዚኽእል	-7.78872
▁ንኽእል	-7.79013
▁የሩሳሌም	-7.79231
ሮ	-7.79609
ኺ	-7.80051
ሎ	-7.80306
▁ሰበይቲ	-7.80342
▁ጐይታ	-7.80383
ጻ	-7.8065
▁ተስፋ	-7.81234
▁ስ	-7.81252
▁መዝ	-7.81714
▁ክርስትያናት	-7.81965
▁ብም	-7.82701
▁ኣዝዩ	-7.82795
ዑ	-7.83126
▁ማቴ	-7.83821
▁እዛ	-7.83864
▁በሎም	-7.83883
▁ሕ	-7.84151
▁ሀ	-7.84981
ቀ	-7.8514
▁እንሆ	-7.85183
ልና	-7.85599
ፉ	-7.85711
▁ኰነ	-7.85896
▁ንሕና	-7.86493
ዚ	-7.8656
▁ጸ	-7.87234
ኩ	-7.87323
▁ትኽእል	-7.87472
ቦ	-7.87674
ያዳ	-7.88006
▁ክልተ	-7.88013
ነት	-7.88974
▁26	-7.89199
▁ንዅሉ	-7.90473
▁ትምህርቲ	-7.90549
▁ኣለዉ	-7.90723
▁ዚኸውን	-7.90967
▁እና	-7.9156
ዮም	-7.91604
▁ኸተማ	-7.92594
▁ዘለዎም	-7.94103
▁ዀነ	-7.94601
▁ባህ	-7.94946
▁ግብሪ	-7.95181
▁ኣገዳሲ	-7.96666
▁ደ	-7.97034
▁ብዘይ	-7.97041
▁ኣገልግሎት	-7.97249
▁ኣየ	-7.97311
▁ሰይጣን	-7.97879
▁ነፍሲ	-7.98414
▁ከይ	-7.99195
ተን	-7.99346
ምን	-7.99645
ርኢ	-7.99801
▁ስም	-8.00226
▁ነይሮም	-8.0035
▁ኸሎ	-8.00663
▁ድ	-8.00925
▁ንኣ	-8.01057
▁ሰማይ	-8.01371
▁ሓጢኣት	-8.01491
▁ይሁዳ	-8.01594
▁ጴጥሮስ	-8.0199
▁ደም	-8.02028
▁እወ	-8.02519
▁መወዳእታ	-8.02923
▁ምሳ	-8.03291
▁30	-8.0353
▁ዝኣመሰለ	-8.0462
ተይ	-8.04738
▁ብሓቂ	-8.04761
▁ሙሴ	-8.04955
▁ቤተ	-8.05834
▁ቀ	-8.06058
▁እምበኣር	-8.06143
ሐ	-8.06202
በል	-8.06225
▁27	-8.06321
በታ	-8.06335
ጊ	-8.06465
▁ንኣብነት	-8.06541
▁እቲኣ	-8.06881
▁ኸይ	-8.07003
▁ኣህዛብ	-8.07075
ሞ	-8.07085
▁ሞት	-8.08392
▁28	-8.08504
▁ክንደይ	-8.0858
▁ዘይኰነስ	-8.08601
▁ንም	-8.0865
▁ትሕቲ	-8.08653
▁29	-8.0874
▁ንኻልኦት	-8.09114
▁ፍ	-8.092
▁ብምሉእ	-8.09529
ቈረ	-8.09809
▁ደቀ	-8.10423
▁ድዩ	-8.10568
▁ዚርከብ	-8.10975
▁ቓል	-8.11177
▁ንዕኡ	-8.1205
▁በ	-8.12196
▁ደው	-8.1255
▁ማቴዎስ	-8.12707
▁ዘላ	-8.1281
▁እምነት	-8.13214
▁ስጋ	-8.13798
ኣቱ	-8.1397
▁መንፈሳዊ	-8.13982
▁ምስኡ	-8.14273
ቃ	-8.15035
ጕ	-8.15094
ልካ	-8.15281
ፊ	-8.15399
ሸ	-8.15478
ዐ	-8.15573
ቑ	-8.1559
▁እንኽእል	-8.15912
▁ኣንብብ	-8.16026
ኖ	-8.16706
▁ጽሑፋት	-8.1725
▁ገጽ	-8.17661
▁ሰለስተ	-8.17866
ኦ	-8.18097
ቓ	-8.18282
ኹ	-8.18462
ሑ	-8.187
▁ኣይኪ	-8.19311
▁ግብጺ	-8.19323
▁ቐ	-8.1971
▁ንዅሎም	-8.20056
▁ከተ	-8.20113
▁መሰኻኽር	-8.20208
▁ኢድ	-8.20656
▁እስራኤላውያን	-8.20821
▁ንሳ	-8.20836
▁ሰራዊት	-8.20974
ጺ	-8.21494
▁ኣቢሉ	-8.22115
▁ከነ	-8.22414
ጣ	-8.22476
ጐ	-8.22612
▁ወከፍ	-8.2265
▁ብዝ	-8.2285
▁ጌርካ	-8.22896
▁ዮሃ	-8.23275
▁ርክብ	-8.23622
▁ያእቆብ	-8.23671
▁ልቢ	-8.24175
ትሩ	-8.24191
▁ቈረንቶስ	-8.24256
▁-	-8.24314
▁ይኸውን	-8.24787
▁ገሊኦም	-8.25043
▁ስድራ	-8.25536
▁ኣሕዋት	-8.25972
▁ኣብነት	-8.26009
▁ድሕሪኡ	-8.26013
▁ግብ	-8.26907
▁ገ	-8.27445
▁ንስኻትኩም	-8.27509
ሒ	-8.27631
ጹ	-8.28238
1	-8.28494
ካን	-8.28751
▁ባሕሪ	-8.28918
▁ንሓደ	-8.29302
▁ጌርና	-8.29372
ሶ	-8.29919
ዒ	-8.29951
▁ሰላም	-8.3056
▁ፍረ	-8.30566
▁31	-8.30655
▁ጽሑፍ	-8.31124
▁ጥበብ	-8.31334
▁ገይሮም	-8.31844
▁እየን	-8.32234
▁ፈ	-8.32246
▁ሳዕ	-8.32654
▁ሃዋርያት	-8.32711
▁መቕደስ	-8.32747
ቦም	-8.3275
▁ሉቃ	-8.33496
▁ርአ	-8.33552
▁ደገ	-8.33946
▁ሓድሽ	-8.34625
ጉ	-8.34765
▁ኪዀኑ	-8.35102
ዶም	-8.35636
▁መብዛሕት	-8.35865
▁ዕ	-8.36585
2	-8.36794
▁ሰማያት	-8.37465
▁ገበረ	-8.37715
▁ኣይሁድ	-8.37848
▁32	-8.38295
▁እተን	-8.38403
▁ሓይሊ	-8.38426
▁ዝዀኑ	-8.38905
▁ፍርዲ	-8.38917
▁ኣምልኾ	-8.38984
▁ኢሳ	-8.39015
ኢ	-8.39338
▁ኣቦ	-8.39889
አ	-8.40134
▁ውግእ	-8.40223
▁ከተማ	-8.40417
▁ንዘለኣለም	-8.40487
ኮ	-8.4059
▁ኢልካ	-8.40667
▁ክርስትያን	-8.40874
▁ንዚ	-8.41245
▁ሓሳብ	-8.41582
▁ምኽንያት	-8.41704
▁ኣይተ	-8.42645
▁ስርዓት	-8.42919
▁ርእሱ	-8.43053
▁ዝገበሮ	-8.43093
▁ኸለዉ	-8.43282
ርአ	-8.43484
▁ሓጐስ	-8.43655
▁ምሳሌ	-8.44001
▁የልቦን	-8.44041
▁ቅ	-8.44353
▁ሓሶት	-8.44819
▁ንኺ	-8.44921
▁ብርግጽ	-8.45014
ቝ	-8.45182
▁ርእሲ	-8.45209
▁ኣኼባ	-8.45412
▁መጠን	-8.45424
▁ማ	-8.45545
▁ባቢሎን	-8.45799
ዉ	-8.4581
▁ከምኡውን	-8.46022
▁ሃዋርያ	-8.46189
▁መዓልትታት	-8.464
ዘን	-8.47421
ሻ	-8.47425
▁ፍልጠት	-8.4769
▁—1	-8.47871
▁ንየሱስ	-8.4799
▁ሓሳባት	-8.47991
ታዊ	-8.48058
▁ኢለ	-8.4831
▁ወዱ	-8.48381
ምዕራፍ	-8.48396
▁መጸ	-8.48487
▁ይኽእሉ	-8.48822
▁ሕቶታት	-8.48935
▁ሃ	-8.48954
▁ቓላት	-8.49002
▁ስልጣን	-8.49066
ዞም	-8.493
ልኩም	-8.49429
ጢ	-8.49575
▁ግ	-8.49803
▁ሰናይ	-8.50071
▁33	-8.50136
ዅ	-8.50633
▁ትእዛዝ	-8.5085
▁ብስራት	-8.50852
▁በዓል	-8.51065
▁ቃላት	-8.51477
▁ወርሒ	-8.51484
▁34	-8.51572
▁ዘይብሉ	-8.51644
▁በሉ	-8.52289
▁ዅነታት	-8.5233
ያሎ	-8.5262
▁ኣረኣእያ	-8.52944
▁ክሳብ	-8.53026
ኖም	-8.53422
▁ክንዲ	-8.53424
▁ስራሕ	-8.53488
▁ኣላ	-8.53705
▁ኸነ	-8.53769
ስከ	-8.53792
▁ንሰባት	-8.54547
3	-8.5463
▁ምግባር	-8.54633
▁ኣቦኡ	-8.54645
▁ስርዓታት	-8.54914
▁መዛሙርቱ	-8.54995
ፈር	-8.55001
ጓ	-8.5533
▁ምኽሪ	-8.55351
▁ደጊም	-8.55365
▁ናብኡ	-8.5581
▁ብኣ	-8.56009
▁መዳይ	-8.5665
▁ዘየ	-8.56727
ላዕሊ	-8.56981
▁ጠ	-8.57229
4	-8.57234
ናዮ	-8.57487
▁ንመ	-8.5789
ንዲ	-8.58025
▁ይቕረ	-8.58171
▁ሓዊ	-8.58427
ዙ	-8.58493
▁እነ	-8.58756
▁ዓመታት	-8.58848
▁ዘፍ	-8.59058
▁ኣታ	-8.59422
ጡ	-8.59647
▁ኸመይ	-8.59744
ላይ	-8.5984
▁w	-8.59961
▁ዘረባ	-8.60235
▁ኣጋጣሚ	-8.60273
▁ሃገር	-8.60497
▁ጓል	-8.60613
▁ኣብዛ	-8.60764
▁እሙናት	-8.6087
ሶም	-8.60924
ኤል	-8.61315
▁መጀመርታ	-8.61417
▁ሸውዓተ	-8.61915
▁እዞም	-8.62021
ታትን	-8.62116
▁ኻልእ	-8.62169
▁ገንዘብ	-8.62256
▁35	-8.62261
▁ብርቱዕ	-8.62287
▁ጥቓ	-8.62331
▁ኣንጻር	-8.62579
▁ካብኡ	-8.62925
6	-8.63131
5	-8.63146
▁ሕቶ	-8.63166
▁ዚግበር	-8.63514
▁ልክዕ	-8.63658
▁ብተኣማንነት	-8.64129
ብል	-8.64232
▁ቕዱስ	-8.6439
▁ንዝ	-8.64448
▁ራእይ	-8.64637
▁ሸ	-8.65137
▁እንጌራ	-8.65144
▁ብእኡ	-8.65438
▁ኣብርሃም	-8.65692
:5	-8.65757
▁ህያው	-8.65801
ጎ	-8.66352
▁ኰን	-8.66406
▁ብመ	-8.66668
▁ሓበሬታ	-8.66767
ናት	-8.66998
▁፥	-8.67275
▁ቀዳማይ	-8.67499
▁ሰብኡት	-8.67766
▁ሓላፍነት	-8.67785
▁እዚኣቶም	-8.6788
ካዮ	-8.68241
በር	-8.68297
ውያን	-8.68533
▁ጐይታይ	-8.68549
▁ንሰብ	-8.6869
▁ኤ	-8.68852
?	-8.68861
▁40	-8.69005
ሁ	-8.69097
▁ከለና	-8.69262
ክን	-8.69317
▁ወይኒ	-8.69322
▁መሰውኢ	-8.6957
▁ውሳነ	-8.69586
ፎ	-8.69598
▁ንኽ	-8.70105
▁ኣለዎም	-8.70114
▁ዓበይቲ	-8.70179
ፎም	-8.70231
▁37	-8.70503
▁ኣብኣ	-8.70804
▁አ	-8.71082
▁መጽናዕቲ	-8.71141
▁ኢዱ	-8.71507
በሃል	-8.71534
ቘ	-8.72155
▁ኣገልገልቲ	-8.72364
▁ዘለዋ	-8.7252
▁ብዅሉ	-8.72521
▁ጸሎት	-8.72708
▁ክንከውን	-8.72796
▁ፍሉይ	-8.73036
▁ዘይተ	-8.73304
▁ኸተ	-8.73362
ዪ	-8.73593
▁ሽማግለታት	-8.73606
▁ጽ	-8.73769
▁ከቢድ	-8.73815
▁ኻህናት	-8.74075
▁ባ	-8.74128
▁ዝገበረ	-8.74281
▁ልዑላ	-8.74289
▁ሓው	-8.74472
7	-8.74593
ኩምን	-8.74955
▁ሳሙኤል	-8.75132
:8	-8.75485
ራት	-8.75535
▁መዛሙር	-8.76032
▁ገና	-8.76097
▁ኣምላኽካ	-8.76435
ብረ	-8.76547
▁ዕላማ	-8.76583
▁ዘርኢ	-8.76739
ይን	-8.77006
▁ጕዳይ	-8.77008
▁ው	-8.77131
ብኡ	-8.77206
▁እሙን	-8.7729
8	-8.77534
▁ቅዱሳት	-8.77693
▁ነገስታት	-8.77806
▁ዋላ	-8.77825
▁ዘመን	-8.77949
▁ሃይማኖት	-8.78144
ጽር	-8.78271
ለን	-8.78927
▁ኮ	-8.79293
▁ተባሂሉ	-8.79784
:20	-8.79922
▁እተፈላለየ	-8.80311
▁በረኻ	-8.80558
▁ዲኻ	-8.80662
▁ገሊኡ	-8.80779
▁ምላሽ	-8.80835
▁ድምጺ	-8.8107
▁ክርስትያናዊ	-8.81115
▁ወጻኢ	-8.81232
▁ንሓ	-8.81348
▁ሳኦል	-8.81396
▁መምርሒ	-8.8153
▁በልዎ	-8.81549
:10	-8.8169
▁ነዊሕ	-8.81961
ግብ	-8.81984
▁ነብዪ	-8.82003
ናይ	-8.82045
▁ፍቓድ	-8.82345
ሞም	-8.82499
▁መልእኽቲ	-8.82517
▁ነዛ	-8.82519
▁ብህይወት	-8.82812
▁ሕማቕ	-8.82829
ጅ	-8.82851
▁መገድታት	-8.82869
▁ወለደ	-8.82881
ወር	-8.82936
▁ኣኼባታት	-8.82994
▁ኖህ	-8.8311
▁እግዚኣብሄር	-8.83175
▁ብመንፈስ	-8.83384
▁ሓገዝ	-8.83385
▁ድንኳን	-8.83542
▁ዝመጸ	-8.83622
▁ተመ	-8.83643
▁ዝነበሮ	-8.83687
▁ብግዜ	-8.83834
▁ብርሃን	-8.83978
ወን	-8.84121
▁ይፈልጥ	-8.84237
▁ንሙሴ	-8.84249
▁ነበረት	-8.84476
▁ቈረ	-8.84488
▁ብምባል	-8.84553
ሬ	-8.84725
መር	-8.84776
▁ውሽጢ	-8.8483
▁ብዘይካዚ	-8.85147
▁በጃ	-8.85215
▁ሉቃስ	-8.85479
ሌ	-8.8582
▁ኣርባዕተ	-8.85874
▁እብራውያን	-8.85942
▁ኣስ	-8.8657
▁ሰማያዊ	-8.86599
▁ክንገብር	-8.86627
▁መሰል	-8.86871
▁ድሕርዚ	-8.86893
▁እብ	-8.87099
ሓት	-8.87423
▁ስነ	-8.87764
▁ተግባራት	-8.87921
ስቲ	-8.87952
▁ቅኑዕ	-8.88036
▁ከቶ	-8.88467
▁ጥ	-8.88578
▁ኣዳም	-8.88705
▁ንዓኻ	-8.88899
▁ኢሳይያስ	-8.88952
▁ዘለኣለም	-8.88991
:	-8.88998
▁ዝሓ	-8.89066
▁ንዓይ	-8.89091
▁ኸምኡ	-8.89099
▁ሓያል	-8.89177
▁ሰሎሞን	-8.89295
9	-8.89438
0	-8.89478
▁ንጹህ	-8.896
ትና	-8.89684
ብሎ	-8.897
▁እተገብረ	-8.89725
▁ራእ	-8.89856
▁ዝተ	-8.90061
ሉን	-8.90096
ዖ	-8.90231
ኽሊ	-8.90244
▁ዝኽእል	-8.9033
ኤ	-8.90398
▁ሒደት	-8.90406
▁ንዓ	-8.90513
▁ዘፍጥረት	-8.90526
▁ማእከል	-8.90598
:18	-8.90667
▁ኣይነበረን	-8.90829
▁ገይረ	-8.90829
▁ኽልተ	-8.90842
ሖ	-8.9087
ታቶም	-8.90965
ስዕብ	-8.91012
▁ተሰ	-8.91193
ቖም	-8.91228
▁ብሓደ	-8.91296
▁ታሪኽ	-8.91449
:11	-8.91632
/	-8.9176
▁በረኸት	-8.9176
▁መከራ	-8.91764
▁ጌጋ	-8.91866
▁ንእሽቶ	-8.9187
▁ዅሎም	-8.9239
▁ዚመጽእ	-8.92512
▁ዄንና	-8.927
▁ኣንስቲ	-8.92711
:15	-8.92912
:7	-8.92925
አን	-8.93201
:6	-8.93428
▁ስብከት	-8.9345
▁ኢልና	-8.93452
▁ለይቲ	-8.93714
:24	-8.93763
▁ካብዚ	-8.93794
ሓርር	-8.93881
▁ነይረ	-8.93972
▁ዘይት	-8.94007
▁ባርያ	-8.9465
▁ዝሰ	-8.94655
—	-8.94767
▁ኣበይ	-8.9493
▁ምግቢ	-8.94946
▁ኽንገብር	-8.94963
▁ዚገልጽ	-8.95046
ጾ	-8.95117
▁ባህርያት	-8.95118
ሀ	-8.95193
'	-8.95252
▁የግዳስ	-8.95252
▁ክኸውን	-8.95329
▁ጽድቂ	-8.9541
▁36	-8.95558
▁ኣይን	-8.95572
▁ወርቂ	-8.95632
ሰንኪ	-8.95817
▁ኤፌ	-8.95896
▁ወለዶ	-8.95934
▁መለሰ	-8.9609
▁ቤቱ	-8.96182
▁ብሓድሽ	-8.96227
▁ጸሓይ	-8.96243
:16	-8.96339
▁ኣምላኽና	-8.96393
▁ግምቢ	-8.96554
ምር	-8.96561
▁ሂቡ	-8.96698
ጭ	-8.96789
▁ረ	-8.96899
ጥፍ	-8.96976
▁ንኽት	-8.97085
:22	-8.97171
▁ኣቦይ	-8.97238
▁38	-8.97242
▁ኢላ	-8.9738
▁ጸጋ	-8.97717
▁ንዓና	-8.97847
▁ጻዕሪ	-8.97898
▁ሓሙሽተ	-8.97953
ማት	-8.98093
▁ኣኽራን	-8.98207
ርእዮ	-8.98264
▁ዘይኰነ	-8.98765
▁ንንጉስ	-8.98871
▁ጽልዋ	-8.9888
▁ጢሞቴዎስ	-8.99207
▁እመት	-8.9933
ርስ	-8.99372
:17	-8.99389
▁ዝነበረት	-8.99417
ዞ	-8.99524
▁እኩይ	-8.99545
ያት	-8.99675
▁ክፉእ	-8.99835
:9	-8.9986
▁እኩያት	-8.99881
▁ስጕምቲ	-8.99883
▁ኣለና	-8.9996
▁ዚነብሩ	-9.00054
▁መጺኡ	-9.00221
▁ንናይ	-9.00303
▁ሕማም	-9.00323
▁ኢ	-9.0043
ኰ	-9.00471
ኻን	-9.00703
▁ስሙ	-9.00801
:25	-9.009
▁ኵነታት	-9.00902
▁ከተማታት	-9.00918
ድን	-9.01205
▁ዘለኹ	-9.01264
▁ጐ	-9.01306
ስተ	-9.0135
▁ኣዒን	-9.01522
፥	-9.01559
ለል	-9.01979
ክዎ	-9.01998
▁ኤፌሶን	-9.02013
▁ገዛእ	-9.02561
▁ዝመ	-9.02627
▁ናጽነት	-9.02764
▁ዄንካ	-9.02974
▁ሃገራት	-9.02975
:14	-9.03244
▁ግቡእ	-9.03324
▁ዓይ	-9.03481
▁እዝ	-9.0364
በሉ	-9.03642
▁ዮሴፍ	-9.03675
ሂ	-9.03885
▁ዘርእስ	-9.04083
ህብ	-9.04228
ደን	-9.04306
ሓዊ	-9.04349
▁ውን	-9.04354
▁ጸገማት	-9.04383
▁ሓራ	-9.04594
▁ንኽን	-9.0476
መንፈሳዊ	-9.04774
:12	-9.0494
▁ዓባይ	-9.0508
▁ክፍሊ	-9.05093
▁ክትከውን	-9.05118
▁እያሱ	-9.05185
▁ዜደንቕ	-9.05293
▁እዮብ	-9.05396
▁ብኡ	-9.05815
▁እትኽእል	-9.05902
ቍ	-9.0615
▁ዚግባእ	-9.06166
▁ንምርካብ	-9.06166
▁ኦም	-9.06352
▁ስእሊ	-9.06527
▁ከረን	-9.06582
ነይ	-9.0667
▁ከለኻ	-9.06913
▁ወለዲ	-9.07049
▁ምድርን	-9.07193
ያን	-9.07314
▁ኣቐዲ	-9.07482
▁ኣካል	-9.07755
ተር	-9.07773
ዎን	-9.07849
ፈልጥ	-9.07943
▁ጻድቕ	-9.07985
ርያ	-9.08018
▁ንምድሪ	-9.0804
▁ምሳኻ	-9.08059
▁ሽ	-9.08206
▁ምናልባት	-9.0838
▁ኣሮን	-9.08469
▁በጃኻ	-9.08543
▁ኣዋልድ	-9.08721
▁ከባቢ	-9.08721
▁ውሳነታት	-9.0893
▁ፈርኦን	-9.09091
▁ኵለን	-9.09103
▁እምኒ	-9.09112
▁ዝበሎ	-9.0929
ኻልእ	-9.09315
▁ብዓል	-9.09403
▁ረኣየ	-9.09446
▁ውህበት	-9.09463
▁ንምግባር	-9.09562
ውድ	-9.09566
▁ሳ	-9.09607
ረት	-9.09931
▁ስምዒት	-9.1005
▁ብእ	-9.10175
▁ዘሎካ	-9.10182
,000	-9.10238
▁ትርጕም	-9.10424
:13	-9.1057
▁ኻህን	-9.10587
▁ኣባጊዕ	-9.10603
ደቂ	-9.10609
ቖ	-9.10643
▁በዅ	-9.1065
▁ነበሮ	-9.1084
መላለስ	-9.1091
▁ኰይኖም	-9.10964
▁ኣይክት	-9.11095
▁ዓሰርተ	-9.11109
▁በለት	-9.11129
▁ይገብር	-9.11195
▁መልኣኽ	-9.11374
ቱን	-9.11484
▁ሞገስ	-9.11727
▁ማያት	-9.11751
:28	-9.11758
▁እተዋህበ	-9.11776
▁39	-9.12088
ታቱ	-9.12455
▁ሓብ	-9.12533
▁ጥቕሚ	-9.12913
ውር	-9.13011
▁ትብል	-9.13056
▁ግደ	-9.13101
▁ወሲዱ	-9.13259
▁ሓድሓ	-9.13519
▁ተወሳኺ	-9.1358
▁እንተዀነ	-9.13647
▁እከይ	-9.1365
ቂ	-9.13697
ይዎ	-9.13762
▁ነገድ	-9.13782
:26	-9.1382
▁ዘብዐኛ	-9.13844
▁ግበር	-9.13848
▁ምዉታት	-9.14036
▁ቋንቋ	-9.14055
▁ሚ	-9.14056
▁ኵላቶም	-9.14169
▁መቓብር	-9.14429
▁መጻኢ	-9.14432
▁ህይወቱ	-9.14435
▁ኣለዋ	-9.14481
ሰይ	-9.14487
▁ኻልኦት	-9.14548
▁ንጹር	-9.14579
ጥቀም	-9.14791
▁ጥዕና	-9.1482
ርቂ	-9.14976
▁ኤርምያስ	-9.15159
ሓደ	-9.15372
ትኩም	-9.15462
▁ኣባላት	-9.155
▁ዝሃቦ	-9.15593
▁ህዝብታት	-9.15638
መዓልቲ	-9.15674
▁እንስሳ	-9.15752
▁ኣሕዋትና	-9.15764
▁እትብል	-9.16188
▁ጥን	-9.16364
መል	-9.16394
▁ንእስራኤላውያን	-9.16402
▁ህይወትና	-9.16606
▁ሰዓት	-9.16736
▁መጓሰ	-9.16787
ንቀጽ	-9.16815
ጨ	-9.17154
ዀ	-9.17272
▁ብምግባር	-9.17291
በረ	-9.17442
▁41	-9.1746
ዀኑ	-9.17499
▁ብንጹር	-9.17611
ባር	-9.17677
▁ኪዳን	-9.17808
ፈለማ	-9.17883
▁ሰበይቱ	-9.18012
▁ጕ	-9.18072
▁ሓዳ	-9.18317
ነተን	-9.18457
:29	-9.18486
ጽል	-9.1865
ቤ	-9.18752
▁እዚኦም	-9.18938
▁ኸደ	-9.18989
▁ርእሶም	-9.19149
▁ምዃን	-9.19198
▁በላ	-9.19219
▁ኣለኻ	-9.19407
ገድ	-9.19606
▁ኣኽብሮት	-9.1965
▁ሌዋውያን	-9.19656
ወስድ	-9.19813
▁ዳን	-9.19873
▁ክንዳኡ	-9.20099
▁ምሳታቶም	-9.20105
▁ክብሪ	-9.20231
▁ነበር	-9.20247
▁ዚገብር	-9.20409
▁ጥቕ	-9.20561
▁ዘለና	-9.20569
▁ዓው	-9.20738
በይ	-9.2074
▁ኣደ	-9.20771
▁ነይራ	-9.20897
▁ልቡ	-9.20987
▁ፍትሒ	-9.21149
▁ይከኣል	-9.21312
▁ምሸት	-9.21313
▁ኣድ	-9.21335
▁ምሳይ	-9.21346
▁መራሕ	-9.21471
▁ምስክር	-9.21585
▁መስተ	-9.21591
ብለኩም	-9.21651
▁ኣጋንን	-9.21696
▁ርኹስ	-9.21732
ጴጥ	-9.21758
▁ልብኻ	-9.21868
ልያ	-9.21887
▁ዚብሃል	-9.22025
ጾም	-9.2208
ጀ	-9.22093
▁ጸብጻብ	-9.22153
▁ንግሆ	-9.22156
▁ኢዮም	-9.222
▁ትሕትና	-9.22315
▁ቕድሚ	-9.22577
ማቴዎስ	-9.22608
▁ዚኽእሉ	-9.22627
▁ሰፈር	-9.22695
ርበ	-9.22922
ቆ	-9.22925
▁ጸኒሑ	-9.23003
መውት	-9.23084
▁ሓደጋ	-9.23623
ቈ	-9.23708
▁ሕልና	-9.23757
▁ከደ	-9.24011
ኛ	-9.2428
▁የብሉን	-9.24292
▁ይሁዳን	-9.24559
▁ዝብል	-9.24608
ፍር	-9.24666
▁ፍልስጥኤማውያን	-9.24723
▁ንህዝቢ	-9.24723
ፍቕሪ	-9.24813
▁መሰረታዊ	-9.24851
▁ኺገብር	-9.2488
▁መላእኽቲ	-9.25038
▁ማር	-9.25067
ደይ	-9.2508
▁ትንሳኤ	-9.25158
▁ገነት	-9.25264
▁ብዚ	-9.25518
▁ወጸ	-9.25519
ምሃር	-9.25604
▁ልብና	-9.25611
▁በብ	-9.25954
▁ብዘይካ	-9.25977
▁ጥፍኣት	-9.26033
▁ሓድነት	-9.26034
▁ብቐጻሊ	-9.2607
▁ጸሓፍ	-9.26358
ረይ	-9.26461
ቁ	-9.26528
▁ርእስኻ	-9.26571
▁ኣማልኽቲ	-9.26611
▁ሞ	-9.26657
▁ጸልማት	-9.26696
ቋ	-9.2689
▁ምልክት	-9.26917
ርሕቕ	-9.26947
▁ኣእ	-9.27124
ልን	-9.27173
▁ንዓታቶም	-9.27381
▁ሞተ	-9.27445
ባብ	-9.27564
▁ኢድካ	-9.27655
▁ተግባር	-9.27807
▁መልሲ	-9.27818
▁ብዛዕባኡ	-9.27834
▁ኣይክ	-9.27918
▁ውሉዳት	-9.27935
▁መምህር	-9.27937
▁ዝኣ	-9.28097
ርዎ	-9.28185
▁ኵላ	-9.28192
▁ይዀኑ	-9.28205
▁ኽትከውን	-9.28261
▁ተዓ	-9.28296
▁መዓት	-9.28313
▁ንደቀ	-9.28369
▁ጀመረ	-9.28432
ዓዪ	-9.28491
:19	-9.28589
ደኣ	-9.28636
ኽን	-9.28722
▁ተቐ	-9.28816
:31	-9.28829
▁ተወ	-9.2883
▁ሕግታት	-9.28839
:27	-9.28866
ሹ	-9.28874
▁ኪገብሩ	-9.2889
▁ዕድመ	-9.28963
:32	-9.29115
▁ነብያት	-9.29126
▁ደቁ	-9.29196
▁ዓዲ	-9.29216
▁መዓስ	-9.29292
ሕጡብ	-9.29338
ዮሃንስ	-9.29352
ኔ	-9.29482
▁ልቦም	-9.29585
▁ስንጭሮ	-9.29613
▁ህዝቡ	-9.29659
ድሪ	-9.2967
▁50	-9.29686
▁ንፋስ	-9.29762
▁ዘጸ	-9.2985
▁ፍጹም	-9.29866
:23	-9.29915
▁ኣይክእልን	-9.3007
ገጹ	-9.3012
▁ዮርዳኖስ	-9.30182
▁ዜብል	-9.30252
ፈልጦ	-9.30261
▁ላዕሊ	-9.30306
▁ግዳ	-9.30319
▁ንሰ	-9.30368
ኽብር	-9.30468
ረኽቦ	-9.30478
▁ዀይኖም	-9.30528
▁እተጻሕፈ	-9.30551
▁ናባኻ	-9.30582
▁ዙርያ	-9.30627
ሮት	-9.30663
▁እናተ	-9.30949
▁መግለጺ	-9.30989
▁መብጽዓ	-9.31312
▁ብዘላ	-9.31419
▁ጸሓፈ	-9.31453
▁ኽቡር	-9.31455
▁ዲ	-9.31482
▁በል	-9.31525
▁ቕ	-9.31612
መዝሙር	-9.31685
▁ዜድልዮም	-9.31701
▁ገበር	-9.31737
▁ኣእምሮ	-9.31815
▁ዘለኻ	-9.3196
ሰምዕ	-9.31976
መን	-9.3201
▁ዳሕ	-9.3202
▁ያ	-9.32037
▁መጹ	-9.32072
▁ኣር	-9.32084
:21	-9.32197
▁ንዳዊት	-9.32384
▁ዝኣዘዞ	-9.32385
▁ሒዙ	-9.32386
ራሕ	-9.32387
▁ቀረባ	-9.32413
ድሕን	-9.32582
በላ	-9.32684
ርስቲ	-9.32817
▁ቈ	-9.32849
16.0	-9.32854
▁ሕጉሳት	-9.32854
▁መጺኦም	-9.32855
▁ብሕ	-9.3309
ሮሜ	-9.33161
▁—2	-9.33172
ሜ	-9.33213
ፍን	-9.33241
▁ዓስቢ	-9.33354
ብላ	-9.33392
ዛረብ	-9.33476
▁ቦታታት	-9.33491
▁ንህይወት	-9.3351
ላት	-9.33514
▁42	-9.33519
ዓቢ	-9.33732
መዝ	-9.33733
▁ብቐሊ	-9.33802
▁ዶብ	-9.34013
▁መርትዖ	-9.34074
▁ንህዝቡ	-9.34276
▁ትኸውን	-9.34327
▁ንጽህና	-9.34338
▁ሸነ	-9.34515
ነቱ	-9.34533
ርን	-9.34848
ዓት	-9.34869
▁ተኣ	-9.34956
▁ተኸ	-9.34974
▁ነበራ	-9.35302
ረክብ	-9.35303
▁ዜና	-9.35456
▁እተዛረቦ	-9.35539
▁ብዘሎ	-9.35543
▁ዝዀነት	-9.35598
▁ምርኮ	-9.35732
▁ኢኺ	-9.35778
▁ወረ	-9.36124
ልዎ	-9.36167
▁ሓለቓ	-9.36204
▁መሮር	-9.36206
▁ኣትሒዙ	-9.36209
▁ግምት	-9.3621
▁ማርቆስ	-9.36337
▁ምድ	-9.36417
▁ዳንኤል	-9.36474
▁ኣሕ	-9.36487
ኣምን	-9.36583
ርእዩ	-9.36608
▁መእተዊ	-9.36691
▁ገሊጹ	-9.367
▁ዓሳ	-9.36923
▁ብናይ	-9.3712
▁ብሉጽ	-9.37204
▁መንግስትታት	-9.3723
ፈል	-9.37364
ጥቀመሉ	-9.37394
▁ይብሉ	-9.37417
▁ኤሊ	-9.37447
▁መደረ	-9.37656
▁ሰይፊ	-9.37675
▁እተወሰነ	-9.37686
▁ምሳኻትኩም	-9.37689
ማን	-9.37701
ኵ	-9.37708
ጸል	-9.37842
▁ኣለኹም	-9.37855
▁ካልኣይ	-9.38169
▁ምብራቕ	-9.3817
▁ካህናት	-9.38409
▁እንስሳታት	-9.38487
ርካ	-9.38574
▁ዝነበሮም	-9.38644
▁ኵላትና	-9.38684
▁45	-9.38908
▁ንዘ	-9.39071
▁ንኸ	-9.39141
▁ድያብሎስ	-9.39167
▁ምምራጽ	-9.39167
▁ተመክሮ	-9.39167
▁ኣጸቢቑ	-9.39181
▁ፍቕሩ	-9.39377
ቒ	-9.39429
▁ዜርኢ	-9.39534
▁ንሓድሕዶም	-9.39675
▁በደል	-9.39687
ማይ	-9.40076
ባይ	-9.40083
▁ሓዳር	-9.40245
▁እትርከብ	-9.40261
▁ዚስዕብ	-9.40284
▁መርከብ	-9.40315
▁ምሕረት	-9.40397
ምስ	-9.40541
ላዕ	-9.40646
ላዊ	-9.40648
▁ብሓ	-9.4067
▁ክእለት	-9.40683
▁ቈልዑ	-9.40686
▁ጸበባ	-9.40689
▁ይግባእ	-9.40696
▁ዝኾነ	-9.40703
ማዕ	-9.40719
▁ናባይ	-9.4074
ሰብ	-9.40789
▁ል	-9.40832
▁ትፈልጥ	-9.40837
ዖም	-9.40913
▁ቍ	-9.41092
ትኻ	-9.41105
▁ጽሕፈት	-9.41194
ለም	-9.41218
▁ህዝበይ	-9.41225
▁ጌርኩም	-9.41268
▁ቀንዲ	-9.41275
ሓባር	-9.41471
▁ፈሪሳውያን	-9.41716
▁ጭንቀት	-9.41841
▁ዝፋን	-9.41947
ሓዝ	-9.42138
▁መዘናግዒ	-9.4222
▁ብየሆዋ	-9.4222
▁ፍቓደኛ	-9.4222
▁ደቅሰብ	-9.42222
▁ኣሎካ	-9.4231
▁ጾታ	-9.42506
▁ዚገብርዎ	-9.42634
ዴ	-9.42736
▁ይስሃቅ	-9.42739
ሰን	-9.42762
▁ባዕሉ	-9.42801
ርና	-9.42948
▁ኣቦና	-9.42999
▁ትምኒት	-9.43033
በለ	-9.43078
▁ፊል	-9.43082
▁ልዕል	-9.43176
▁ደረጃ	-9.4326
▁ቀዳሞት	-9.43265
▁ሓርነት	-9.43277
▁መስ	-9.43316
በሩ	-9.43439
▁ዚገብሩ	-9.4354
ዐይ	-9.43575
ጦ	-9.4364
▁ጨ	-9.43766
▁መንእሰያት	-9.43783
▁ተገሊጹ	-9.43783
▁ቕኑዕ	-9.43783
▁ፍጥረት	-9.43783
▁ንዓኻትኩም	-9.43803
▁ሃቦም	-9.43864
▁ቍጽ	-9.43944
▁ተሓ	-9.43999
▁ኣቕሑ	-9.44146
ጽን	-9.44175
▁የብልናን	-9.44309
▁ዘይብሎም	-9.44316
መሰረት	-9.44348
▁ኣታኽልቲ	-9.44417
▁ምርጫ	-9.44684
▁ብርታዐ	-9.447
▁ጢሞ	-9.44707
▁ጕጅለ	-9.44838
▁ኣእዳው	-9.44839
▁ሃቦ	-9.45037
ገልግሎ	-9.45054
▁ዚደሊ	-9.45177
▁እንተኾነ	-9.45371
▁ብእምነት	-9.45376
▁ጎ	-9.45622
▁ንፈልጥ	-9.45699
▁ጉባኤታት	-9.45752
ራይ	-9.45805
ገር	-9.45845
▁ነጥብታት	-9.45905
▁ንእ	-9.45965
▁ገዛ	-9.45965
▁ያእ	-9.46025
▁ድሕነት	-9.46033
▁ዝተረፈ	-9.46083
▁ጸገም	-9.4609
▁ዕር	-9.46146
▁ኽፉእ	-9.46388
▁ትንቢት	-9.46443
▁ክፋል	-9.46446
▁ገላ	-9.46622
ሓስብ	-9.46752
▁መባእ	-9.46986
▁ገበሩ	-9.47012
▁እንገብሮ	-9.47015
መስዋእቲ	-9.47067
ኽብሮ	-9.47067
▁ክትገብር	-9.4709
ስሙ	-9.4747
▁ኣተወ	-9.47579
▁እናኣ	-9.4758
ርሕ	-9.47635
▁ምሕ	-9.47806
ፈትዎ	-9.47818
ሓልፍ	-9.47888
▁ምኽንያ	-9.48054
▁ማሕደር	-9.48084
ዓር	-9.48089
▁ግራት	-9.48121
▁ኺገብሩ	-9.4824
▁ኣምላኽኩም	-9.48421
ዝሒ	-9.48472
▁ጽሩይ	-9.48481
▁ተማ	-9.48502
ልወ	-9.48579
▁ብዘየገድስ	-9.48623
▁ይሕ	-9.48781
▁ሩት	-9.48808
ራን	-9.4888
ኣል	-9.48892
▁ርእሰ	-9.4904
▁ብተመሳሳሊ	-9.49042
▁"	-9.49165
▁ኣሕዋቱ	-9.49175
▁ልዑል	-9.49177
ሓንቲ	-9.49181
▁ዕቤት	-9.49189
▁ብሩር	-9.49228
ኣን	-9.49273
ሕሉ	-9.49275
▁ሽሕ	-9.49383
ናጻ	-9.4939
▁ደብዳበ	-9.49558
▁ንእስራኤል	-9.49731
ተሰ	-9.49737
▁ንሕ	-9.49806
▁ዚምልከት	-9.49879
▁ፍቕርን	-9.49926
▁43	-9.49987
ኣት	-9.50082
▁ጐይታና	-9.50153
▁አሎኹ	-9.50159
ጢሞ	-9.5023
ጥም	-9.50267
▁ምንጪ	-9.5029
ባት	-9.50293
▁ዓመጻ	-9.50351
▁ዘዳ	-9.5082
▁ሕክምና	-9.50851
▁ዛንታ	-9.50856
▁ኣል	-9.50881
▁ተንሲኡ	-9.50923
▁ንጥፈታት	-9.50947
▁ትእዛዛት	-9.50998
▁ዝሓዘ	-9.51085
የይ	-9.51121
▁ትርጉም	-9.51171
ኳ	-9.51175
▁ንቤት	-9.51188
▁ሰምዐ	-9.51365
▁ነገሰ	-9.51465
ፈት	-9.5153
ሰሪ	-9.51583
እን	-9.51855
▁ብስም	-9.51941
▁ቤ	-9.51963
▁ጴጥ	-9.51967
▁ግብርታት	-9.52102
▁ሓለውቲ	-9.52556
▁ውሉድ	-9.52557
▁ክቡር	-9.52562
▁ሞኣብ	-9.52565
▁ዘይም	-9.52601
▁ዘላት	-9.52626
መሃር	-9.52698
•	-9.5313
▁ዕሽሽ	-9.5313
▁ኽፋል	-9.53132
ለስ	-9.53141
▁የጠቓልል	-9.53171
▁ምዃኖም	-9.53178
ጠፍእ	-9.53193
▁ዚሕብር	-9.53259
▁ደስ	-9.53365
▁ኣካላት	-9.53527
▁ፈጺሙ	-9.53709
ፍሪ	-9.53841
▁ኩ	-9.53953
ፕ	-9.53961
ሳት	-9.54062
▁ደድሕሪ	-9.54112
▁ጐድ	-9.5418
▁ርእስና	-9.54185
▁መለሰሉ	-9.5423
ደሊ	-9.5428
▁ኤፍሬም	-9.5429
▁ልበይ	-9.54307
▁ስቕ	-9.54394
▁ከላ	-9.54426
ገብር	-9.54454
▁ኽትገብር	-9.546
▁ገለጸ	-9.54803
▁ኣእዋም	-9.54875
ግር	-9.54944
▁ብል	-9.55041
ብር	-9.55086
▁ዚገብሮ	-9.55107
ዕድመ	-9.5515
▁ኪድ	-9.5523
ሓድ	-9.55303
ፈለጥ	-9.55303
▁ቈሎ	-9.55332
▁ከይተረፈ	-9.55463
▁ገንሸል	-9.55463
▁ኣገባብ	-9.55463
▁ነሓ	-9.55565
ጌ	-9.55571
▁ገላዉ	-9.55641
▁ገሊላ	-9.5566
▁ዚደልዩ	-9.5572
▁ሻ	-9.55766
ጻዕ	-9.55859
ርድ	-9.55891
▁ዋጋ	-9.56038
▁$1	-9.56055
▁ደቒቕ	-9.56055
▁ምዃና	-9.56055
▁ጨንፈር	-9.56055
ደል	-9.56104
መት	-9.56123
ጐድ	-9.56285
ደሉ	-9.56316
▁ምዃንና	-9.56339
▁ሐ	-9.56406
ረኽቡ	-9.56619
▁መሰረት	-9.56631
▁ኮይኑ	-9.5665
▁ብፍላይ	-9.56663
▁ቅድም	-9.56672
▁ቅድሜኻ	-9.56675
▁ሊቀ	-9.56683
▁ብሰ	-9.56816
▁ኣበ	-9.56872
ሕጐስ	-9.56894
ምህር	-9.56898
ቕርቦ	-9.57087
ገብረሉ	-9.57107
▁ሃብ	-9.57122
ገዝእ	-9.57242
▁ቐዳማይ	-9.57249
▁ዓሌት	-9.57249
በጽሕ	-9.57254
ርከብ	-9.57269
▁ኸረን	-9.573
▁ተመልሰ	-9.57365
ብሃል	-9.57403
▁ቀደም	-9.57441
▁እተዋህቦ	-9.57471
▁ዝደ	-9.57473
▁ህ	-9.57608
▁ፈተና	-9.57651
▁ኣዝዮ	-9.57685
▁ኸለ	-9.57827
▁ሚእ	-9.57847
▁ትብዓት	-9.57851
▁ባሮት	-9.57876
▁ኣቲ	-9.57939
በት	-9.5796
▁46	-9.58125
ሰርሕ	-9.58192
ሓትት	-9.58374
▁ኻልኣይ	-9.58457
▁ንርእስኻ	-9.58458
▁ሕጉስ	-9.58458
ለሉ	-9.58475
▁ዕረፍቲ	-9.5859
▁ዝሓለፈ	-9.5863
▁ክዳን	-9.58725
:34	-9.58818
:33	-9.5889
ጦም	-9.58963
ውጽእ	-9.59038
▁ጥዑም	-9.59067
▁ሰንበት	-9.59069
▁ሰሙን	-9.59085
▁ኣተሓሳስባ	-9.59087
▁ኢየ	-9.59263
▁ቍጥዓ	-9.59266
ረብ	-9.59468
ሰለ	-9.59471
▁ኩሉ	-9.59504
ስዎ	-9.59607
▁3:16	-9.59652
በራ	-9.59676
▁መሊሱ	-9.59681
ሕዝ	-9.59682
▁ኣእማን	-9.59695
▁44	-9.59725
▁መናፍስ	-9.59743
▁ሽዱሽተ	-9.59845
▁ማእሰርቲ	-9.59871
ገልግል	-9.60175
▁ዳ	-9.60184
▁ሄዋን	-9.60307
▁ኵ	-9.60487
▁ኺዳን	-9.60527
የን	-9.60596
▁ተጸ	-9.60623
▁ወሰን	-9.60668
)	-9.60692
ነፍሲ	-9.60695
ልቢ	-9.60711
ዋን	-9.60868
▁ዝወ	-9.60905
▁ወርቅን	-9.60919
▁ምሃብ	-9.61013
▁ረኣኹ	-9.6141
▁ታቦት	-9.61501
▁ኣይም	-9.61511
▁ዀይነ	-9.61544
▁ምርኻብ	-9.61544
▁ካህን	-9.61545
ልብ	-9.61656
▁ይነብር	-9.61726
▁ህዝቅያስ	-9.62173
▁ቘልዓ	-9.62173
▁ብቕንዕና	-9.62173
▁ህያብ	-9.62173
▁ዜድሊ	-9.62174
▁ልዕሊኡ	-9.62183
▁ሓተቶ	-9.62283
ቕን	-9.62311
▁ዚነብር	-9.62364
በሎ	-9.62417
▁ሓውና	-9.62426
▁ህይወቶም	-9.62468
▁ጥበበኛ	-9.62541
ዘር	-9.62785
በልዕ	-9.62786
▁ባህሪ	-9.6279
መርሓ	-9.62805
ርእያ	-9.62809
ፈለ	-9.62877
ራዊ	-9.62892
▁ኽንደይ	-9.62897
▁ሃበ	-9.62907
ዓልታዊ	-9.62932
▁ተረ	-9.63048
ኣብ	-9.63195
:30	-9.6332
▁ዚዀኑ	-9.63396
▁ዝዓበየ	-9.63431
▁ኸቢድ	-9.63443
▁መንበሪ	-9.63462
▁ንወዱ	-9.63488
ርእይዎ	-9.63514
▁ምሳና	-9.63742
▁ኸይት	-9.63751
▁ሓጺር	-9.63844
ጸር	-9.63891
ሺ	-9.63897
▁ኸምቲ	-9.64018
▁ሄ	-9.64051
ሾ	-9.64083
▁ኣሕሊፉ	-9.64084
▁ኣራዊት	-9.64086
▁ኣይኰኑን	-9.64087
▁ጽዮን	-9.6409
ወሰ	-9.64347
ወጽእ	-9.64433
▁ጾር	-9.64479
ሰት	-9.6452
▁ጊልዓድ	-9.64546
▁ህዝብን	-9.64659
ሃብ	-9.64721
▁ጻድቃን	-9.64729
▁ንሓድሕድኩም	-9.64729
▁ብሰይፊ	-9.64729
▁ርሑቕ	-9.64731
▁ምንዝርና	-9.64734
▁ዝነበራ	-9.64736
ኣክል	-9.64762
▁ኣቦኻ	-9.64896
▁ኣምላኸይ	-9.64916
▁አሎ	-9.64986
ኾ	-9.65118
ልክ	-9.65151
▁ደሃይ	-9.65162
▁ንዑ	-9.65189
▁ኣንስት	-9.65319
▁እተፈልየ	-9.65433
▁በይኑ	-9.6578
▁ኪገብር	-9.65832
▁ዕንጨይቲ	-9.65847
▁ናብራ	-9.65879
ርባ	-9.65886
▁ኣንበሳ	-9.66032
▁ግዝኣት	-9.66035
▁ንገ	-9.66195
▁ዝኸውን	-9.6628
▁እተመ	-9.66339
▁ሹም	-9.66383
▁ኣጸቢቕ	-9.66412
በና	-9.66419
▁ዝዓ	-9.6643
ፍል	-9.66438
ልእ	-9.66471
ደር	-9.66543
▁ኸተማታት	-9.66558
▁ውዳሰ	-9.6669
▁ንስድራ	-9.66693
▁ዜገልግሉ	-9.66712
ገዳ	-9.66945
▁ዚሕ	-9.67036
▁ዝበለጸ	-9.67098
ቴ	-9.67127
ላል	-9.67227
ፍትን	-9.67241
ሖም	-9.6729
▁ኣጸድ	-9.67358
▁ደሊኻ	-9.67369
ዋይ	-9.67485
ተመሳሳሊ	-9.67512
▁ጥበባዊ	-9.67516
▁ዘመ	-9.6757
▁ይገብሩ	-9.67693
▁ይሕግዘና	-9.67708
ሳብ	-9.67759
▁ሕሰብ	-9.67807
ብዎ	-9.67854
▁ብግቡእ	-9.68018
▁ዜሐጕስ	-9.68062
▁ኤር	-9.68062
▁ሰበ	-9.68076
▁መዳያ	-9.68085
ዓለ	-9.68166
▁ዘይፍጹማት	-9.682
ራር	-9.6821
▁ዘበሉ	-9.68385
▁ውሽጣዊ	-9.68473
▁ኣይፋል	-9.68529
ዝዀነ	-9.68623
ሕደ	-9.68651
ረሉ	-9.68686
▁ምው	-9.6878
ወል	-9.68811
▁ዝመጹ	-9.68869
▁ደገፍ	-9.68879
ቡራት	-9.6889
ውሃብ	-9.68969
▁ኣዕ	-9.68969
ረስ	-9.69051
▁ከለኹ	-9.69056
ብራ	-9.69074
▁ምስጢር	-9.6912
▁ዚብሎ	-9.69149
ገብ	-9.69162
ዕን	-9.69211
ቐት	-9.69234
ሮስ	-9.69309
▁ዶ	-9.69347
▁ፍርሃት	-9.69366
▁ኣሕሉቕ	-9.69366
▁ብምሃብ	-9.69409
▁መክ	-9.69421
▁4:8	-9.69442
▁ከይት	-9.69522
▁ንባብ	-9.69629
ማር	-9.69708
▁ሜ	-9.69726
▁ዀን	-9.69728
ጫ	-9.69828
ረግ	-9.69894
▁ተጠቒ	-9.69954
▁ዝኣመሰ	-9.69958
▁መተባብ	-9.70049
▁ስምኦን	-9.7005
▁ምባል	-9.70124
▁ዚቐርብ	-9.70298
መንግስቲ	-9.70425
ታይ	-9.70525
ጸግ	-9.70545
ኹል	-9.70663
!	-9.707
▁ርግጸኛ	-9.7073
▁ምርኣይ	-9.70733
▁ኣሶር	-9.70733
▁ኪብል	-9.70897
▁ኣይከ	-9.70912
ደረ	-9.71021
▁መሳ	-9.7117
ጥፍእ	-9.71257
ሞቱ	-9.71344
▁ብሩርን	-9.7138
▁ረድኤት	-9.7142
▁ጕዳያት	-9.71423
▁ተቐመጠ	-9.71425
ሰምዑ	-9.71529
ወድቕ	-9.71535
በን	-9.71614
እቱ	-9.71621
▁ዝጸ	-9.71641
▁ዝገብሮ	-9.71653
ፋሕ	-9.71685
▁እዚአን	-9.71694
▁ማሕ	-9.71806
▁ኣርእዩ	-9.71835
▁ንስ	-9.71908
▁ዝሃበና	-9.71935
▁ዝቐ	-9.72023
ምኽንያት	-9.72114
▁ምናሴ	-9.72115
ገብሩ	-9.72116
▁ንሓድሕድና	-9.72117
▁ኣዲኡ	-9.72123
▁ኢደይ	-9.722
▁ሰላምን	-9.72252
መጸ	-9.72315
▁ብስጋ	-9.72318
ርድኦ	-9.72415
ምጽእ	-9.72434
▁ጸላእ	-9.72464
▁ዚርከቡ	-9.72542
ነገ	-9.72686
▁ፈት	-9.72693
ቭ	-9.72814
▁ሕያዋይ	-9.72814
▁ዝገበርዎ	-9.72815
▁ጥቕስታት	-9.72823
▁ሳላ	-9.72826
▁ዮ	-9.7283
ዕዎ	-9.72868
▁ኣው	-9.729
▁ዝተረፉ	-9.72919
▁ኢልኩም	-9.72927
▁ዜድልየና	-9.73035
ሓር	-9.73115
▁ጽሑፋ	-9.73511
▁ተግሳጽ	-9.73518
▁ረብሓ	-9.7352
▁ሕብረት	-9.73524
▁በዓላት	-9.73524
▁ሓይሉ	-9.73533
ድም	-9.73583
▁ልብ	-9.73658
▁ኣለ	-9.73674
▁ዚሕግዘና	-9.73804
ክል	-9.73867
▁ስማዕ	-9.73923
▁መስዋእት	-9.74061
▁ጀ	-9.74146
▁ፍንፉን	-9.74228
▁ዩ	-9.74231
▁ኣመሓዳሪ	-9.74327
▁ነይርዎ	-9.74405
▁ዝናም	-9.74475
ኩን	-9.74514
▁ዲና	-9.74566
▁ገበሮ	-9.74649
ግበር	-9.74882
ጥን	-9.74888
▁ትምህርትታት	-9.74944
▁ምንባብ	-9.74947
▁ግበሩ	-9.74973
ኹምን	-9.75068
▁ብተወሳኺ	-9.75085
▁ዘርኣየ	-9.75117
▁ሂ	-9.75135
ኩምዎ	-9.75141
ሳን	-9.75207
▁ዝሃቦም	-9.7521
▁ዚው	-9.753
▁ብዜ	-9.75301
ጽሊ	-9.75382
▁ብንያም	-9.75663
ናዊ	-9.75701
ኣሉ	-9.7572
▁ዝመልኦ	-9.7579
▁ልደት	-9.75876
▁ይገልጽ	-9.7591
ስል	-9.75947
ደና	-9.75966
ሰር	-9.76057
ፈረ	-9.76132
▁ዚዛረብ	-9.76228
ህቡ	-9.76279
▁ክብ	-9.76325
▁ብሕታ	-9.76332
▁ደቡብ	-9.76387
▁ብቓል	-9.76414
ሰብኽ	-9.76442
▁ህይወትካ	-9.76495
▁ዝርዝር	-9.76571
ነብሩ	-9.7664
▁መርዓ	-9.76642
▁ዝነ	-9.76733
ላን	-9.76849
w	-9.771
▁መካበብያ	-9.77116
▁ተጻሒፉ	-9.77116
▁ዕቝባ	-9.77116
▁በጊዕ	-9.77116
▁ውልቀ	-9.77117
▁ነባሪ	-9.77117
▁ኽፍሊ	-9.77118
▁ቅድመይ	-9.77143
▁ሰማዕ	-9.77194
▁እስራኤልን	-9.77357
▁ተዛረበ	-9.77607
▁በለኒ	-9.77639
▁እተሰ	-9.7772
▁መዓ	-9.778
▁ንመን	-9.77804
▁ጀሚሩ	-9.77851
▁ወጺኡ	-9.77851
ምዎ	-9.77855
▁ንኸተ	-9.77876
▁ዘይክእል	-9.77892
▁እተዳለወ	-9.77899
▁ሓመድ	-9.77903
▁እናበሉ	-9.77929
▁ተፈ	-9.77996
▁ምዕ	-9.78012
▁ኪኸይድ	-9.78034
▁ንርእሱ	-9.78037
▁ከምዝ	-9.78074
▁ጭ	-9.78242
▁ከየ	-9.78296
▁ወደ	-9.7834
▁200	-9.7836
▁ንርእስና	-9.78594
▁ውድብ	-9.78601
▁ኣትዩ	-9.78611
▁ናትካ	-9.78632
▁ብምዃኑ	-9.78644
▁ኣብነታት	-9.78647
▁ንተ	-9.78657
▁ተራ	-9.78723
▁መሬት	-9.78857
▁ቛንቋ	-9.78915
▁ንዕ	-9.78921
▁ቈሎሴ	-9.79022
▁70	-9.79142
▁ድየ	-9.79164
▁ኣጋጣሚታት	-9.79185
ውጻእ	-9.79236
▁መር	-9.79281
▁ኣገልጋሊ	-9.79338
▁ነጥቢ	-9.79338
▁ፋሕ	-9.79342
▁ዞባ	-9.79343
▁ልኢኹ	-9.79351
▁እተባህለ	-9.79378
ሴ	-9.79417
▁ኣዝ	-9.79419
ህበካ	-9.79446
ዓይ	-9.79496
▁ዚህብ	-9.79532
▁ቤቶም	-9.79545
▁47	-9.79547
ነኽ	-9.79558
ች	-9.79588
▁ቤትካ	-9.79634
▁ኢዩ፡	-9.79694
ዝክር	-9.79748
ሎምን	-9.79808
▁ሚልዮ	-9.79855
ምልስ	-9.79924
▁ምዃነይ	-9.8009
ዳእ	-9.80103
▁ግብራዊ	-9.80121
▁ንዘይ	-9.80135
▁ኣየር	-9.80192
▁በለቶ	-9.80193
ዮሃ	-9.80222
ታውያን	-9.8027
▁ኪቕ	-9.80285
▁ዝፈ	-9.8031
ዳድ	-9.80358
▁ሕስ	-9.80359
▁ኣተ	-9.80464
▁ጌ	-9.8047
19	-9.80549
▁ይሰ	-9.80585
▁ሰዓ	-9.8063
ሓለ	-9.80635
▁ክልቲ	-9.80814
▁ብጸሎት	-9.80847
▁ፈተው	-9.80849
▁ኣጽዋር	-9.8085
▁ፈለግ	-9.8085
▁ዚግብኦ	-9.8089
ቐል	-9.8091
▁ብተ	-9.8095
▁ሃብቲ	-9.80956
ጃ	-9.80996
ድያ	-9.81016
▁ንሓዋሩ	-9.81124
▁60	-9.81127
▁ሓዉ	-9.81201
▁ኣዚ	-9.81213
ባን	-9.81288
▁ኣመና	-9.81363
▁ህዝ	-9.81369
:36	-9.81385
▁ርእስ	-9.81407
የሉ	-9.81444
ኰኑ	-9.81564
ዳን	-9.81603
▁ለውጢ	-9.81611
▁ሳጹን	-9.81612
▁ሰብኣያ	-9.81617
▁ምኽ	-9.81752
▁ገሊኣቶም	-9.81784
ዔ	-9.818
▁ድሮ	-9.81882
▁ቃ	-9.8202
እዛ	-9.8219
▁ገላትያ	-9.82197
▁ኣጋ	-9.82229
ገለ	-9.82242
ስካ	-9.82296
▁ዚስ	-9.82362
ራእይ	-9.82379
▁NW	-9.8238
▁መውስቦ	-9.8238
▁ቀሊል	-9.82381
▁ካባይ	-9.82392
ለና	-9.82456
▁እተቐ	-9.82482
▁ጋ	-9.82572
ሃበ	-9.82575
▁3:15	-9.82616
▁ኺድ	-9.82714
▁ኤልያስ	-9.8277
▁ኣዝማ	-9.82799
▁ጓ	-9.82905
ሳይ	-9.82956
ሓይ	-9.83015
▁ኣበሳ	-9.83039
በጥ	-9.83051
ጸላ	-9.83111
▁ህያዋን	-9.83155
▁ኣዳራሽ	-9.83155
▁መሳፍንቲ	-9.83155
▁ምዝራብ	-9.83155
▁ብሰላም	-9.83165
▁ሽግር	-9.83172
▁ናቱ	-9.83446
▁ካብኣ	-9.83537
ሉቃስ	-9.83586
▁100	-9.83629
▁ዝኸ	-9.83647
ምሳሌ	-9.83698
▁ምትብባዕ	-9.83936
▁ሳልሳይ	-9.83937
▁ኣስፋሕቲ	-9.83937
▁ፓ	-9.83999
▁51	-9.84038
▁ምግልጋል	-9.84042
ምሳ	-9.841
▁ዝበ	-9.84174
▁ጸዊዑ	-9.84197
▁ዚመስል	-9.84239
ረበ	-9.84328
▁ተዋ	-9.8442
▁ተመን	-9.84457
ህቦም	-9.84549
▁ቀጺ	-9.8459
ሞት	-9.84606
▁ሆ	-9.84639
▁ር	-9.84692
▁ህዝባዊ	-9.84724
▁ኣመሪካ	-9.84724
▁ስቓይ	-9.84725
▁ላዕለዋይ	-9.84725
▁ሒዞም	-9.84726
ደሪኹ	-9.8474
▁ኣቢ	-9.84764
▁መንደቕ	-9.84771
ሃንጽ	-9.84784
ሩን	-9.84838
▁ንኣቦኡ	-9.84845
▁ከብ	-9.84848
▁መገድ	-9.84869
ፍለጥ	-9.84964
▁ግዜና	-9.84984
ክርስትያናት	-9.85009
ሰረ	-9.85218
▁48	-9.85478
▁ዘለኹም	-9.85515
ፍቅሮ	-9.85518
ግበረሉ	-9.85525
▁ኣብያተ	-9.85543
▁ሸቶ	-9.8555
መላለሱ	-9.85564
▁መዝገብ	-9.8557
▁ጓና	-9.85633
ሓስ	-9.85746
▁ዝበሉ	-9.85749
▁ኣምጽኡ	-9.858
▁ወደይ	-9.85803
▁ኪብሃል	-9.85895
▁ሂብዎም	-9.85929
▁ኣባ	-9.85981
▁ስምዑ	-9.86133
ሕጊ	-9.86185
▁ኽብሪ	-9.86189
ጆ	-9.86317
▁ተቐሚጡ	-9.86317
▁ካባታቶም	-9.86317
ዓሉ	-9.86365
▁ምስክርነት	-9.86391
▁ዓስ	-9.86498
ተሉ	-9.86506
▁ምም	-9.86528
ልኪ	-9.86528
ብያ	-9.86549
▁ኪረኽቡ	-9.867
ድግ	-9.86733
ኽእል	-9.8688
▁ደበና	-9.86908
▁ኣመን	-9.8707
▁ኣድላዪ	-9.87124
▁ጭፍራ	-9.87124
▁ንኣብርሃም	-9.87124
▁ብምዃን	-9.87125
▁ምሳሕ	-9.87169
ለካ	-9.87177
▁ጽን	-9.8725
ቕመጥ	-9.87287
▁መላእ	-9.87311
ጽዕር	-9.87454
ንግ	-9.87529
መገዲ	-9.8759
▁ይደሊ	-9.87619
ፈርሁ	-9.87625
▁49	-9.87652
▁ዝሃበ	-9.87704
ርግ	-9.87893
▁ሰምዑ	-9.87894
ቛ	-9.87937
▁ተዛሪቡ	-9.87937
▁ዮናታን	-9.87937
ርሑ	-9.87952
▁ጥንታዊ	-9.87981
ይብለና	-9.87989
ፍረ	-9.88057
ስዕቡ	-9.88102
▁ኰ	-9.88123
▁ትሑት	-9.88192
▁ተዛረቦ	-9.8821
▁ሕጋ	-9.88328
▁ኣእምሮኻ	-9.88372
▁ሓሊፉ	-9.88432
▁ረኣዩ	-9.88471
▁55	-9.885
:35	-9.88513
ርእዮም	-9.88571
ርኣዮ	-9.88702
▁መጠንቀቕታ	-9.88757
▁ኣገዳስነት	-9.88757
▁ዀይና	-9.88757
▁ሰሜን	-9.88759
▁ኣሳ	-9.88937
ነቕ	-9.8909
ብሉ	-9.89197
ንቅ	-9.89305
▁ኣማ	-9.89371
ጋር	-9.89412
▁ወድ	-9.8951
▁ውጽኢት	-9.89583
▁ጸቕጢ	-9.89583
▁ብቓሉ	-9.89593
▁ዔ	-9.89608
ወስዱ	-9.89634
▁መለኸት	-9.89709
ዚኣቶም	-9.89768
▁ስምካ	-9.89786
ዕበ	-9.89838
▁ኪሕግዘና	-9.89838
▁ኣዒንቱ	-9.89906
▁ነበሮም	-9.89929
ትንስእ	-9.89965
▁ዚብሉ	-9.90006
▁ሰብኣዊ	-9.90009
ውሕ	-9.90014
ወዲ	-9.90015
▁ንደሊ	-9.90278
▁ዚርአ	-9.90369
▁ብትብዓት	-9.90416
▁ንምንታይ	-9.90418
▁ነገዳት	-9.90418
▁ዮኣብ	-9.90427
▁መስርሕ	-9.9043
▁ስጋዊ	-9.90441
▁ምር	-9.90458
▁ናተይ	-9.90504
▁ንወ	-9.90783
ስራሕ	-9.90819
▁ዜመልክ	-9.90849
▁ኣባይቲ	-9.90887
▁ምጽ	-9.90935
መጻ	-9.9099
▁መዓልትን	-9.91116
▁ንጴጥሮስ	-9.91257
▁እተላዕለ	-9.91257
ጸበ	-9.91347
ውል	-9.91367
▁ነቒ	-9.91396
▁ትምህር	-9.91424
▁ወሰደ	-9.91428
▁ሳራ	-9.91561
▁ጥበበኛታት	-9.91609
ብቲ	-9.91743
ክስ	-9.91754
ገበር	-9.91804
▁ተዛረቦም	-9.91889
ደልዩ	-9.91992
መልሰ	-9.9203
▁ቦኣዝ	-9.92104
▁ተሰሎንቄ	-9.92104
▁ሰማርያ	-9.92104
▁ጓኖት	-9.92104
▁ብዕራይ	-9.92112
▁ዝቐረበ	-9.92112
▁ምስጋና	-9.92148
▁ጫ	-9.92154
:1-3	-9.92162
▁ኣቢሎም	-9.92223
ድለ	-9.92294
▁ኢያ	-9.92348
▁2:4	-9.9243
ማል	-9.92509
▁ከይተ	-9.92785
▁ፍቓዱ	-9.92959
▁ድሌት	-9.9296
▁ንቓል	-9.9298
▁ዘዳግም	-9.93007
ጸሉ	-9.93038
ዓና	-9.93058
▁ጠቓ	-9.93071
▁መንጎኦም	-9.9312
▁ንረክብ	-9.9316
▁ሰረገላ	-9.93247
▁ከይዱ	-9.93347
ጂ	-9.93356
ሰል	-9.93366
▁ጥንሲ	-9.93399
ምጽኡ	-9.93434
ሆ	-9.93441
መጽሓፍ	-9.9346
▁6:9	-9.93554
ልዋ	-9.93745
ቪ	-9.93821
▁ብኣምላኽ	-9.93821
▁ዝራብዕ	-9.93821
▁መንእሰይ	-9.93821
▁ምንባሩ	-9.93821
▁ኣይንኽእልን	-9.93823
ፍጽሞ	-9.93824
▁ሲቃል	-9.93825
በዝሕ	-9.93833
▁ሓጺን	-9.93835
▁ግርማ	-9.93848
▁ተምሃሮ	-9.93911
▁ንያእቆብ	-9.94013
▁5:3	-9.94092
ገብራ	-9.94126
ድና	-9.94342
▁ደይኰነን	-9.94347
ተኵር	-9.94498
▁ብብ	-9.94559
ጒ	-9.94682
▁ቅቡኣት	-9.94691
▁ኣዕዋፍ	-9.94691
▁ኤሳው	-9.94691
ዝያ	-9.947
ግዛእ	-9.94709
▁ከነኣን	-9.94752
▁እትገብሮ	-9.94788
▁ኽገብር	-9.94893
ደልን	-9.9491
▁ኢን	-9.94974
▁ነበርኩ	-9.94989
▁ይመጽእ	-9.95026
ቃል	-9.95033
▁ቅዱሳ	-9.9505
▁ክገብር	-9.95067
ምህሮም	-9.95165
ሔ	-9.95224
ምጻእ	-9.95441
▁ንጐይታ	-9.95444
ተደጋጋ	-9.95568
▁ጥሜት	-9.95568
▁ሓደገኛ	-9.95574
▁ዓሚቝ	-9.95578
▁ዜጠቓልል	-9.95607
▁ተጠቒሙ	-9.95665
▁ደረት	-9.95675
▁ኣቕ	-9.95815
▁ኪመጽእ	-9.95836
▁ግብር	-9.95964
ሕግዝ	-9.96033
▁መሰ	-9.96053
▁ሓንሳእ	-9.96174
መይ	-9.96221
ዕብ	-9.96268
ውስን	-9.96297
▁ጸባ	-9.96369
ፈሉ	-9.96448
ቚ	-9.96453
▁እምብዛ	-9.96453
▁ጀጋኑ	-9.96453
▁ርእይቶ	-9.96453
▁ጭንቂ	-9.96457
ፍዎ	-9.96461
▁እዮ	-9.96485
▁ህዝብኻ	-9.96523
▁ትካል	-9.9658
▁ኪሰ	-9.96594
▁ንምስ	-9.96596
▁ሞቱ	-9.96723
▁ጓሳ	-9.96766
▁ኪብሉ	-9.96793
▁ቃሉ	-9.96859
▁ንኸይ	-9.96911
ስታ	-9.96972
▁ዚርእዮ	-9.96975
▁ጸሊ	-9.9703
▁ወፈያ	-9.97206
ለሰ	-9.9726
ዓም	-9.97275
▁ኣሎኒ	-9.9733
▁ግሪኽ	-9.97336
ቫ	-9.97345
ገልጾ	-9.97346
▁ደየበ	-9.97346
▁ፍሉጥ	-9.97347
▁ኻባታቶም	-9.97356
▁ደሓር	-9.97409
▁ሰቡ	-9.97425
እዎ	-9.97447
▁ሻው	-9.97475
ሱን	-9.97535
▁ኽንረክብ	-9.97865
ሰሉ	-9.97908
ምራሕ	-9.97908
▁ድኹም	-9.97936
▁እንዳ	-9.98022
▁ዘክር	-9.98091
ፋን	-9.98155
▁ብክርስቶስ	-9.98246
▁ተኣማንነት	-9.98246
▁ፋስጋ	-9.98246
▁ኣይትረስዕ	-9.98246
▁ጀመሩ	-9.98246
▁ሓይልን	-9.98247
-21	-9.98249
እዘዞ	-9.9825
▁እግሪ	-9.98251
ወይ	-9.98325
▁ልሙድ	-9.98335
ናውያን	-9.98375
ገላ	-9.98433
▁ክትረክብ	-9.9846
ብለካ	-9.98584
ሕግዞም	-9.98669
እመን	-9.98847
▁ሓጢኣትን	-9.98875
ላም	-9.98977
▁ቝ	-9.99004
▁ጕድጓድ	-9.99156
▁ጽሒፉ	-9.99156
▁ሓጥኣን	-9.99156
▁ፈቃር	-9.99156
▁ኪኸዱ	-9.99162
▁ከከም	-9.99166
ርኪ	-9.99171
20	-9.99173
▁ዕጣን	-9.99179
▁3:1	-9.99185
▁እትኸውን	-9.99248
▁ኣገልገልቱ	-9.99271
▁ዝወጸ	-9.99292
▁ዕዳ	-9.99764
▁ምእንታ	-9.99778
▁ቁ	-9.99806
▁ስዒ	-9.99857
ማቴ	-9.99956
▁ሕግ	-10.0003
▁ትእዛዛቱ	-10.0007
▁ሰበይትን	-10.0007
▁ቀይሕ	-10.0007
▁መራሒ	-10.0007
▁ኣይኰነትን	-10.0009
▁ድራር	-10.0013
▁እናበለ	-10.0014
▁እንገብር	-10.0016
▁የድልየና	-10.0025
▁ጊልያኻ	-10.0026
ራእ	-10.003
ሕግዘና	-10.0034
በሮ	-10.0037
ክዎም	-10.0039
ርዳእ	-10.0046
▁ጊልያ	-10.0047
▁እፈልጥ	-10.0058
ኬ	-10.006
ጅምር	-10.0068
▁ምግ	-10.007
▁ፊልጲ	-10.0072
ሽን	-10.0073
ትካ	-10.0079
ጥሪ	-10.008
መጽእ	-10.0083
▁ኣጽ	-10.0093
▁ለውሃት	-10.01
▁ሙዚቃ	-10.01
▁ጃልባ	-10.01
▁ኰይና	-10.01
▁መግቢ	-10.01
▁ርኽሰት	-10.01
▁ልባዊ	-10.0104
▁ምርምር	-10.0112
በልዖ	-10.0113
▁ዜገልግል	-10.0114
▁ተጠንቂቕ	-10.0116
ዳሎ	-10.0121
▁ኣዒንትኻ	-10.0123
▁ኻብኡ	-10.0133
▁ሓልዮት	-10.0148
▁ዓሻ	-10.015
▁ምስኣ	-10.0166
▁ተገ	-10.0168
ራውያን	-10.0174
ፍቅር	-10.0178
▁ኺብል	-10.0187
ዀን	-10.0189
▁ብምንባሩ	-10.0193
▁ኰይነ	-10.0193
▁ጓሶት	-10.0193
▁ኸባቢ	-10.0193
▁መጻሕፍ	-10.0194
እከብ	-10.0194
ጸንዕ	-10.0199
▁ኴን	-10.0201
ውቲ	-10.0205
▁ተባሂላ	-10.0205
▁ክንረክብ	-10.0207
ሃቦ	-10.0207
ነሉ	-10.0213
▁ጸጕ	-10.0219
▁ተዛረብ	-10.0223
ብርሃ	-10.0225
ከዱ	-10.0238
እብ	-10.0241
ናዳ	-10.0243
▁ነርኢ	-10.0255
ጳ	-10.0267
ዚምልከት	-10.0268
▁መንግስተ	-10.0269
ዳግም	-10.0274
ረቕ	-10.028
17.0	-10.0288
ቲኦክራስያ	-10.0288
▁ንደቆም	-10.0288
▁ጸላኢ	-10.0288
▁ብቑዕ	-10.0288
▁ዝዀንኩ	-10.0292
▁እትቕጽል	-10.0294
▁ንግ	-10.0296
▁እተወልደ	-10.0302
▁ሓዲ	-10.0315
▁ቕዱሳት	-10.0315
▁ገላዉኡ	-10.0316
▁ንኼ	-10.0316
▁ዚደልዮ	-10.0323
▁ሰዓብ	-10.0328
ሞን	-10.033
▁ዘሌ	-10.0332
▁የለን	-10.0336
መራ	-10.034
▁እዚኣተን	-10.034
▁ኣባል	-10.0342
በብ	-10.0346
▁ስመይ	-10.0353
▁ንኸውን	-10.0354
ዳይ	-10.0355
ረጽ	-10.0359
ሸይ	-10.0377
▁ተጻረር	-10.0378
▁ዓሞናውያን	-10.0383
▁ዓለምለኻዊ	-10.0383
▁ብትሕትና	-10.0383
▁ባህርይ	-10.0383
▁ለኣኸ	-10.0383
▁ሬሳ	-10.0383
▁ቃንዛ	-10.0384
▁ሕጻን	-10.0384
▁ጽድቅ	-10.0386
▁ንኣሮን	-10.0386
▁ፍር	-10.0391
ቀት	-10.0393
▁ክልቲኦም	-10.0396
▁ሓቅታት	-10.0398
▁ንኣሽቱ	-10.0398
▁ሓላዊ	-10.0401
▁ተበ	-10.0404
▁ኺመጽእ	-10.0405
ኣምኑ	-10.0408
▁ሊቃውን	-10.0411
ኣትዉ	-10.0424
▁ጻ	-10.0431
▁ወከ	-10.0435
ጸልእ	-10.0445
ማዊ	-10.0447
ተት	-10.0456
ለት	-10.0459
▁ዳር	-10.0462
ገብሮ	-10.0463
▁ጾ	-10.0468
▁ሰብነት	-10.0468
ሓይሊ	-10.0474
▁ሕደ	-10.0478
▁ጥዑይ	-10.0479
▁ዝነበርኩ	-10.0479
▁ሓዲጎም	-10.0479
▁የብሎምን	-10.0481
ሳተፍ	-10.0484
ክዋ	-10.0494
▁ግለጽ	-10.0495
▁ኔርና	-10.0503
▁2:9	-10.0506
ባል	-10.0511
▁119	-10.0513
▁ብጾትና	-10.0516
▁ኻብዚ	-10.0534
▁ዚርእይዎ	-10.0536
መስል	-10.0539
ግለጽ	-10.054
ርጋ	-10.0541
▁ተነ	-10.0565
ርቲ	-10.0572
t	-10.0576
▁ቐዳመይ	-10.0576
▁ኣጸጋሚ	-10.0576
▁ዘይኰይኑ	-10.0576
▁ጕድኣት	-10.0576
ፍጽሙ	-10.0577
▁ሓዲጉ	-10.0579
▁ዘጋጠመ	-10.058
ሰምዕዎ	-10.0584
ስዕቦ	-10.0587
▁ዝዀንና	-10.0588
12	-10.059
ምርምር	-10.0594
ውዕሎ	-10.0597
▁ህዝቅኤል	-10.0598
ቕርብ	-10.06
▁ፈተናታት	-10.0611
ጠቅም	-10.0623
▁ኸየ	-10.0629
ዝን	-10.063
ካስ	-10.0642
▁ናብዚ	-10.0646
▁ማዕረ	-10.065
▁እተዛረበ	-10.0656
▁ይሓ	-10.0664
ፖ	-10.0664
ዝክሮ	-10.0665
▁ሕተት	-10.0674
▁እተመስረተ	-10.0674
▁የሮብዓም	-10.0674
▁የማነይ	-10.0674
▁ገምገም	-10.0674
▁ሞይቱ	-10.0674
▁ዝለዓለ	-10.0674
▁ዚከኣል	-10.0674
▁ማርያም	-10.0674
▁ኤርትራ	-10.0676
▁ማሕበር	-10.0677
▁ኣፍራስ	-10.068
▁መርበብ	-10.0683
▁ነቡካድነጻር	-10.0686
ድርኸና	-10.0686
▁ተኣምራት	-10.0704
▁ንቕ	-10.0711
▁3:5	-10.0711
ጋገ	-10.0717
ልዓል	-10.0717
▁54	-10.0719
▁2:3	-10.0732
ሰማማዕ	-10.0736
ወርድ	-10.0752
▁ዚፈልጥ	-10.0753
▁ብቐጥታ	-10.0773
▁ኮሚተ	-10.0773
▁ወሲዶም	-10.0773
▁በፍታ	-10.0773
▁ኣዕሩኽ	-10.0773
▁ዝሞተ	-10.0774
▁ብቕ	-10.0777
ዜ	-10.0787
▁ተደ	-10.0788
▁ሓቅ	-10.0789
በሎም	-10.079
ደት	-10.0794
▁ማል	-10.0803
▁ኣጸቢ	-10.0807
መነ	-10.0811
▁ኣይሓ	-10.0811
▁ኪነብሩ	-10.0812
▁ብዕ	-10.0816
ቀር	-10.0824
▁ሲና	-10.0844
▁ኣደይ	-10.0852
ሕል	-10.0868
ሕታም	-10.0869
▁ምስሊ	-10.087
▁ሊ	-10.087
▁5:14	-10.0871
▁ኣምላኾም	-10.0873
▁ዕርክነት	-10.0873
▁ይፈልጡ	-10.0873
▁ሳልሰይ	-10.0873
▁ንጽብሒ	-10.0873
▁ዝዀንካ	-10.0873
▁ተባዕታይ	-10.0873
▁ማዕጾ	-10.0874
▁ይህብ	-10.0876
ኸቶ	-10.0882
▁ኩኑ	-10.0883
▁ኣዒንተይ	-10.0883
ውያንን	-10.0884
ንብር	-10.0887
▁ንብዙሓት	-10.0893
▁ተገዳስነት	-10.0896
▁ዓቢ	-10.0897
▁ሳሙ	-10.0901
ሓድግ	-10.0902
ቐርብ	-10.0923
▁ዝርከብ	-10.0924
▁ቢ	-10.0933
ነን	-10.095
ልዒ	-10.0955
ንጸባርቕ	-10.096
ፓ	-10.0966
▁ብዘ	-10.0968
ሳሙ	-10.0968
▁ዛ	-10.0973
16.1	-10.0974
▁መዓሙቝ	-10.0974
▁ሓያላት	-10.0974
▁ብልክዕ	-10.0974
▁ምስትውዓል	-10.0974
▁ንድ	-10.0974
▁ብጾቱ	-10.0975
▁እነፍቅሮ	-10.0977
▁ደቆም	-10.0977
▁ምርዳእ	-10.0986
▁ፈለምቲ	-10.099
▁ዘይኰኑ	-10.0994
▁ክኸይድ	-10.0997
ኤልን	-10.0998
▁እኽእል	-10.0999
ህባ	-10.1006
0,000	-10.1009
ብሮ	-10.101
▁ግብጻውያን	-10.1012
▁ፍቕራዊ	-10.1015
ኑን	-10.1015
▁ብፍ	-10.1019
▁እብራይስጢ	-10.1021
ገበ	-10.1027
▁ቤተይ	-10.1044
ሐጕሶ	-10.1055
▁መስጐጕቲ	-10.1076
▁ንሓጢኣት	-10.1076
▁ጣኦት	-10.1076
▁ምርካብ	-10.1076
▁ኣምለኽቲ	-10.1076
▁እምንቶ	-10.1076
▁ምዉት	-10.1076
▁ብምሉኡ	-10.1077
▁ዓለባ	-10.1077
ስታት	-10.1077
▁ስልጠና	-10.1078
▁ለይትን	-10.1078
▁ጽባሕ	-10.1078
▁ውሰድ	-10.1078
▁ከለዉ	-10.1082
▁ጻዕዳ	-10.1083
ኽልተ	-10.1084
ቤት	-10.109
ራም	-10.1112
▁ገዛኢ	-10.1113
ሰና	-10.113
▁ክንርኢ	-10.1133
ገልጽ	-10.1146
ጠፍኡ	-10.1152
▁በየ	-10.1157
▁መሰናድዎ	-10.116
▁ኣፉ	-10.116
ነግረና	-10.116
▁ባዕ	-10.1172
▁ተንስእ	-10.1173
ህይወቱ	-10.1177
ዘፍጥረት	-10.1177
እተፈላለየ	-10.1177
▁ዝርርብ	-10.1179
▁ምንባር	-10.118
▁ካባኻትኩም	-10.118
▁እትገብር	-10.118
▁ባሕር	-10.1181
▁ብለይቲ	-10.1183
▁ከንቱ	-10.1184
ራስ	-10.1184
ርሓቕ	-10.1186
▁ኤል	-10.1192
▁ብብዙሕ	-10.1199
▁ትደሊ	-10.1199
▁ከይዶም	-10.12
ፈላለ	-10.1204
▁ብምስ	-10.1208
▁ነበርና	-10.1219
መርጽ	-10.122
እዘዝ	-10.1222
▁ብሸ	-10.1224
▁ውሒ	-10.1234
▁ምፍላጥ	-10.1235
▁ሓውካ	-10.1237
▁6:4	-10.1262
▁ንፍ	-10.1281
ውሕዝ	-10.1283
▁ቀቅድሚ	-10.1284
▁1990	-10.1284
▁ኣሽሓት	-10.1284
ጽዋዕ	-10.1285
▁ሰሚዑ	-10.1286
▁ንቕሑ	-10.1287
▁ጠቒ	-10.1288
▁ንገብር	-10.1288
ኣንጻሩ	-10.1293
ብድ	-10.1294
▁53	-10.1299
ውሰድ	-10.1304
▁ኣዝየ	-10.1305
ጸብ	-10.1306
▁በተን	-10.1314
▁ሓጢ	-10.133
ዎምን	-10.1332
▁ዮሳፋጥ	-10.1334
▁አረ	-10.1337
ስምዓና	-10.1346
▁ሕነ	-10.1346
ጽሕፍ	-10.1351
ፈሪ	-10.136
ጠል	-10.1362
▁ቆ	-10.1369
ሃድ	-10.1379
▁መቓ	-10.1384
▁ልምድታት	-10.1389
▁ብጐይታ	-10.1389
▁ንነዊሕ	-10.1389
▁ክዳውንቲ	-10.1389
▁ንጹሃት	-10.1389
▁ኣከኣብ	-10.1389
▁ጥልያን	-10.1389
▁ኽንከውን	-10.139
▁ምድራዊ	-10.139
"	-10.1391
▁ስሕተት	-10.1391
▁ተኣከቡ	-10.1392
ሕዙ	-10.1394
▁3:13	-10.1399
▁ልብኹም	-10.1402
▁ኻባኻ	-10.1402
ለኒ	-10.1411
▁ማሕበራዊ	-10.1413
▁ዓሰርተው	-10.1419
▁ይኸይድ	-10.1422
ጋዊ	-10.1422
▁ዚኸይድ	-10.1424
ዳር	-10.1433
እተወሰነ	-10.1438
ረኒ	-10.1444
▁ኢልዎ	-10.1448
▁ወከፍና	-10.146
ዛረቡ	-10.1483
▁ልማኖ	-10.1495
▁ብሃንደበት	-10.1495
▁ኣይክእሉን	-10.1495
▁ኪሕግዘካ	-10.1495
▁በጽሐ	-10.1495
▁ሂወት	-10.1495
▁ንደቁ	-10.1495
▁ብጥበብ	-10.1496
ህልዎ	-10.1496
▁ኣተዉ	-10.1498
▁ጥሪት	-10.1499
▁ኣዘውቲር	-10.1499
ዋስ	-10.1505
ሓቂ	-10.1506
ስተንትን	-10.151
ፈርድ	-10.1512
ፈን	-10.1519
▁5:19	-10.152
▁ዚደልየ	-10.1521
ደልዮ	-10.1527
▁ሃቡ	-10.1537
ኣዲ	-10.154
▁52	-10.1553
▁ርእሰይ	-10.1557
▁ዓወት	-10.1564
ህልወካ	-10.1567
ብሪ	-10.1575
ምለሱ	-10.1577
መልእ	-10.1578
ብቦ	-10.1582
ልዮ	-10.1596
ባሕ	-10.1596
ኸውን	-10.1603
▁ንሰበይቱ	-10.1603
▁ኣቤሴሎም	-10.1603
▁ፈጣሪ	-10.1603
▁ሰፈሩ	-10.1603
▁ምሕሳብ	-10.1604
▁ሰሪ	-10.1605
▁ሶዶም	-10.1605
▁ባይታ	-10.1605
▁ንዓለም	-10.1606
ሄ	-10.1606
ሰዓብቱ	-10.1608
ድይብ	-10.1609
▁ምስማዕ	-10.1611
ደገ	-10.1611
▁ክኢላታት	-10.1613
▁ንስም	-10.1627
▁ወረዳ	-10.1629
▁ጽኑዕ	-10.163
▁4:6	-10.1635
▁ይርከብ	-10.1664
ካዮም	-10.1665
▁ዝጥቀመሉ	-10.1671
▁ስድራቤት	-10.1675
▁ነይርዎም	-10.1684
▁ቀልጢ	-10.1689
▁ኣሰ	-10.1692
▁ዜርእዮ	-10.1693
▁2:2	-10.1696
▁ኪሕ	-10.1701
ትኹም	-10.1701
▁ደገታት	-10.1706
▁ሶርያ	-10.1709
▁ዑቕባ	-10.1711
▁ኣይነበሮ	-10.1711
▁ይሓይሽ	-10.1711
▁ወጹ	-10.1711
▁ጕዕዞ	-10.1712
▁ተቐባል	-10.1713
▁ሓላው	-10.1713
▁ስደተኛታት	-10.1715
▁ኣእጋር	-10.1715
▁ብኣይ	-10.1719
▁ንሓዉ	-10.172
▁ዓድ	-10.1721
ውግእ	-10.1723
▁ተዋጋእ	-10.1726
▁ድኻ	-10.1737
▁ሓሊ	-10.174
ደላ	-10.1744
▁ይግ	-10.1745
▁ልማድ	-10.1762
ሓፍ	-10.1774
-11	-10.1778
ረና	-10.1782
▁ንዅለን	-10.1783
▁ጐይታኡ	-10.1793
ቶን	-10.1809
▁ተወፋይነት	-10.1821
▁ተዋሂቡ	-10.1821
▁ንኣእምሮ	-10.1821
▁ዘተስፈዎ	-10.1821
▁ምዕራብ	-10.1821
ኣምላኹ	-10.1821
▁ኣይኮነን	-10.1821
▁ናብኣ	-10.1822
ተቐመጡ	-10.1822
▁በረኽ	-10.1822
▁ሕሉፍ	-10.1822
ምህሩ	-10.1823
▁ርእስኹም	-10.183
▁እትነብር	-10.1831
▁ብሓፈሻ	-10.1843
▁ጲላጦስ	-10.1849
ግፍ	-10.1849
▁መዓር	-10.1858
▁ይደልዩ	-10.1867
▁ኸይዱ	-10.1868
00	-10.1876
▁ሂብዎ	-10.1876
▁ዜድልዮ	-10.1877
ምህረ	-10.1878
▁ኣወዳት	-10.188
:38	-10.1888
ጕል	-10.1907
ጸንሕ	-10.1909
▁ነገ	-10.1919
▁መደምደምታ	-10.1932
▁ኣልኣዛር	-10.1932
▁ኣእዳዉ	-10.1932
▁ከይጸንሐ	-10.1932
▁ፍልልይ	-10.1932
▁ኣመንዝራ	-10.1932
▁ኣወንታዊ	-10.1932
▁ጥምቀት	-10.1932
▁ሓቢሮም	-10.1932
▁ፍጡር	-10.1932
ሳተፉ	-10.1932
ሓሉ	-10.1932
▁ፈላሚ	-10.1933
ቐውም	-10.1934
ጭነቕ	-10.1934
▁ብማይ	-10.1935
▁ኣንጊ	-10.1939
▁ሹ	-10.194
ፈቕ	-10.1943
ኢሳይያስ	-10.1947
▁ፍጡራት	-10.1948
ጸንሑ	-10.1951
▁ንዘለዉ	-10.1955
▁ቀስ	-10.1962
ርእስ	-10.1969
ምዝ	-10.1971
ፈጥር	-10.1974
▁2:7	-10.1975
▁ጽም	-10.1977
ልዉ	-10.1978
▁ተመልሱ	-10.1989
ነቐ	-10.1991
▁ዘጸኣት	-10.1993
▁ዚወጽእ	-10.1997
▁ዚተሓሓዝ	-10.2002
በቶም	-10.2006
ተመልክት	-10.2014
▁ዝሓሸ	-10.2017
ታተይ	-10.2022
ውጽኦ	-10.2032
ግል	-10.2032
▁ገይርዎ	-10.2033
▁ቤታት	-10.2042
▁ሕብረተሰብ	-10.2045
▁ሰፊሕ	-10.2045
▁ኽዳውን	-10.2045
▁ምድረ	-10.2045
▁ረኸበ	-10.2045
▁ሓኪም	-10.2046
▁ፍልይ	-10.2046
▁ኣኽቢሩ	-10.2052
▁ምጥቃም	-10.2058
▁ቴ	-10.2062
ኩኹም	-10.2063
ሳእ	-10.2067
▁ኣልዩ	-10.2069
ሳስ	-10.207
ሓድጎ	-10.2077
ግብሪ	-10.2083
ተንስኦ	-10.2096
ሆም	-10.21
▁ነገሮም	-10.2102
ግዱ	-10.2102
ያዊ	-10.2108
ኣስ	-10.212
▁ኣሕዋተ	-10.212
▁ኣይኬ	-10.2121
ንበር	-10.2124
ተይን	-10.2132
▁ሽማግለ	-10.2135
ገስ	-10.214
ልዕል	-10.2147
▁ኣምጽኣ	-10.2152
▁ቋንቋታት	-10.2153
▁ንዜ	-10.2153
▁ኣይኰንኩን	-10.2158
▁ልኡኻት	-10.2158
▁ዚህበና	-10.2158
▁ዓሌታት	-10.2158
▁ፈለጠ	-10.2159
▁ብኢድ	-10.2159
▁ሰደደ	-10.216
ጠብ	-10.2162
▁ደይ	-10.2165
▁ጠሪ	-10.2166
▁ውጹ	-10.217
▁ወሰ	-10.2171
▁የሎን	-10.2173
▁24:14	-10.2174
▁ክብርን	-10.2176
▁ይድ	-10.2181
ጥምት	-10.22
መልሶ	-10.2205
ኸይድ	-10.2213
▁ካህናትን	-10.2218
▁ረኺበ	-10.2221
▁ነገሮ	-10.2226
▁ርኣዩ	-10.2235
▁ኣለካ	-10.2263
▁ጊ	-10.2267
▁ንኣህዛብ	-10.2273
▁ተባዕትዮ	-10.2273
▁ብሓጐስ	-10.2273
▁ዕግበት	-10.2273
▁ጸሓፊ	-10.2273
▁ልቦና	-10.2273
▁ምንታይ	-10.2274
▁ብዘመን	-10.2275
a	-10.2275
▁ሔ	-10.2276
▁ሓርጭ	-10.2276
▁ባርነት	-10.2277
ፋእ	-10.2281
▁ኣሓትን	-10.2288
▁ዜምጽእ	-10.2289
ለው	-10.2289
▁ዜጋጥመ	-10.229
▁እትብሃል	-10.2294
ፌ	-10.2294
ሰርሑ	-10.2298
በልካ	-10.2302
▁በዛ	-10.2306
▁ዝገልጽ	-10.2309
ድራኸ	-10.2311
▁1:7	-10.2313
▁ግዲ	-10.2314
▁ኣባይ	-10.2317
▁ዝገብር	-10.2336
▁ንዓኣ	-10.2337
መለስ	-10.235
ፍታሕ	-10.2356
▁ዝነበረሉ	-10.2357
▁ተሸ	-10.2367
ድዮም	-10.2375
▁ንኣቦ	-10.2388
▁ሓጢኣትና	-10.2389
▁ትጽቢት	-10.239
▁ንውሉድ	-10.239
▁ግዴታ	-10.239
▁ቀሪቡ	-10.239
▁ኣልዒሉ	-10.239
▁ሳዕቤን	-10.239
▁ስፍራ	-10.239
▁ላባን	-10.239
ገዝኡ	-10.2391
▁ኣይፈልጥን	-10.2391
▁ረኣዮ	-10.2391
▁4:7	-10.2393
▁ንዘሎ	-10.24
▁ኣቕሓ	-10.2401
▁ቤታ	-10.2401
▁ሓጥእ	-10.2402
ኽብሩ	-10.2405
▁ኺህልወና	-10.2411
ሎን	-10.2412
▁ይሕብር	-10.2415
እብራውያን	-10.2415
▁ንርእሶም	-10.2416
▁ኸለኻ	-10.2423
▁መንግስቱ	-10.2424
▁ደልዩ	-10.2438
▁ወረደ	-10.2439
▁?	-10.2445
▁ባህርያ	-10.2462
▁ብዓ	-10.2465
▁ብምሳሌ	-10.2466
▁65	-10.2471
▁ኣብራም	-10.2483
▁ኣባና	-10.2485
ዛዝ	-10.2487
ስግር	-10.2488
ህልወና	-10.2489
ፋት	-10.2489
ኽንምርምር	-10.2497
▁4:13	-10.2499
ሕለ	-10.2506
▁ራሄል	-10.2507
▁ርእሳ	-10.2507
▁ብምርኣይ	-10.2507
▁ትንቢታት	-10.2507
▁ክርስትና	-10.2507
▁ተራእዩ	-10.2507
▁ኸይኰነ	-10.2507
▁ምድላው	-10.2507
▁ምትእምማን	-10.2508
▁መርመራ	-10.2508
▁በዓ	-10.2509
▁ሓለፍ	-10.2509
▁ሮ	-10.2509
▁እተጠቕሰ	-10.2511
▁ከውሒ	-10.2515
▁እዝን	-10.2516
▁3:19	-10.2537
▁6:10	-10.2537
ኽዎ	-10.2542
▁ኣቦኹም	-10.2548
ኽእሎ	-10.255
▁እቲአን	-10.2566
▁4:4	-10.2567
▁ጓሂ	-10.2572
▁ትርኢት	-10.2576
▁ሴ	-10.2578
ካል	-10.2578
▁ዝመልአ	-10.2579
▁ኸይተ	-10.258
▁ንኸነ	-10.2582
ትሉ	-10.2583
ሰብኩ	-10.2583
▁ርኢና	-10.2584
ርፊ	-10.2588
ሃር	-10.2588
▁ብዘይም	-10.2592
▁ፈረ	-10.2594
▁ብድሆ	-10.261
▁ኪነግ	-10.262
▁ንደቅሰብ	-10.2626
▁ኣዘራርባ	-10.2626
▁ከለዳውያን	-10.2626
▁ያሪኮ	-10.2626
▁ናእሚ	-10.2626
▁ንምዃን	-10.2626
ተመዝገቡ	-10.2627
▁ዓበይት	-10.2627
ሳቐ	-10.2627
ዘርእ	-10.2628
▁ኵላትኩም	-10.2629
▁ንምሃብ	-10.2632
▁እንረክብ	-10.264
ይዎም	-10.265
ኽሪ	-10.2655
▁ሓር	-10.2663
▁ኣረ	-10.2666
▁ኣኽ	-10.2667
▁1:8	-10.2676
ታቱን	-10.2679
ብላዕ	-10.2685
ገቡ	-10.2686
ነግሮም	-10.2718
ምስክር	-10.2721
▁እምነትና	-10.2721
▁ኻባ	-10.2726
▁ፍጻመ	-10.273
ጭን	-10.2731
ዌ	-10.2735
▁ሸሞንተ	-10.2747
▁ራዕራዕ	-10.2747
▁ዚከኣለ	-10.2747
▁ኣገልግሎቱ	-10.2747
▁ኽነሱ	-10.2747
▁ቝጥዓ	-10.2747
ተፈላለዩ	-10.2749
▁መንጎኹም	-10.2754
የድልዮም	-10.2755
▁ምልክታት	-10.276
ህበሉ	-10.276
▁ቤትና	-10.2762
▁ኽትረክብ	-10.2769
▁ኣኽቢር	-10.2783
ኛታት	-10.2785
▁ብኽ	-10.279
▁ኣብሎ	-10.2791
▁ጣኦታት	-10.2791
▁እተሓ	-10.2797
▁ግበርዎ	-10.2802
▁ተሳ	-10.281
ተርፍ	-10.2815
ርኩ	-10.2818
▁ገጽካ	-10.2832
ፋይ	-10.2839
▁ፈተነ	-10.2846
ሰባት	-10.2847
▁4:11	-10.285
▁ዚፍ	-10.2858
ኲ	-10.2868
መርሖም	-10.2868
ውዕ	-10.2869
▁ሴኬም	-10.2869
▁ኣካይዳ	-10.2869
▁ዝለኣኸ	-10.2869
▁ኪፈልጡ	-10.2869
▁ብፍታው	-10.2869
▁ወሪዱ	-10.2869
▁መበለት	-10.2869
▁ንብረት	-10.2873
▁ኣቢልካ	-10.2874
▁ኣስተ	-10.2882
ጣን	-10.2886
▁ህይወተይ	-10.289
ጻውዒ	-10.289
ሕልዎ	-10.2895
የና	-10.2899
▁3:9	-10.29
▁5:12	-10.2905
▁ዚፍጸም	-10.2905
ፋር	-10.2906
▁ይመስል	-10.2914
▁ብግብሪ	-10.2925
▁ኬጋጥመ	-10.2926
▁ኸለኹም	-10.2927
ኽብሪ	-10.2947
▁ኣለው	-10.2952
▁ጥር	-10.2954
እቲ	-10.2955
▁ፈሪ	-10.2956
▁ተቐቢ	-10.2964
▁5:1	-10.2968
▁ጉ	-10.2972
ጽግ	-10.299
▁ሻምብቆ	-10.2992
▁ብጽቡቕ	-10.2992
▁ንጳውሎስ	-10.2992
▁ኣእጋሩ	-10.2992
▁ጽዋእ	-10.2992
መስዋእታዊ	-10.2992
ልሄም	-10.2992
በዝሑ	-10.2993
ጠፍአ	-10.2993
▁ብጸጋ	-10.2993
▁ግሪኽኛ	-10.2994
▁ቕድስ	-10.2994
▁መደብ	-10.2994
▁ተኣኪቦም	-10.2995
▁ረኺቡ	-10.2998
▁ኣቦታቶም	-10.3001
ንደሊ	-10.3004
▁ዘለኣለማዊ	-10.3006
ጻወር	-10.301
ፈጥ	-10.3011
▁ደሙ	-10.3015
ሕልፍ	-10.3016
ቀጥ	-10.3025
▁መንፈሳውያን	-10.3029
ፒ	-10.3031
ሕጸ	-10.3033
እያሱ	-10.3035
ረኣዩ	-10.3036
ሓንሳእ	-10.3036
▁ግዜያት	-10.304
▁ዚኣምኑ	-10.3041
▁2:16	-10.3043
▁መክብብ	-10.3055
▁ኣሓትና	-10.3061
ፈርህ	-10.3062
እለ	-10.3076
ታተን	-10.3079
▁ረሲ	-10.3082
ካፈል	-10.3087
▁ብኣፍ	-10.3087
▁ንእተ	-10.3094
ድኣ	-10.3097
▁ብዓይ	-10.31
▁ናው	-10.3111
መካ	-10.3114
e	-10.3115
ኩኻ	-10.3115
▁ታሕሳስ	-10.3117
▁ለውጥታት	-10.3117
▁መዋእል	-10.3117
▁ዕሽነት	-10.3117
▁ተንስአ	-10.3117
▁ጽልኢ	-10.3117
▁ኬብሮን	-10.3117
▁ርእዩ	-10.3118
▁በብቝሩብ	-10.3118
ርኣዩ	-10.3118
▁ንምሕጋዝ	-10.3119
ጋግ	-10.3119
▁ተመሃሮ	-10.3122
▁ተመሊሱ	-10.3124
ጸናንዕ	-10.3125
ሕዞ	-10.3127
▁እንረኽቦ	-10.3133
▁ዓየይ	-10.3134
▁ዚቝጸሩ	-10.3135
ነብር	-10.3143
ዋጋእ	-10.3143
ልዑ	-10.3147
ይዋ	-10.3148
ፍጸም	-10.3157
ቕሊ	-10.3162
▁ጸም	-10.3162
ብዓል	-10.3163
ስነ	-10.317
መስሎ	-10.3171
▁ኣዒንቶም	-10.3174
ዜና	-10.3176
ጥሕ	-10.3186
▁ወዳ	-10.3189
ሃድም	-10.3193
▁ኤዶም	-10.3201
ዘዝ	-10.3205
▁ሰነ	-10.3211
▁ድዑል	-10.3223
▁ጐደና	-10.3226
▁ፖለቲካ	-10.323
ነንብብ	-10.3238
▁ወይንን	-10.3238
▁ወንጌል	-10.3244
▁ዜተባብዕ	-10.3244
▁ኣዕኑድ	-10.3244
▁ዕጽፊ	-10.3244
▁ሓተተ	-10.3244
▁ንኣዳም	-10.3245
▁ብቕዓት	-10.3245
▁ርኢኻ	-10.3247
ሰድ	-10.3249
ፈላ	-10.325
▁ትሑታት	-10.3255
ዓይዩ	-10.3259
▁ኽንመላለስ	-10.3264
▁እንተሎ	-10.3267
ላለ	-10.328
▁ኣመ	-10.3285
▁ኺረኽቡ	-10.3289
▁ይገብሮ	-10.3294
:37	-10.3297
የት	-10.3314
5:4	-10.3329
▁ይዛረብ	-10.334
ድግፍ	-10.3346
▁ንው	-10.3353
`	-10.3372
▁ምምልላስ	-10.3372
▁ብምእታው	-10.3372
▁ንክርስቶስ	-10.3372
▁ውጽኢቱ	-10.3372
▁ዮስያስ	-10.3372
▁ትሕዝቶ	-10.3372
▁ድቃስ	-10.3372
▁ኣሞራውያን	-10.3372
▁ዚስምዖ	-10.3373
▁ኣቕረበ	-10.3373
▁ደሓን	-10.3374
ተኣማመን	-10.3375
▁ሎጥ	-10.3375
ሰላ	-10.3376
▁ኒው	-10.3384
▁መገዱ	-10.3385
▁ሚል	-10.3388
▁ብልቡ	-10.3391
▁ብቛንቋ	-10.3392
ስመይ	-10.3402
▁ተዳ	-10.342
ምግባራ	-10.3421
▁1:5	-10.3427
ሚልዮ	-10.3427
500	-10.3436
▁ይግበር	-10.3438
ጎም	-10.3445
▁ምግብ	-10.3447
▁ተረፍ	-10.3453
▁ኣሜ	-10.3456
▁ተባሂ	-10.3457
▁ይረክብ	-10.3467
ግሮ	-10.347
ሃሉ	-10.3474
▁ድራኸ	-10.3478
▁ኣንበብ	-10.3483
▁በዳ	-10.3484
ይቲ	-10.3485
ወረ	-10.3489
ሮን	-10.3495
▁ተተ	-10.3501
▁በብዓሌቶም	-10.3502
▁ተሰሚዑ	-10.3502
▁ትእምርቲ	-10.3502
▁ዘካርያስ	-10.3502
▁ኩነታት	-10.3502
▁ገይራ	-10.3502
▁ዜሕዝን	-10.3502
▁እግሩ	-10.3503
▁ሙሴን	-10.3504
▁ሓቢር	-10.3504
▁ዚሕግዝ	-10.3505
▁ኣልኮ	-10.3507
▁ምቕራብ	-10.351
▁ምብጻሕ	-10.3511
ወጹ	-10.3523
▁ጸሓፍትን	-10.3524
ፈቱ	-10.3524
ጕድ	-10.3527
▁ፊ	-10.3528
▁ወደቐ	-10.3532
▁ናባ	-10.3536
▁1:3	-10.3537
ረጋግጽ	-10.3539
▁ናሕ	-10.3541
▁የማን	-10.3542
▁4:12	-10.3542
▁ትሕቲኡ	-10.3543
▁ኣኼባታትና	-10.3545
ርድኡ	-10.3548
ቕሚ	-10.3548
ገደደ	-10.3548
ሓሊ	-10.355
▁5:8	-10.3551
▁ክብል	-10.3554
ብዘሎ	-10.3555
▁መለኮታዊ	-10.3557
ሳሕ	-10.3558
በይኑ	-10.3565
ውዕል	-10.3566
ዋሕ	-10.3568
▁ኣካላዊ	-10.3569
▁ኣግ	-10.3591
▁ኣይፋ	-10.3611
ገመድ	-10.3615
▁ወድስ	-10.3617
ሕሰብ	-10.3621
▁ቀዳመይ	-10.3633
▁ዝረኣዮ	-10.3633
▁ዘይክእሉ	-10.3633
▁ካይላ	-10.3633
ተባብዑ	-10.3634
ተና	-10.3634
▁ኔሩ	-10.3634
▁መታ	-10.3634
▁ካበይ	-10.3636
▁ብግ	-10.3637
▁ግበሮ	-10.3638
▁28:19	-10.3643
▁ብድሕሪኡ	-10.3647
ገፍ	-10.3649
▁ፍጻመታት	-10.3651
▁የምጽእ	-10.3656
▁እትደሊ	-10.3658
መርሕ	-10.3659
▁ጳ	-10.3662
▁ምእ	-10.3664
▁ሺ	-10.3667
▁ሴላ	-10.367
ኹን	-10.367
ሃየ	-10.3671
ዳለዉ	-10.3675
▁ባእ	-10.3683
(	-10.3691
▁ዚመላለሱ	-10.3696
▁መምርሒታት	-10.3703
▁ግዜኡ	-10.371
▁ምእካብ	-10.3712
▁መልእኽ	-10.3715
▁ኣሓት	-10.372
▁በሊ	-10.3721
▁ሂበ	-10.3721
ደይብ	-10.375
▁ኣሞ	-10.3752
▁ካባኻ	-10.3766
o	-10.3767
▁መኽንያቱ	-10.3767
▁ሹማምን	-10.3767
▁ከነኣናውያን	-10.3767
▁ዜጋጥሞ	-10.3767
▁ግጉይ	-10.3767
▁መልክዕ	-10.3767
▁ነህምያ	-10.3767
▁ንመርምር	-10.3767
▁ንሳኦል	-10.3767
▁ዜገርም	-10.3767
ምፍጣር	-10.3767
▁ደልዮም	-10.3769
ገዝኣ	-10.3769
▁እኽል	-10.377
▁ዕለት	-10.3771
ስበኽ	-10.3772
ጽውዓ	-10.3772
▁ዘይነበረ	-10.3773
▁ዕዳጋ	-10.3774
▁ኣቦታቱ	-10.3776
▁ተገዛእ	-10.3778
▁ብምስዓብ	-10.3781
▁መዋ	-10.3782
ወግድ	-10.3785
▁ወለደት	-10.3786
ወድ	-10.379
▁3:8	-10.3793
▁ትገብር	-10.3793
▁በጃኹም	-10.3793
▁ዀ	-10.3797
▁ምምሃር	-10.3797
ደሙ	-10.3809
ባዕ	-10.381
▁ዝስማ	-10.3826
ንቂ	-10.3827
▁እተወ	-10.3836
ራኸብ	-10.384
-13	-10.3843
▁ርእዮም	-10.3844
ፈና	-10.3851
▁ስምዒ	-10.3853
ድሕኑ	-10.3859
መሳ	-10.3864
▁ኪህልዎ	-10.3881
:1-4	-10.3886
ውዒ	-10.3887
▁ሓለፈ	-10.3898
▁ህጻናት	-10.3902
▁ፍጥረታት	-10.3902
▁ቪድዮ	-10.3902
▁ይኹኑ	-10.3902
▁እጃም	-10.3902
▁ኣባኻትኩም	-10.3903
▁ውዲት	-10.3903
መጽ	-10.3904
እክብ	-10.3905
ደመ	-10.3906
ውዎ	-10.3906
▁ብደም	-10.3912
▁ዓለማ	-10.392
▁ሰማያትን	-10.3928
-18	-10.3931
▁እተገልጸ	-10.3934
ተባብዖም	-10.3935
▁ሰሜናዊ	-10.3936
▁ነፍስኻ	-10.3936
▁ኣርዑት	-10.3938
▁ደልየ	-10.3945
▁ስማት	-10.3945
▁ሓጢኣቶም	-10.3947
▁ቤቱን	-10.3955
▁ብብሕ	-10.3967
▁ነፍስ	-10.399
ፍልጠ	-10.3995
14	-10.3998
▁ንምቕ	-10.4006
▁ሓዘን	-10.4029
▁ብኣኻ	-10.4034
ጲ	-10.4038
▁ህንጸት	-10.4039
▁መለክዒ	-10.4039
▁መቕጻዕቲ	-10.4039
▁ምጽንናዕ	-10.4039
▁ዘይፍጽምና	-10.4039
▁ጕድለት	-10.4039
▁እንደገና	-10.4039
▁ዋልታ	-10.4039
▁ዘየልቦ	-10.4039
ግንዘብ	-10.4039
ዝርጋሕ	-10.4039
▁ካባና	-10.4039
▁ረኺቦም	-10.4041
ሓስበሉ	-10.4041
▁ንምፍላጥ	-10.4042
▁እምነቶም	-10.4043
ትኺ	-10.4044
▁ቓሉ	-10.4045
▁ገጾም	-10.4048
▁እግረ	-10.4049
▁ትገልጽ	-10.4054
▁6:1	-10.4055
▁ልሳን	-10.4056
▁ኔርካ	-10.406
▁ኽንጽሊ	-10.4061
ሕሱ	-10.4067
▁ሰዓታት	-10.4068
ፍልጠት	-10.407
▁ዚነድድ	-10.4076
▁ጸሎትና	-10.4079
ውጥ	-10.408
▁5:17	-10.4081
▁ጨና	-10.4084
▁ዝመጽእ	-10.4086
ቀመ	-10.4086
ግድ	-10.4093
ብሒ	-10.4098
▁ኺረክብ	-10.4099
▁ዘሌዋውያን	-10.41
ማህ	-10.41
ምበር	-10.4103
▁ጥራ	-10.4107
▁1:10	-10.4114
▁ኪዀነ	-10.4116
ርዕ	-10.4116
▁ተሓጐሱ	-10.4127
▁ለሚ	-10.4128
▁ኪዱ	-10.414
▁ባር	-10.4143
▁ተቓ	-10.4147
ኣላዪ	-10.4151
▁ቐይ	-10.4156
▁ዚህቦም	-10.4157
▁ሓም	-10.4159
▁ከምዘ	-10.4161
ይነግረና	-10.4161
▁ሞያ	-10.4166
▁ብግህዶ	-10.4178
▁ዜምጽኦ	-10.4178
▁ይህበና	-10.4178
▁ኣሕዋቶም	-10.4178
▁ሕፍረት	-10.4178
▁ቐልጢ	-10.4178
▁መምህራን	-10.4178
▁ኽፍልታት	-10.4178
▁ሆላንድ	-10.4178
ጐዓዝ	-10.4178
▁መሰላት	-10.418
▁ኣንፈት	-10.418
ነግሩ	-10.4181
▁ንምዕ	-10.4182
▁ተንሲ	-10.4183
▁ኣቢልና	-10.4185
▁ጓህ	-10.4188
▁ንግዲ	-10.4189
ድጊ	-10.4189
▁ሃይማኖታት	-10.4189
▁ሮማ	-10.4195
▁ኽገብሮ	-10.4199
ዘይ	-10.4199
ገብረና	-10.4201
▁ኣፈይ	-10.4205
ረን	-10.4205
▁ትርኢ	-10.4205
ድሶ	-10.4217
ህልዎም	-10.4224
▁ይዛረቡ	-10.4225
▁ዚዛረቡ	-10.4227
ነገር	-10.4231
▁ኣፍቅሮ	-10.4232
▁ሰላምታ	-10.4238
ኣይ	-10.4239
▁ዚቕመጥ	-10.4243
▁መጓሰዪታታን	-10.4247
ጽድቂ	-10.425
▁ገጸ	-10.4253
ሕድር	-10.4264
:43	-10.4278
ነድድ	-10.4282
ፈርሆ	-10.4282
ዕቢ	-10.4285
▁12:2	-10.4285
▁የሆዋስ	-10.4288
መድ	-10.4295
ትንስኡ	-10.4295
▁ገሊ	-10.43
▁የርኢ	-10.4305
▁ነዘን	-10.4309
▁ዘይከኣል	-10.4312
ውዲ	-10.4313
▁ምሳሌታት	-10.4317
▁ርሕራሐ	-10.4319
▁ንየሩሳሌም	-10.4319
▁ኪሩቤል	-10.4319
▁ኣውጺኡ	-10.4319
▁ይጽዕሩ	-10.4319
▁ዝኣተወ	-10.4319
▁ስርናይ	-10.4319
▁ቈልዓ	-10.4319
▁ታሕቲ	-10.4319
▁ህንጻ	-10.4319
ዝርግሕ	-10.4319
▁ዮናስ	-10.4319
ርድእዎ	-10.432
▁ተመሊሶም	-10.432
▁ድግስ	-10.4321
ጻረሮ	-10.4322
▁በረድ	-10.4324
▁ሶ	-10.4325
ጕህዩ	-10.4325
▁ቄ	-10.4328
ስውእ	-10.433
▁እተጠቕመሉ	-10.4332
ኾም	-10.4335
▁ኽንሕሉ	-10.4336
▁የመልክት	-10.4337
▁ተቐበል	-10.4342
▁ኽንፈልጥ	-10.4342
▁ቐሪ	-10.4343
▁የገልግል	-10.4344
▁ኣዘዞም	-10.4347
▁ኣእዳዎም	-10.4351
▁ኪነብር	-10.4351
▁3:2	-10.4362
ቆም	-10.4365
ዝረብ	-10.4369
በኒ	-10.4372
▁13:5	-10.4377
▁ያእቆብን	-10.4384
▁ትምኒ	-10.4385
▁ምስዓብ	-10.4385
ስማዕ	-10.4393
ጡብ	-10.4393
▁ምጽራ	-10.4394
ህይወቶም	-10.4394
ሰለስተ	-10.4399
ነርኢ	-10.4411
▁ኸዱ	-10.4416
▁ሰል	-10.442
ልከት	-10.4422
:41	-10.4424
መሉ	-10.4424
ወለደትሉ	-10.4428
▁ንምም	-10.4444
ውዓል	-10.4452
ሐጕስ	-10.4452
ሩብ	-10.4454
ሓድር	-10.4456
▁ህቦብላ	-10.4461
▁ሊባኖስ	-10.4461
▁ሕያውነት	-10.4461
▁ብየሱስ	-10.4461
▁ኣበርክቶ	-10.4461
▁ኣይግባእን	-10.4461
▁ኻልአይቲ	-10.4461
▁ታለንት	-10.4461
▁ኺፈልጡ	-10.4461
▁ዓያሹ	-10.4461
▁ብቕዓታት	-10.4462
ዋጽኣሉ	-10.4462
▁ዝገበሩ	-10.4462
▁ቐሊል	-10.4462
▁ሃብታም	-10.4462
▁ግራው	-10.4462
▁ማኪና	-10.4463
▁ዑፍ	-10.4466
▁ዚሓ	-10.4467
ጽውዖ	-10.4468
ድቅስ	-10.4469
ቝጸር	-10.447
▁ኸይን	-10.4473
▁ወደየ	-10.4476
ጕልሕ	-10.4478
▁ሰራሕ	-10.448
50	-10.4482
▁3:17	-10.4484
▁ተነግሮ	-10.449
ጽሪ	-10.449
▁ኣርማ	-10.4495
ርዖ	-10.4496
ምንጻል	-10.4499
▁ዚመርሕ	-10.4503
▁ምርጫታት	-10.4504
-19	-10.4507
ምህሮ	-10.4512
ሰው	-10.4519
▁ቕቡኣት	-10.4519
▁ኺዛረብ	-10.4526
ውረ	-10.454
ካዶ	-10.4544
መዓል	-10.4546
▁ዚረኽቡ	-10.4552
ጾሩ	-10.4558
ዓዙ	-10.4561
ስምዓ	-10.4562
ገልጹ	-10.457
ደሎም	-10.4571
▁ኣውራጃ	-10.4574
ደልካ	-10.4577
ምልኾ	-10.4577
▁እልል	-10.4584
ጻር	-10.4591
▁ተመሊ	-10.4602
h	-10.4606
▁መጥቃዕቲ	-10.4606
▁ቅኑዓት	-10.4606
▁ብዚግባእ	-10.4606
▁ተኣዛዝነት	-10.4606
▁ኢትዮጵያ	-10.4606
▁ገንዘባ	-10.4606
ፐ	-10.4606
▁ዕምባባ	-10.4606
▁ጐበዝ	-10.4606
▁ዓጺድ	-10.4607
ረኽብዎ	-10.4607
▁ደርቢ	-10.4607
▁ተሓታቲ	-10.4607
▁ማሕላ	-10.4607
▁መጻ	-10.4607
▁ቆልዑ	-10.4607
▁ሚዛን	-10.4607
ጥፋእ	-10.4614
▁5:22	-10.4615
▁ይበል	-10.4617
▁ንሕልና	-10.462
▁ናትና	-10.4621
▁ፍርድታት	-10.4625
▁ማለ	-10.4625
▁ደቅኻ	-10.4629
▁ዓይን	-10.463
▁ቦታኡ	-10.4631
▁ካር	-10.4634
15	-10.4634
▁ሸቶታት	-10.4641
ጸልና	-10.4642
ትንክፍ	-10.4642
▁መጽ	-10.4645
ምነት	-10.4647
ገልጸሉ	-10.465
▁2:13	-10.4655
▁ሒዝ	-10.466
ዛሕ	-10.4671
▁ኣወዳትን	-10.4676
▁ንምድ	-10.4688
ኽፈል	-10.4706
ውሰዱ	-10.4718
ጣዕ	-10.4725
:44	-10.473
195	-10.4737
ዃ	-10.4752
▁ዓንቀጻት	-10.4753
▁ጭሔሎ	-10.4753
▁መጺአ	-10.4754
▁ብሩህ	-10.4755
ዮስ	-10.4755
▁ሃይማኖታዊ	-10.4755
▁ንዘለዎ	-10.4755
▁ነናብ	-10.4757
▁ዘመናት	-10.4758
ወጻ	-10.4762
▁ማእከላይ	-10.4764
በጽሓ	-10.4764
መጠ	-10.4766
▁ንዕዮ	-10.4771
▁ኣዘዘ	-10.4774
ቝሩብ	-10.4776
ሕብሩ	-10.4776
▁መዛግብቲ	-10.4781
ውሒ	-10.4783
ልዎም	-10.4791
▁ምኽንያታት	-10.4791
ንሳሕ	-10.4792
ፈሊጡ	-10.4801
▁10:24	-10.4805
ፍጠር	-10.4811
▁1,000	-10.4814
▁ኣብርሃምን	-10.482
▁2:12	-10.4823
▁ጨው	-10.4824
▁ዘሁ	-10.4835
▁ዚሓትት	-10.4845
▁ምልእ	-10.4846
ድምጹ	-10.4856
▁ኸለኹ	-10.4856
ስተር	-10.4858
▁ሃብዎ	-10.4859
▁ብጥ	-10.487
▁ብጭ	-10.4872
▁ምት	-10.4891
▁ስምዒታት	-10.4893
▁ንበል	-10.4897
ሪስ	-10.4899
ቈጻጸር	-10.4903
▁ሓይልኻ	-10.4903
▁ምምሕዳር	-10.4903
▁ምሩኻት	-10.4903
▁ወተሃደራት	-10.4903
▁ዕዉራት	-10.4903
▁ዋይዋይ	-10.4903
▁የድሊ	-10.4903
▁3:10	-10.4904
▁ዚህሉ	-10.4905
▁ዓቕሊ	-10.4912
▁ሱር	-10.4914
▁ምዝ	-10.4924
▁ኺፍጸም	-10.4928
▁ምዃንካ	-10.4929
▁ኣባኻ	-10.4935
ርሒ	-10.4937
▁ጻዕር	-10.494
▁ሰር	-10.494
ፊል	-10.4943
ጽንዓ	-10.4944
እቶ	-10.4945
▁ምዱ	-10.4948
▁ኪገብሮ	-10.4948
▁ሞሳ	-10.4958
ወሃብ	-10.4967
▁2:8	-10.4968
▁ገላዉኻ	-10.4968
▁2:17	-10.4977
ለበ	-10.499
ረድ	-10.4996
ክርስትያን	-10.4997
▁ዝገበርካ	-10.5
ሻን	-10.5002
▁ጻዕ	-10.5009
ቕረቦ	-10.5023
ዓበየ	-10.5033
r	-10.5054
▁መረጋገጺ	-10.5054
▁ንዮሴፍ	-10.5054
▁ኣገልጊ	-10.5054
▁ጐልጐል	-10.5054
▁ምቕባል	-10.5054
▁ንድሕሪት	-10.5054
▁ኣድራሻ	-10.5054
▁ሓለፋ	-10.5055
▁ንሓይሉ	-10.5055
መሳሰል	-10.5055
▁ዘይብልና	-10.5055
▁ዮኣስ	-10.5055
ምድጋፍ	-10.5056
ዘርግሐ	-10.5056
▁ማዕበል	-10.5057
ልምኖ	-10.5057
▁ኬገልግሉ	-10.5058
በርትዓ	-10.5059
▁ትኽእሉ	-10.506
ቃለስ	-10.5062
▁ዝኸኣለ	-10.5064
▁6:7	-10.5066
ጽንዑ	-10.5069
ገዲ	-10.507
▁ጽዒ	-10.5071
▁ቀልጢፍ	-10.5074
▁ዘለው	-10.5077
ሰድድ	-10.5078
▁እተገብረሉ	-10.508
▁3:14	-10.5083
እዝ	-10.5083
▁ዚቕጽል	-10.5089
ሓስቦ	-10.509
ጸውር	-10.509
▁ዓራት	-10.5098
▁ፖለቲካዊ	-10.5099
▁2:1	-10.5105
ጥረ	-10.5106
▁ተጠ	-10.512
ተዋህበ	-10.512
▁ስኒ	-10.5125
▁ምል	-10.5126
ቕካ	-10.5129
▁ንሓው	-10.5133
▁ርባ	-10.514
▁62	-10.5143
3:3	-10.5162
▁ጃ	-10.5171
▁ዚኣምን	-10.5174
▁12:1	-10.5188
▁ዚቕ	-10.5193
ፍላጥ	-10.5197
▁መዘኻኸሪ	-10.5205
j	-10.5208
▁ብሓጢኣት	-10.5208
▁ብትዕግስ	-10.5208
▁ተመዝጊቡ	-10.5208
▁ኣይሁዳዊ	-10.5208
▁ድንጋጽ	-10.5208
▁ኣይከኣሉን	-10.5208
▁ምእታው	-10.5208
▁ረኣይዎ	-10.5208
▁ኣፍሪቃ	-10.5208
▁ወጺኦም	-10.5208
▁ጽብቕ	-10.5208
▁ቀዳምነ	-10.5209
▁ሰገደ	-10.521
▁ንቡር	-10.5212
▁መጓሰዪ	-10.5214
▁ዝገበርናዮ	-10.5215
▁እንነብር	-10.5215
18	-10.5226
ፈርዶም	-10.5226
▁ድዑልን	-10.5233
▁ኣይደል	-10.5245
▁ኪህልወና	-10.5246
ተኛታት	-10.525
ምለኽ	-10.5251
▁ንኣሕዋት	-10.5251
▁ይፍታሕ	-10.5256
▁3:12	-10.5258
ዛይ	-10.5259
እምነ	-10.5267
ሳል	-10.5269
▁ኪህቡ	-10.5269
▁5:11	-10.5272
▁ተስፋታት	-10.5275
▁ወሰዶ	-10.5275
ውነት	-10.5275
▁በላዓም	-10.5276
▁ቀረበ	-10.5277
:15-17	-10.5282
▁ጰ	-10.5284
▁እንርእዮ	-10.5285
ነብረሉ	-10.5288
:39	-10.5289
▁ረኺ	-10.529
▁ዚብልዎ	-10.529
-17	-10.5294
▁ምፍላጥና	-10.5298
ግዜኡ	-10.5306
ነበሩ	-10.5313
▁ኸላ	-10.5316
ክዮ	-10.5322
:40	-10.5333
▁ሓረ	-10.5342
▁ኤድ	-10.5347
▁ቃለ	-10.5353
፤	-10.5364
▁ተቐሚጦም	-10.5364
▁ኣምጺኡ	-10.5364
▁ኣጋጢሙ	-10.5364
▁ክዳውንቱ	-10.5364
▁ሮቤል	-10.5364
▁ተዋሂብዎ	-10.5364
▁ትዕግስ	-10.5364
▁ትፈልጡ	-10.5364
▁ሓጊዙ	-10.5364
▁ብዓብዪ	-10.5364
▁ንሰይጣን	-10.5364
▁ኣረጊት	-10.5364
▁ዝነበርና	-10.5364
▁ዕንቅፋ	-10.5364
▁ሓጋዚ	-10.5364
▁ሰደቓ	-10.5364
▁ብኣኽብሮት	-10.5364
▁ንሰብኣያ	-10.5364
▁ለዋህ	-10.5364
▁ኽእለት	-10.5364
▁ኣይከኣለ	-10.5364
▁ጸለየ	-10.5365
ጥመቕ	-10.5365
▁ኣፍልጦ	-10.5365
▁ዝኣዘዘ	-10.5365
▁ይኸዱ	-10.5366
ኽፍኣት	-10.5366
ነካ	-10.5371
▁ብግዲ	-10.5373
ምላእ	-10.5377
▁ዜንጸባርቕ	-10.5379
ቕተል	-10.5381
▁የድልየካ	-10.5382
▁ልሙ	-10.5384
▁ክፉእን	-10.5386
ኣካ	-10.539
▁ዚበልጽ	-10.539
▁4:16	-10.5399
ውድሶ	-10.54
ታሊ	-10.5404
▁12:9	-10.541
ደልየ	-10.542
ስልጣን	-10.5434
▁ብደሓ	-10.5436
▁ይነብሩ	-10.5442
▁ተሓጒ	-10.5452
▁ዚግብኣ	-10.5453
▁ናይዚ	-10.5455
ቨ	-10.5456
▁ኺው	-10.5457
▁እተሰምዖ	-10.5462
ባብዕ	-10.5465
ጹር	-10.5465
▁2:5	-10.547
ለኻ	-10.5471
▁ዕጫ	-10.5472
▁ኣኽቢ	-10.5472
▁ዘላቶ	-10.5474
በጽሑ	-10.5475
ጸይ	-10.5475
መጀመርታ	-10.5475
▁ቅር	-10.5478
▁ይብሎ	-10.5484
ሕጐሱ	-10.5488
ድራ	-10.549
▁ይርአ	-10.55
▁ሓሪ	-10.5506
▁ተኻ	-10.5512
▁ንእስነ	-10.5515
ንፋስ	-10.5519
▁ሚዛናዊ	-10.5523
▁ተዘክሮ	-10.5523
▁ደማስቆ	-10.5523
▁እስማኤል	-10.5523
▁ዝረኸበ	-10.5523
▁ኺምለስ	-10.5523
ጽውዑ	-10.5523
▁ክዳኑ	-10.5523
▁ግልጽ	-10.5524
▁ኤልሳእ	-10.5524
▁ረኺብና	-10.5525
▁ዕዮኡ	-10.5526
▁ኣባታቶም	-10.5526
▁ሰርሐ	-10.5527
▁ደዪቡ	-10.5528
▁ደሊና	-10.553
▁ብቕልጡፍ	-10.5534
ዓብዩ	-10.5535
▁ንእግዚኣብሄር	-10.5536
▁ተሓቢ	-10.5537
▁ዚብለ	-10.5542
▁6:5	-10.5547
▁ክትኰኑ	-10.5548
ድግፎ	-10.5552
ዝም	-10.5554
▁3:11	-10.5556
▁ብምድ	-10.5565
ገልጸልና	-10.5567
▁እቶን	-10.5571
30	-10.5571
▁12:12	-10.5576
ግበ	-10.5587
ርኤ	-10.5602
▁ስስዐ	-10.5605
▁ምተ	-10.561
▁ኣቦኦም	-10.5613
ጸግብ	-10.5618
ወቕዖ	-10.5618
▁ኣራ	-10.5619
▁ኣዕጽም	-10.5619
▁ድያ	-10.563
ሜተር	-10.5636
ሃዳድ	-10.5637
▁ንኣሕዋትና	-10.5639
መና	-10.5663
ተራእየ	-10.5669
ርጐም	-10.5673
መክ	-10.5682
▁ዚመላለስ	-10.5683
ምምሕልላፍ	-10.5684
▁መጽሔት	-10.5684
▁ስርዓተ	-10.5684
▁ተጠንቀቑ	-10.5684
▁ንብጻዩ	-10.5684
▁ኣሕሊፎም	-10.5684
▁ከዋኽብቲ	-10.5684
▁ዄንኩም	-10.5684
▁ፍጹማት	-10.5684
▁ንህዝበይ	-10.5684
▁ተነብዩ	-10.5684
▁ሰራዊቱ	-10.5684
▁ብሓሶት	-10.5684
▁ውሽጥ	-10.5684
▁ብቕንኣት	-10.5684
▁ንኣገልግሎት	-10.5684
▁ዕልወት	-10.5684
▁ልምዲ	-10.5685
▁ኪዀና	-10.5685
በኩም	-10.5686
ምርምሮ	-10.5686
▁መሪር	-10.5686
▁ኣንቢ	-10.5688
▁ናበይ	-10.5689
▁እተፈጸመ	-10.569
▁ንቤተ	-10.569
▁ሺሎ	-10.569
ፈትዉ	-10.5691
ምልጥ	-10.5693
▁ኣጸቢቐ	-10.5693
ህልዋ	-10.5695
▁ምስልታት	-10.5696
▁ኢዶም	-10.5696
▁ቀረጽ	-10.5705
▁ኽገብረ	-10.5706
▁ጸፎ	-10.571
▁ቅኑዕን	-10.5711
▁ጐደናታት	-10.5712
ረረ	-10.5718
▁ዓውዲ	-10.5719
ጋህ	-10.5719
መስሉ	-10.5722
▁ኽትፈልጥ	-10.5723
▁ኽዳን	-10.5723
▁2:15	-10.5724
▁ትፈልጦ	-10.5725
▁ኣበየ	-10.5725
▁ኢደ	-10.5726
መጹ	-10.573
ምህረና	-10.5735
▁ሕሙማት	-10.5735
ትኒ	-10.5736
▁ዘይብላ	-10.5736
▁1:15	-10.5751
ምርሕ	-10.5753
ሓዞ	-10.5758
▁ዚስዕቡ	-10.5759
▁ውር	-10.5762
ረድኣ	-10.5768
ባህርያ	-10.5768
▁ብቝ	-10.5773
▁ሰረገላታት	-10.5776
▁ብድ	-10.578
▁ቀደ	-10.5791
ውረድ	-10.5792
መለሱሉ	-10.5795
ማርቆስ	-10.5803
1:2	-10.5808
▁እተተሓሓዘ	-10.5809
▁ዚስምዓ	-10.5812
▁ዝሓለ	-10.5824
▁ሳዕቤናት	-10.5848
▁ብለውሃት	-10.5848
▁ንፈርኦን	-10.5848
▁ድልዱል	-10.5848
▁የብለይን	-10.5848
▁እዋናት	-10.5848
▁ኪበልዑ	-10.5848
▁መርገም	-10.5848
▁ኣቤል	-10.5849
▁ንኖህ	-10.5849
ጽናዕ	-10.5849
▁ድለዩ	-10.5849
▁ቁጽሪ	-10.5849
▁ጸልዩ	-10.5849
▁ሒዛ	-10.5849
▁ሌዊ	-10.585
መሃሩ	-10.5851
▁ንኣምልኾ	-10.5852
▁ዓብይ	-10.5852
▁ኣይትፍራህ	-10.5852
▁ባሳን	-10.5853
ውጽኡ	-10.5854
▁ወላዲ	-10.5855
▁ዱር	-10.5858
▁ነብያትን	-10.586
▁ምብላዕ	-10.5862
▁27:11	-10.5865
ጠራ	-10.5872
ድማ	-10.5877
▁ዜኽእለና	-10.5878
▁ኺገልጽ	-10.5882
▁6:14	-10.5884
ልወጥ	-10.5886
▁ኺገብሮ	-10.5886
▁ንኸምዚ	-10.5889
▁ኣከዳድና	-10.5894
▁ዚተርፍ	-10.59
▁እተረኽበ	-10.5901
ፈይ	-10.5904
ፈትሖ	-10.5906
▁ዚሰማማዕ	-10.5911
ጐድእ	-10.5914
▁ተንስኡ	-10.5914
▁ጂ	-10.5928
▁ዜብሎ	-10.5929
ፍርህ	-10.5932
▁ኢልዎም	-10.5944
▁ኖ	-10.5957
ጠር	-10.5968
ጽኑዕ	-10.5972
ዝርዝር	-10.5972
ሓዋሩ	-10.5972
ስዋእ	-10.5973
የር	-10.5986
▁ኣበር	-10.5995
8:1	-10.5998
ስሪ	-10.5998
▁ክኢላ	-10.5999
▁ወላ	-10.5999
ሻይ	-10.6001
▁ዅላ	-10.6002
▁ይጠ	-10.6011
▁13:4	-10.6013
▁ንጊልያኻ	-10.6015
▁ኣይኰንናን	-10.6015
▁ዝንውሓቱ	-10.6015
▁ሓካይም	-10.6015
▁ተመርኲ	-10.6015
▁ኣጋይሽ	-10.6015
▁ክዳውንት	-10.6015
▁ዝንባለ	-10.6015
▁ኪቐትልዎ	-10.6015
▁ዚሓይሽ	-10.6015
▁ኣዋርሕ	-10.6015
▁ኣስተውዓል	-10.6015
▁ኣኺሉ	-10.6016
▁ሰሚዐ	-10.6017
▁ጽንኩ	-10.6024
▁በልዎም	-10.6025
ደልይዎ	-10.6026
▁ተንሲኦም	-10.6027
ዕድል	-10.6027
▁ፍቕርኻ	-10.6033
▁ትኹን	-10.6033
▁ኻባይ	-10.6033
▁ኣገልግሎትና	-10.6046
▁ንየ	-10.6047
ጐደ	-10.6049
ልግስ	-10.605
▁ድኻታት	-10.6054
▁ይጽ	-10.6056
▁ክገብሮ	-10.6062
ብዕል	-10.6063
▁ንገዛእ	-10.6065
▁ኣቦታትና	-10.6073
▁ይኣምኑ	-10.6078
ውስኽ	-10.6083
▁ደቅና	-10.6084
▁56	-10.6086
ሓዙ	-10.6089
▁ክትብል	-10.6099
▁ተለ	-10.6102
ምኩ	-10.6113
ዘፍ	-10.6115
▁ኪሓ	-10.6119
▁በልኩ	-10.6119
ከለ	-10.612
መልክት	-10.6122
ንግስ	-10.6122
▁ዝደሊ	-10.6126
▁ብምም	-10.6133
▁ኪሎ	-10.6138
ደዱ	-10.614
ኤፌሶን	-10.6145
ኩምሲ	-10.6149
ልዕሊ	-10.6158
ቕጽል	-10.6162
ዳለወ	-10.6168
n	-10.6184
▁ቈላሕታ	-10.6184
▁ብትግሃት	-10.6184
▁ዜጠራጥ	-10.6184
▁ጠበቓ	-10.6184
▁ፍቑር	-10.6185
▁ዘይፍትሓ	-10.6185
▁ሓሳዊ	-10.6185
በቅዕ	-10.6185
ጠቕሙ	-10.6185
▁ምስባኽ	-10.6188
▁ማን	-10.619
▁ሂቦም	-10.619
▁ኸንቱ	-10.6192
ግባ	-10.6194
ብልዕ	-10.6195
ዋር	-10.62
▁ዘርኡ	-10.6202
▁ብድሆታት	-10.6209
▁ኪቕጽል	-10.6216
▁ወሲድካ	-10.6216
▁መሸ	-10.6218
▁ክንብል	-10.6235
▁ምሕታት	-10.6235
▁ስርዓታቱ	-10.6239
▁ንምድር	-10.6241
▁ሃና	-10.6241
ሰልጥ	-10.6242
▁ዜፍቅርዎ	-10.6242
▁ኣለም	-10.6242
-5	-10.6261
ትታት	-10.6263
ቐለ	-10.6269
▁ኩን	-10.627
▁ንጽህናና	-10.6271
▁ጓሉ	-10.6272
ኣምኖ	-10.6273
▁ዚህቡ	-10.6273
▁ብእተ	-10.6283
ለዉ	-10.6285
▁ምስትንታን	-10.6286
▁ውዕል	-10.629
ገዱ	-10.629
▁በለስ	-10.6294
ሕግዞ	-10.6296
ኣር	-10.6312
ስሩዕ	-10.6318
ወድቁ	-10.6329
ሰርሓ	-10.6334
▁ቃልካ	-10.6341
▁ዓመ	-10.6345
ሕደግ	-10.6349
▁ብድሕሪ	-10.6354
ነግረካ	-10.6355
▁ጀርመን	-10.6357
▁ኣስቴር	-10.6357
▁ንምግላጽ	-10.6357
▁ዝገለጾ	-10.6357
▁ንጸሎት	-10.6357
▁ዚጥቀሙሉ	-10.6357
▁መጺእ	-10.6357
ቈጻጸሮ	-10.6357
▁ምዀነ	-10.6357
▁ብቝጥዓ	-10.6357
ወርስዋ	-10.6357
▁ዝገለጸ	-10.6358
ረኽባ	-10.6358
▁ዝዀኖ	-10.6358
ልዐ	-10.6358
▁ንውሓት	-10.6359
▁4:2	-10.636
▁ገረድ	-10.636
ፈለጡ	-10.6362
ወቕዓ	-10.6363
▁ባዕልኻ	-10.6364
ጥቕልል	-10.6364
▁ኪቕበል	-10.6365
ትኸይድ	-10.6366
▁ዝደለየ	-10.6367
-30	-10.6369
ፈልጣ	-10.6371
▁መንጎኻ	-10.6373
ኢሳ	-10.6375
▁ኣቐዲም	-10.6376
▁ሓጊዝዎ	-10.6377
▁ንይሁዳ	-10.6379
ገበረ	-10.6385
▁ንዘለኣለ	-10.6399
▁11:1	-10.6401
▁ኣእምሮኣ	-10.6404
i	-10.6405
▁ብዘይግቡእ	-10.6407
▁4:10	-10.6409
ባራ	-10.6412
▁ኣዳል	-10.6413
▁ክንክን	-10.6415
▁እምነትን	-10.6425
▁ፈጺም	-10.6426
▁መጸት	-10.6427
▁1:13	-10.6428
▁ጸገ	-10.6439
ቕዲ	-10.6449
▁ዚህቦ	-10.6464
እከቡ	-10.6466
ረኣየ	-10.6468
▁የድልዮ	-10.6474
ዘይግቡእ	-10.6481
40	-10.6483
▁እተመደበ	-10.6502
ስርዓት	-10.6502
ሕግዙ	-10.6505
ብርህ	-10.6511
ኣተዎ	-10.6525
ሼ	-10.6532
org	-10.6532
▁ሄሮድስ	-10.6532
▁ንብጻይካ	-10.6532
ጠቕመና	-10.6532
▁እተሰርሐ	-10.6532
▁ደጋጊ	-10.6532
▁ጠፊኡ	-10.6532
▁ርጉም	-10.6532
▁ቘልዑ	-10.6532
▁ምሂሩ	-10.6532
▁ረኸቡ	-10.6532
▁መሊሶም	-10.6532
▁ኣይኪኸውንን	-10.6532
:10-12	-10.6532
▁እተነበ	-10.6533
▁ንነበር	-10.6533
▁ሰሚዖም	-10.6533
▁ራስል	-10.6534
▁መሲሕ	-10.6534
▁ኣትዮም	-10.6535
ምጽኣልና	-10.6537
▁ገለልተኛ	-10.6539
▁4:1	-10.654
▁ሓቀኛ	-10.6541
▁ልኢ	-10.6541
▁ክንነብር	-10.6542
▁እተወልዱ	-10.6545
▁ዜፍቅሮ	-10.6553
ወደቑ	-10.6554
▁ጾይ	-10.6556
▁ወሰና	-10.6559
▁ትብሉ	-10.6559
▁57	-10.6559
ጕህዮ	-10.656
▁መሰናድዎታት	-10.6566
ኩሉ	-10.6578
ዋጋ	-10.6586
ሊኻ	-10.6589
▁4:5	-10.6598
ላንድ	-10.6604
▁ፈረስ	-10.6608
ምርዖ	-10.6618
▁ይህቦም	-10.6632
ብሮም	-10.6635
ሕብር	-10.6637
▁ወይለ	-10.6638
▁ይረኽቡ	-10.6639
▁ሰባ	-10.666
▁ድልድል	-10.6665
ህይወተይ	-10.668
▁ንጉባኤ	-10.669
▁ኣትሒ	-10.669
▁ከይደ	-10.6701
▁1:4	-10.6705
▁ደለዩ	-10.6707
ጁ	-10.6709
ምንዝር	-10.671
ስተብህለሉ	-10.6711
▁መፈንጠራ	-10.6711
▁ይግብኣና	-10.6711
-31	-10.6711
▁ኣቕሪቡ	-10.6711
▁ጁዅ	-10.6711
▁ብሓድነት	-10.6711
▁ሓተትዎ	-10.6711
ሃህላ	-10.6711
▁ጠለብ	-10.6711
▁ተራእዮ	-10.6712
▁በትሪ	-10.6712
▁ኣምጽእዎ	-10.6712
ጠንቀ	-10.6714
▁ተጠቒሞም	-10.6715
▁ዝለመ	-10.672
ምልኹ	-10.6724
▁ምድሮም	-10.6727
▁ንሩት	-10.6727
ቘር	-10.6729
ፋፍ	-10.673
ውት	-10.6736
▁ማዕ	-10.6738
ርዎም	-10.6739
▁ቐጺ	-10.6744
ሓትተ	-10.6745
▁ዝገበርክዎ	-10.6746
ልእኽ	-10.6749
▁ንሳተን	-10.6755
▁ናባታ	-10.6757
▁ዝወጹ	-10.6762
ጕህ	-10.6772
▁ከብት	-10.6773
▁ስምዒታ	-10.6775
▁ዝገበርካዮ	-10.6776
▁1:11	-10.6779
የገልግሉ	-10.6785
▁ኪዀነና	-10.6792
▁ዝሞቱ	-10.6793
▁ጉባኤና	-10.6795
ጥቀሙ	-10.6802
ነብዪ	-10.6804
▁ኒል	-10.6806
▁እዙዛት	-10.681
▁መትከል	-10.6815
ህበኒ	-10.6816
▁ዝጠቐ	-10.6816
▁ፖ	-10.682
▁ዚምህር	-10.6824
▁ብጾት	-10.6826
▁ዚኣቱ	-10.6831
▁ፍጽም	-10.6833
▁ኣድማ	-10.6848
▁ኺህልዎ	-10.6858
▁ቍሩ	-10.6866
ብርቱዕ	-10.6866
▁ዓሚ	-10.6867
▁ንግበር	-10.6867
ረይቲ	-10.6879
▁ደጊ	-10.6887
መሓላልፍ	-10.6893
ጶ	-10.6893
▁ብኣእምሮ	-10.6893
▁ንፍታሌም	-10.6893
▁ኣጕባዝ	-10.6893
▁ዝረኣናዮ	-10.6893
▁ደሴታት	-10.6893
▁ተቐመጥ	-10.6893
▁ዚፈልጡ	-10.6893
▁ዘይነበሮ	-10.6893
ስልጣኑ	-10.6893
▁ንመንፈስ	-10.6893
▁ነገስት	-10.6893
▁ንኽልቲ	-10.6894
▁ዝዀና	-10.6894
▁ዝቘመ	-10.6894
ዔዘር	-10.6894
▁ዓመታዊ	-10.6895
▁ሰራው	-10.6895
ዕወት	-10.6895
▁ዘይከውን	-10.69
▁ትብለ	-10.6905
▁ይመስለካ	-10.6908
▁ዝእዝዘ	-10.6909
▁ዝኽእሉ	-10.6911
▁ሓወይ	-10.6912
s	-10.6916
ተንስኣ	-10.6919
▁ውጽኢታዊ	-10.6939
▁ደቃ	-10.6939
ታልል	-10.6945
8:2	-10.6948
▁መዝነት	-10.6961
ጽውዕ	-10.6962
▁ንስልጣን	-10.6963
▁ማእከ	-10.6963
▁ዘመናዊ	-10.6964
ቋርጽ	-10.6964
መሪሕነት	-10.6967
▁ጽዩፍ	-10.697
ፈለጥኩ	-10.6972
▁66	-10.6974
ለለ	-10.6985
▁ጸረ	-10.7
ትሮ	-10.7001
▁ኣንጻ	-10.7003
▁ይሕጐስ	-10.7004
ጸልኦ	-10.7018
ሪብ	-10.7024
▁ዚብላ	-10.7028
ባርኾ	-10.7035
ዛት	-10.7045
▁ባህሊ	-10.7052
ኣገልገልቱ	-10.7055
መቝ	-10.7065
▁ዘርኣዮ	-10.7076
ወተሃደራዊ	-10.7078
▁በብዓይነቱ	-10.7078
▁ዘርጊሑ	-10.7078
▁ክትፈልጡ	-10.7078
▁ዋዕላ	-10.7078
▁ኣጽኒዕ	-10.7078
▁ክፍኣት	-10.7078
▁ስእልታት	-10.7078
▁ትዕቢት	-10.7078
▁ይዀነ	-10.7078
▁እንግሊዝኛ	-10.7078
▁ርግጽ	-10.7079
▁ዘርእኻ	-10.7079
▁ምትላል	-10.7079
▁ርስቱ	-10.708
▁48:17	-10.7081
▁ቅድሜኹም	-10.7081
ውከል	-10.7081
ተፈልጠ	-10.7082
ውለድ	-10.7083
እመኑ	-10.7083
▁ጋሻ	-10.7084
▁ወድአ	-10.7085
▁ቐሪቡ	-10.7088
▁ትንፋስ	-10.7091
▁ዜፍርህ	-10.7093
እክቦም	-10.7093
ንጉሳ	-10.7097
▁10:23	-10.7098
▁ኣቦታትኩም	-10.7098
▁ሰራሕተኛታት	-10.7099
▁ኣንስትዮ	-10.7101
ንጽሊ	-10.7103
▁ኣርኣየ	-10.7104
ልፍ	-10.7104
▁ንጐይታይ	-10.7104
▁ተመለስ	-10.7106
▁ኪጥቀሙ	-10.7112
ሃል	-10.7117
ጽሎ	-10.7118
▁ይምህረና	-10.712
▁ዝበለት	-10.7123
▁ዝበሃል	-10.7124
▁5:28	-10.7127
▁6:2	-10.7131
▁ጋድ	-10.7133
▁6:12	-10.7135
ግን	-10.7137
▁7:9	-10.714
▁ንበይ	-10.7143
ንግስቲ	-10.7144
▁ጼዴቅያስ	-10.7145
▁ቃየል	-10.7145
▁እግር	-10.7146
▁ደለየ	-10.7149
ንኽእል	-10.7152
▁ብዳ	-10.7159
▁ብስነ	-10.7165
▁2:14	-10.7167
▁ርእየ	-10.7167
▁ናታን	-10.7176
▁ወለዱ	-10.7177
▁ክዛረብ	-10.7177
▁ጊልያይ	-10.7182
▁61	-10.7194
▁ኤን	-10.7204
▁ይግብኦ	-10.7212
▁ናታ	-10.7215
▁መቕደ	-10.7221
ኢት	-10.7225
በሪ	-10.7226
▁ፍትሕን	-10.7241
ቄ	-10.7246
▁ዚኸብ	-10.7256
ቕዱስ	-10.7257
ምዕራባዊ	-10.7267
ስተንትነሉ	-10.7267
ቺ	-10.7267
▁ምንቅጥቃጥ	-10.7267
▁ራብዓይ	-10.7267
▁ንምህናጽ	-10.7267
▁ንምግልጋል	-10.7267
▁ንኣሕዋቱ	-10.7267
▁ኤውሮጳ	-10.7267
▁ገበነኛ	-10.7267
▁ጊዴዎን	-10.7267
▁ጽላሎት	-10.7267
▪	-10.7267
▁ብሕቡእ	-10.7267
▁ክፋላት	-10.7267
▁ተመለሱ	-10.7267
▁ሚድያን	-10.7267
▁ዚሓስቡ	-10.7267
▁ጢሮስ	-10.7267
▁ዝፈጠረ	-10.7267
▁ብኤር	-10.7267
▁ወሰድዎ	-10.7267
ኣማእታት	-10.7267
▁ኣሉታዊ	-10.7267
▁መሊኡ	-10.7268
▁ጤለ	-10.7268
▁ኣንበሮ	-10.7268
መልኦ	-10.7269
▁ኵል	-10.7269
ሓጥእ	-10.727
▁ድሉው	-10.727
▁ይጸልዎ	-10.7272
▁ተደፊ	-10.7272
▁ቅጫ	-10.7273
▁ምፍቃር	-10.7275
▁ሓላፍነታት	-10.728
ምሃሮ	-10.7281
▁ሕራይ	-10.7282
▁ጥሒ	-10.7285
▁ድምጽ	-10.7285
▁ኪቕመጡ	-10.7291
▁ደቂሱ	-10.7296
▁ኣሕሊፍካ	-10.7299
▁ይቕበ	-10.7301
ድርኾ	-10.7302
:45	-10.731
ምምሕያሽ	-10.731
በጽሖም	-10.7317
▁ፈታዊ	-10.7319
ተኛ	-10.732
ኤት	-10.7322
▁1:1	-10.7327
▁ቅድስና	-10.7334
ለላ	-10.7351
ወደስ	-10.7363
▁መኣዝን	-10.7372
ፈኒ	-10.7376
▁2:10	-10.7378
▁ድም	-10.7379
ስእን	-10.7381
▁ኪዛረብ	-10.7381
▁ሕብ	-10.7387
ጽበዩ	-10.739
▁ሓሙ	-10.7391
▁ፍለጥ	-10.7394
ህዝ	-10.7404
መልከ	-10.7404
▁ኣከዳድናና	-10.7405
▁ግብሩ	-10.7406
ፈቕደሉ	-10.7408
ሪኢ	-10.7409
8:3	-10.7413
▁ዚህልወ	-10.7421
ኣኻትኩም	-10.7421
ቓሕ	-10.7428
▁ይጥቀም	-10.7434
ምዃኖም	-10.7443
▁ኣዘውቲ	-10.7452
▁ቐንዴል	-10.7459
▁ኣስተውዓሊ	-10.7459
▁ብደረጃ	-10.7459
▁ወጠጦ	-10.7459
▁ኣንበጣ	-10.7459
▁ተዳልዩ	-10.7459
▁ኤፎድ	-10.7459
▁ሞይቶም	-10.7459
▁ብሰንበት	-10.7459
▁ኣነባብራ	-10.7459
▁ድንግል	-10.7459
▁ንኣዲኡ	-10.7459
▁ብጻዩ	-10.746
ህነጽ	-10.746
▁ኣኽሊል	-10.746
▁ሓተታ	-10.746
▁ሆሴ	-10.746
▁ንልብና	-10.746
ተባባዕ	-10.7462
▁ፕላ	-10.7462
▁ኣዚዙ	-10.7464
▁ኣስኣሰር	-10.7465
ጥዓ	-10.7466
▁ዒላ	-10.747
ምፍሳስ	-10.7471
▁ኽንገብሮ	-10.7471
▁ቄድሮስ	-10.7472
▁ኣልቦ	-10.7473
▁ኼገልግል	-10.7474
▁ንምፍጻም	-10.7479
▁ገበን	-10.748
▁ጻዕርታት	-10.748
▁ዝመልኣ	-10.748
ንብቡ	-10.7482
▁ኽንጥቀመሉ	-10.7483
▁ኾ	-10.7485
▁ወርሕ	-10.7487
▁ስሒ	-10.749
▁ተሰማሚዕና	-10.7491
▁ኪመጹ	-10.7493
▁ቀረ	-10.7493
▁6:16	-10.7494
▁ንዅላ	-10.7498
▁ልዕሌና	-10.75
▁ዚደልይዎ	-10.7503
ዘርኡ	-10.7509
▁ዝሓዙ	-10.7509
▁3:7	-10.7513
▁ሃበኒ	-10.753
ዛረቦም	-10.7537
▁8:5	-10.7539
-10	-10.755
▁64	-10.755
ኵዓ	-10.7561
ስበር	-10.7565
▁ሓዘ	-10.7576
ደልያ	-10.7577
▁ስብከ	-10.7582
▁ሃዋርያቱ	-10.759
ሉቃ	-10.7594
ትሕት	-10.7595
5:2	-10.7614
ብለልና	-10.7619
▁ወሲድ	-10.7621
ተረኽበ	-10.7633
▁ኣሕዋትካ	-10.7636
▁ንግስና	-10.7639
▁ከምዚኣ	-10.7644
ርከቡ	-10.7645
ጴ	-10.7646
▁ንሓድሕ	-10.7653
▁ሓይልታት	-10.7655
▁ኣትክልቲ	-10.7655
▁ኣጋጢምዎ	-10.7655
▁ኸዋኽብ	-10.7655
▁ጊልጋል	-10.7655
▁የሆያዳ	-10.7655
▁ጠነሰት	-10.7655
▁ዝግፍሑ	-10.7655
▁ንሳሙኤል	-10.7655
▁ኣድሕነ	-10.7655
▁ዛብሎን	-10.7655
▁ርግቢ	-10.7655
▁ሃረር	-10.7655
▁ዝፈጠሮ	-10.7655
ድርብዮ	-10.7655
▁ግዝእ	-10.7656
▁ምንጋር	-10.7656
▁ንዝነበረ	-10.7656
▁ፍሪኡ	-10.7657
ግዝኡ	-10.7657
ጠቅስ	-10.7657
ቕውም	-10.7657
▁ሶርያውያን	-10.7661
▁ክንመስሎ	-10.7666
▁ግብጽን	-10.7669
▁ባህላዊ	-10.7669
▁ይቕ	-10.7676
▁ተላዒሉ	-10.7676
▁ትመስል	-10.7678
ርስዖ	-10.7681
▁ሰዓብቱ	-10.7683
መንገዲ	-10.7688
▁ባህርያቱ	-10.7694
▁ተኣከብ	-10.7696
33	-10.7697
▁ፍቕር	-10.7699
ሳገር	-10.7702
ቃሕ	-10.7708
▁መሓር	-10.7709
▁ንስሙ	-10.7709
▁2:21	-10.7714
▁5:15	-10.7716
▁መለሱ	-10.772
▁6:8	-10.7726
▁1:14	-10.7728
▁ዘበ	-10.7729
▁ኺመውት	-10.7754
ብዎም	-10.7756
▁ጌጋታት	-10.776
▁ወጻኢታት	-10.7771
ገልጸሎም	-10.7772
ኼ	-10.7784
▁ዝዛረብ	-10.7787
▁ትሕት	-10.7793
▁ፈሊ	-10.7794
▁ንእምነት	-10.7796
▁ሰማዕኩ	-10.7797
▁ነገርዎ	-10.7804
ገብረሎም	-10.7806
ልኩ	-10.7812
▁ብጻይ	-10.782
▁17:3	-10.7821
ጦስ	-10.7823
ዝኾነ	-10.785
▁መበቈል	-10.7855
▁ሮብዓም	-10.7855
▁ትሽዓተ	-10.7855
▁ትግርኛ	-10.7855
▁ንእኩያት	-10.7855
▁ዝረኸብዎ	-10.7855
▁ፊልጶስ	-10.7855
ሓልየሎም	-10.7855
▁ንምሕላው	-10.7855
▁ጎሞራ	-10.7855
▁ቅዱሱ	-10.7855
▁ምግላጽ	-10.7855
▁ዕዉር	-10.7855
▁ንርእስኹም	-10.7855
▁ቀሪባ	-10.7855
▁ኣጋጠሞ	-10.7855
▁እተወስደ	-10.7855
▁መሲሓዊ	-10.7855
▁ቅቡል	-10.7855
▁ትካላት	-10.7855
▁ሰብኣውያን	-10.7855
▁ብጾቶም	-10.7855
▁ሕሙም	-10.7856
▁ኣግማል	-10.7856
▁ክንድኡ	-10.7856
▁ጨናፍር	-10.7857
▁ዓረፈ	-10.7857
▁ኡርያ	-10.7857
ማላእ	-10.7862
▁ሕዳር	-10.7863
▁ቐዳም	-10.7864
▁ፎር	-10.7865
▁ትኽ	-10.7865
▁ኤደን	-10.7867
▁ዝረኸቦ	-10.7869
▁ዚርከባ	-10.7875
▁እትመጽእ	-10.7878
▁የቕርብ	-10.7879
ውዳእ	-10.788
▁እተራእየ	-10.788
▁ዝልቦም	-10.7882
▁ተኽእሎ	-10.7883
▁4:23	-10.7887
▁ይርእዮ	-10.7891
ንጽህ	-10.7892
▁ብጽሑፍ	-10.7894
▁ኣእምሮና	-10.7894
▁ንድኻ	-10.7894
▁20:28	-10.7899
▁ፍቓድካ	-10.791
▁ሕረ	-10.7913
▁ጥበቡ	-10.7918
ምሕባር	-10.792
▁ፍቕርና	-10.7922
▁ዚወርድ	-10.7933
▁ዚኣትዉ	-10.7934
▁ዝጀመረ	-10.7939
▁መጽናዕት	-10.7941
▁ምፍጻም	-10.7948
▁ይቕረታ	-10.7953
▁ኪህልዎም	-10.7981
ገዛእ	-10.7984
▁ክንዳ	-10.7995
▁ዚዀነ	-10.7998
▁ተወከ	-10.8004
:1-5	-10.8004
ቓት	-10.8007
▁ምንባሮም	-10.8015
ረጸ	-10.8016
7:3	-10.8019
በኪ	-10.8021
ናዮም	-10.8028
ዋት	-10.8031
▁ሰራሕተኛ	-10.8037
ተፈላለየ	-10.8038
▁ጽሕ	-10.8046
▁ሻም	-10.8051
ጤ	-10.8057
-22	-10.8057
▁ብፍርሃት	-10.8059
▁ንይስሃቅ	-10.8059
▁ኣይፈልጡን	-10.8059
▁ዩኒቨርስ	-10.8059
▁ጸብጻባት	-10.8059
ዘራረብ	-10.8059
▁ብሓገዝ	-10.8059
▁ተገረሙ	-10.8059
▁ተጠንቀቕ	-10.8059
▁ኣቕርቡ	-10.8059
▁ቆልዓ	-10.8059
ዘሁልቍ	-10.8059
▁ዕሽር	-10.8059
▁ወሲኹ	-10.8059
▁ወጺእ	-10.8059
▁ጥቕምታት	-10.8059
▁ምሕላው	-10.8059
▁ተጻዊ	-10.8059
ገምጋም	-10.806
▁ብቐዳ	-10.806
ይቀተል	-10.806
▁ስገም	-10.8061
▁ዚምዘን	-10.8061
ወቅዕ	-10.8062
ሕማቕ	-10.8063
ጻወት	-10.8063
▁ፈረንሳ	-10.8064
▁ፖልዮ	-10.8064
▁ዝሃብካ	-10.8065
ዕቍበ	-10.8066
▁ግብርታቱ	-10.8068
▁ኽንነብር	-10.8069
▁ዝሙት	-10.807
▁ክንድዚ	-10.8071
▁ልደ	-10.8072
▁ገበላ	-10.8072
▁ክንገብሮ	-10.8074
▁ኬድ	-10.8076
▁ከብዲ	-10.8077
▁ኬምጽእ	-10.8081
ክልተ	-10.8084
ደሓር	-10.8088
▁ዘብል	-10.8088
▁ዲኹም	-10.8089
▁ኣስዒቡ	-10.809
▁ኪበልዕ	-10.8093
እተ	-10.8095
▁ኣጋንንቱ	-10.8097
▁1:9	-10.8104
▁5:16	-10.8104
▁ቛንቋታት	-10.8105
▁ጸላእቶም	-10.8107
ገንሖ	-10.811
▁ተመላሊስ	-10.8111
▁ሚክ	-10.8111
▁ልያ	-10.8111
2:1	-10.8114
▁ማርዶካይ	-10.8119
▁80	-10.8119
▁ዚዓይዩ	-10.812
ሓብር	-10.8121
▁በጽሑ	-10.8122
▁ፍጽምና	-10.8128
▁መዓጹ	-10.8131
▁ዙርያኡ	-10.814
ሕግዝዎም	-10.8154
▁ዘርኣ	-10.8155
ሳር	-10.8156
▁ተባህለ	-10.8173
▁ይወጽእ	-10.8174
▁15:4	-10.8183
▁ይስሕ	-10.8188
ርእይ	-10.8191
▁ዕላማኡ	-10.8198
ርዒ	-10.8199
▁ማእሰር	-10.8205
ኩሎም	-10.8208
▁ማቕ	-10.821
▁ዘጋጠሞ	-10.821
ሐይ	-10.8212
ማዕብል	-10.8219
ሓዘ	-10.8227
▁መንግስት	-10.823
ጠቓልል	-10.8233
:1-6	-10.8254
ግዝኣ	-10.8256
ስርዕ	-10.8261
ነግረኩም	-10.8261
▁ኹን	-10.8266
▁ይጥቀሙ	-10.8267
ተኣሳሰር	-10.8267
▁ልማዳት	-10.8267
▁ሓምዅሽ	-10.8267
▁ምኵራብ	-10.8267
▁ምይይጥ	-10.8267
▁እተመርኰሰ	-10.8267
▁ኬቕርቡ	-10.8267
▁ውሕስነት	-10.8267
▁ዘተኰረ	-10.8267
▁ዜድልዩ	-10.8267
▁ዓቃላት	-10.8267
▁ድኽመት	-10.8267
▁ኣእዱግ	-10.8267
▁ድቤላ	-10.8267
ፍትወት	-10.8267
▁መንፈሱ	-10.8267
▁ደየቡ	-10.8267
▁ረኽሲ	-10.8267
▁ዝሓደጎ	-10.8267
▁ኣናብስ	-10.8267
▁ኣውልዕ	-10.8268
ገልጻ	-10.8268
▁ኣይኪህሉን	-10.8268
▁ገለልትነ	-10.8268
ቐርቡ	-10.8268
▁ፍታው	-10.8268
▁ክነሱ	-10.8268
▁ምድሓን	-10.8268
▁ምኻድ	-10.8269
ውሃቦም	-10.8269
ፍርሂ	-10.8276
ግዝኦ	-10.8276
ጸዋዕ	-10.8277
▁—⁠	-10.8282
▁ትእምርትታት	-10.8282
ሓልዩ	-10.8287
▁ኽትገብሮ	-10.8287
▁ኽንሓስብ	-10.8291
▁እንታ	-10.8299
ጕሂ	-10.8303
▁ኪቕበሎ	-10.8308
▁6:6	-10.831
199	-10.8314
▁ጸላእቱ	-10.8314
▁ዓቕምና	-10.8324
▁ኪጠፍኡ	-10.8326
ርእየና	-10.8335
▁ኣሕዋተይ	-10.8339
▁10:16	-10.8339
▁ጽሩያ	-10.8343
:9-11	-10.8347
▁ምቅ	-10.835
ወርቂ	-10.8352
▁መሰለ	-10.8352
▁ኪሰምዑ	-10.8353
ሓፍር	-10.8356
ብጻሕ	-10.8358
በስ	-10.8362
ተረፉ	-10.837
ክእ	-10.8371
▁ንምስክር	-10.8373
▁15:1	-10.8377
▁ዜድልየ	-10.8378
ሓዚ	-10.8379
በልዕዎ	-10.8386
▁ኺፈልጥ	-10.8388
▁ንዒ	-10.8388
ዝው	-10.8389
ጠለ	-10.8392
▁ማሪ	-10.84
▁ዘሎኩም	-10.84
▁እዝኒ	-10.8401
▁ብሕል	-10.8406
ቂም	-10.8407
▁ሰሚ	-10.841
▁ፒ	-10.8413
▁ዜዕ	-10.8414
በጽሖ	-10.8424
▁ትእዛዛትካ	-10.8424
ሕተቱ	-10.8425
▁ዘይርአ	-10.8429
▁ዘረባኡ	-10.8435
ዋግኡ	-10.8436
▁1914	-10.8448
በደለ	-10.845
ጾር	-10.8455
▁ንስጋ	-10.8461
▁ውጽኢታ	-10.8466
ብሊ	-10.8467
▁የሕ	-10.8467
%	-10.848
▁መድሓኒ	-10.848
▁ርሕሩሕ	-10.848
▁ብሮሹር	-10.848
▁ንኣይሁድ	-10.848
▁ንገላዉኡ	-10.848
▁ንጽቡቕ	-10.848
▁ኣይትፈልጡ	-10.848
▁ዚጽዕሩ	-10.848
▁ደቡባዊ	-10.848
▁ጽዩፋት	-10.848
▁በጺሑ	-10.848
▁ኣሕሊፈ	-10.848
▁ዓዛርያ	-10.848
▁ጐዳኢ	-10.848
▁ጸኒሖም	-10.848
▁ምውሳድ	-10.848
▁ቀጻሊ	-10.848
▁ምብራቓ	-10.848
ቃለሱ	-10.848
▁ተገንዚ	-10.848
▁ለመኖ	-10.848
▁ንዘርእኻ	-10.848
▁ኣሴር	-10.848
▁ኣቢሜሌክ	-10.848
▁ብምንታይ	-10.8481
▁ኣፍንጫ	-10.8481
▁ውርደት	-10.8481
▁ምራኽ	-10.8481
ናግፎም	-10.8481
▁ረኺብካ	-10.8482
▁ጸንሐ	-10.8482
▁ሓሊፎም	-10.8484
እሰር	-10.8484
▁ኪኣቱ	-10.8486
▁ኽፋላ	-10.8486
ደለዩ	-10.8487
ኤፌ	-10.8488
▁ዜምልኹ	-10.8491
▁በዳሊ	-10.8492
▁ማዕዳ	-10.8493
▁ወሰኑ	-10.8493
▁ማዕከ	-10.8493
▁ድኳ	-10.8494
▁ኬቕርብ	-10.8496
▁መብራህቲ	-10.8498
▁ኔርኩም	-10.8498
ስራይ	-10.8499
ጥቕሚ	-10.85
ሃለወ	-10.8501
ለኣኽ	-10.8512
▁ኴንኩም	-10.8513
▁ዝጸሓፈ	-10.8514
▁13:34	-10.8516
ናይዚ	-10.8516
▁ጽቡቕን	-10.8522
-6	-10.8524
ሰርሓሉ	-10.8527
▁ኣሳፍ	-10.8532
▁ረዲ	-10.8533
ገብረልና	-10.8534
▁ኤፋ	-10.8534
▁ነበርዎ	-10.8537
▁ኣርሒ	-10.8538
▁ደቅ	-10.8539
▁3:6	-10.8543
▁ቍጥዓኡ	-10.8543
▁ኣቕርብ	-10.8548
ስምዓካ	-10.8549
▁ኣሓ	-10.855
ልኣኽ	-10.8551
▁ዘማ	-10.8554
ስዒቡ	-10.8555
▁12:3	-10.8556
▁ኣርኢ	-10.857
ድሕኖም	-10.8574
ኸፍል	-10.8581
▁ድኻም	-10.8588
▁1:18	-10.8589
▁ንፈለማ	-10.859
ነማዕብል	-10.8593
▁2:11	-10.8594
▁2:24	-10.8595
▁ቄሳር	-10.8595
▁ዝጸሓፍ	-10.8598
▁ዅላቶም	-10.8602
ምሕላ	-10.8613
▁ኺህብ	-10.8614
▁ምግባራ	-10.8618
ፍረዱ	-10.8623
▁ደበናታት	-10.8626
▁ቅድስ	-10.8629
ቕመጡ	-10.8632
▁ብላዕ	-10.8635
ሓብሩ	-10.8635
ኴንካ	-10.8646
▁ቐር	-10.8648
▁ንሞት	-10.8653
⁠	-10.8662
:46	-10.8672
▁ግብረ	-10.8679
ምሕል	-10.8681
▁ይስምዖ	-10.8683
ብጽሕ	-10.8684
▁ከፊ	-10.8694
0:3	-10.8697
ሉዓላውነት	-10.8698
▁ህያባት	-10.8698
▁መጻወድያ	-10.8698
▁ሚስዮናዊ	-10.8698
▁ንሌዋውያን	-10.8698
▁ኣጠቓቕማ	-10.8698
▁ክትከይድ	-10.8698
▁ክዳውንቶም	-10.8698
▁ጥዑያት	-10.8698
▁ተሓተትቲ	-10.8698
▁ውሽጡ	-10.8698
▁ጽድቁ	-10.8698
▁ወሓይዝ	-10.8698
▁ልእመት	-10.8698
▁ውጥረት	-10.8698
ስተማቕ	-10.8698
▁በይንኻ	-10.8698
▁ጋኔን	-10.8698
▁ገሊጽዎ	-10.8698
▁ገማግ	-10.8698
ግበረሎም	-10.8698
▁ጸኒዕ	-10.8698
▁ኣረማዊ	-10.8698
▁ጊዜ	-10.8698
▁ሓለዋ	-10.8699
ትኽእል	-10.8699
▁ሕማማት	-10.8699
:1-7	-10.8699
የኒ	-10.87
▁በብግዜኡ	-10.8701
ናወጽ	-10.8704
▁ከተንብብ	-10.8706
▁ኣስተብህል	-10.8707
▁ኪቐትሎ	-10.8707
ሓላፍነት	-10.8708
▁ዝፈጸሞ	-10.8708
ህልዉ	-10.8709
▁7:1	-10.871
ቕድም	-10.8712
ስጕም	-10.8712
▁ዘጠቓልል	-10.8712
ሃድሙ	-10.8713
▁ዝነፈ	-10.8714
▁ንስኺ	-10.8716
▁መንኵ	-10.8722
▁የሐጕሶ	-10.8723
ሸባዕ	-10.8724
ሰናብ	-10.8726
▁ዓመጽ	-10.8728
▁ክንጥቀመሉ	-10.8729
ዅስ	-10.8734
▁ንገሩ	-10.8736
▁ሉሕ	-10.8738
▁ጊልያኡ	-10.874
ሓለፈ	-10.8741
▁ትሓስብ	-10.8744
▁5:7	-10.8749
▁59	-10.8768
▁1:17	-10.8775
▁ሒዝዎ	-10.8776
▁5:10	-10.8777
ልብኻ	-10.8787
▁ሰጊ	-10.8795
▁73	-10.8797
▁ዝወጸት	-10.8797
▁ተግባራ	-10.8803
ቻ	-10.8804
ድቕ	-10.8804
▁ኽህቦ	-10.8809
▁ንምግ	-10.881
ኮነ	-10.8813
▁2:18	-10.8817
ነብረላ	-10.8817
ሎት	-10.8821
ታሪ	-10.8826
▁ቍራ	-10.8827
▁ይብሃል	-10.883
▁4:3	-10.8834
▁ትኪ	-10.8865
ዓለዉ	-10.8866
▁ቀተሎ	-10.8867
▁ጥቓኡ	-10.8869
ምብራ	-10.8877
ዝበለጸ	-10.8881
ሕተት	-10.8882
▁ዓይነ	-10.89
ረኽበሉ	-10.8907
ርኣየ	-10.8913
▁12:4	-10.8918
ጵ	-10.892
▁ሾብዓተ	-10.892
▁ቛንቛ	-10.892
▁ተሰሚዕዎ	-10.892
▁መሐበሪ	-10.892
▁ጅግና	-10.892
▁ሺምዒ	-10.892
▁ተመራመር	-10.892
▁ጻዶቅ	-10.892
ሰጕጎም	-10.892
▁ተገይሩ	-10.892
▁ሚክያስ	-10.892
▁ድኽነት	-10.892
▁ጊብዓ	-10.892
▁ብቓላት	-10.892
▁ወሃቢ	-10.892
▁ኸፊቱ	-10.892
▁ዘይብለን	-10.892
▁እህህ	-10.892
▁ሚስዮናውያን	-10.892
▁ኣርእስቲ	-10.892
▁ኣዴኻ	-10.892
▁ምእዛዝ	-10.892
ጻወሮ	-10.8921
▁ኣይትኽእልን	-10.8921
▁ለኣኾ	-10.8921
መርምሮ	-10.8921
▁ለመም	-10.8921
▁ክሳድ	-10.8921
▁ኣብኔር	-10.8922
▁ዮራም	-10.8922
መስግኖ	-10.8922
▁ወድሰብ	-10.8922
▁ካናዳ	-10.8922
▁ንዝነበሩ	-10.8922
▁ንሰላም	-10.8923
ፍቅራ	-10.8924
▁ሽበራ	-10.8925
▁ሮማውያን	-10.8925
ንጥፈት	-10.8926
▁ጣል	-10.8928
ኸዳ	-10.8928
▁ሒዘ	-10.8929
▁11:6	-10.8929
በርትዕ	-10.893
▁ወሰዱ	-10.8931
▁ዘለወን	-10.8931
▁ምፍላ	-10.8934
ርሕቑ	-10.8934
ታቦት	-10.8937
ነደደ	-10.8939
▁13:1	-10.894
▁ዚጻረር	-10.8944
▁ንድኻታት	-10.8945
▁ኽትኰኑ	-10.8946
ተንስእ	-10.8949
▁ግድን	-10.8949
መስከረ	-10.8955
▁ክንምሃር	-10.8956
▁ዚቕመጡ	-10.8958
▁ንምር	-10.8962
▁ቈሪ	-10.8964
▁ዜድልየካ	-10.8965
▁ጠቢ	-10.8967
ሰምዐ	-10.8968
▁ነየና	-10.8975
▁10:31	-10.8975
▁ወድኻ	-10.8983
▁11:25	-10.8986
▁ንእምነትና	-10.8988
▁4:15	-10.8991
▁2:6	-10.8993
ፈጽ	-10.8999
በተ	-10.9004
▁12:10	-10.9011
▁ንምት	-10.9012
▁1:28	-10.9012
▁ሃደ	-10.9013
▁ልኡም	-10.9014
▁ሓናት	-10.9019
▁ምዃንኩም	-10.902
▁ዚግብኣና	-10.9021
▁ብሓጺ	-10.9024
▁ተጻዋርነት	-10.9025
-9	-10.9028
እምን	-10.9034
ሃይ	-10.9042
ነታዊ	-10.9044
▁ኪረክብ	-10.9052
▁ንህይወትና	-10.9058
▁ክፍለ	-10.906
▁ሃይማኖ	-10.9069
▁ኣንደ	-10.9071
▁ኪመውት	-10.9071
▁ዚሓልፍ	-10.9075
ፈድዮ	-10.909
▁ይዓቢ	-10.9095
▁ኽንሓት	-10.9095
▁ፍግ	-10.9101
▁ዅለን	-10.9103
▁ዘይፈልጥ	-10.9107
ርር	-10.9111
60	-10.9113
▁ተዛ	-10.9128
▁ቲቶ	-10.9145
▁መድሃኒት	-10.9147
▁ተባሃሃሉ	-10.9147
▁ኢንተርነት	-10.9147
–	-10.9147
▁ስጕምትታት	-10.9147
▁ብመልክዕ	-10.9147
▁ይሳኮር	-10.9147
▁ተዛሪበ	-10.9147
▁ንጥፍኣት	-10.9147
▁ሓንጎል	-10.9147
▁ንኣጋንን	-10.9147
▁ዓረብያ	-10.9147
▁ሃገራዊ	-10.9147
▁ብሙሴ	-10.9147
▁ክፍልታት	-10.9147
▁ዓድታታ	-10.9147
▁እተፈጥረ	-10.9147
▁ፈሳሲ	-10.9147
▁ኽኢላ	-10.9147
▁ፍርሂ	-10.9147
▁ብእተኻእለ	-10.9148
▁ብምሕላው	-10.9148
▁ዝሃነ	-10.9148
▁ንያህ	-10.9149
ለዓል	-10.9149
▁ኪዀኖ	-10.915
▁ኸነውዕሎ	-10.9152
▁ሂብካ	-10.9152
እተወደበ	-10.9153
▁እቶት	-10.9155
▁ጽላት	-10.9157
▁ገበራ	-10.9158
▁ኽንመርጽ	-10.9161
ይስምዖም	-10.9163
ትምህርቲ	-10.9169
ዕለተ	-10.917
ሰበይቲ	-10.9174
ኽፉእ	-10.9174
7:1	-10.9177
▁ኣይኹን	-10.9179
ዘዳግም	-10.9179
▁የፍቅሮ	-10.9181
▁ሕጅ	-10.9181
▁ንኣቦይ	-10.9182
▁ኪሕግዙ	-10.9184
▁ውፉ	-10.9184
ሽፍን	-10.9191
ፍልጥ	-10.9193
-15	-10.9194
▁3:4	-10.9196
▁4:17	-10.9197
▁ኣፎም	-10.9199
ወደቐ	-10.92
▁ዚመጹ	-10.9201
▁መስዋእትታት	-10.9202
በስር	-10.9205
▁ቅንዕና	-10.9208
▁ዝነብር	-10.9209
▁ቐረባ	-10.9219
ፈሊ	-10.9222
▁1:27	-10.9227
▁መድሕን	-10.9234
ስትዮ	-10.9237
ዘዘ	-10.9238
▁መገድታቱ	-10.9269
ዕድሚኣ	-10.9276
▁ዚሰምዕ	-10.9282
▁ንኣይ	-10.9282
ነግስ	-10.9285
ምግባር	-10.9294
▁ውዒ	-10.9296
ጽንዖ	-10.9299
ተንብብ	-10.9299
▁ኣውጽኣ	-10.9305
▁የምጽኣ	-10.9312
▁ልግሲ	-10.9315
ሰትዩን	-10.9323
▁ኔር	-10.9326
▁ይፈልጦ	-10.9328
▁ምዕባለ	-10.9357
▁ዝበልኩ	-10.9359
▁300	-10.9364
ለዓዕል	-10.937
▁ንዅላት	-10.9374
ዂ	-10.938
▁መራኽብ	-10.938
▁በርናባስ	-10.938
▁ብምስትውዓል	-10.938
▁ብገንዘብ	-10.938
▁ተጠቃሚ	-10.938
▁ንሰሎሞን	-10.938
▁ኽትከይድ	-10.938
▁ዜፍቅሩ	-10.938
▁ጥቅምቲ	-10.938
▁ንእሙናት	-10.938
▁ኣሳልጦ	-10.938
-26	-10.938
▁ብቕኑዕ	-10.938
ግንዘቡ	-10.938
▁ርብቃ	-10.938
▁የብልካን	-10.938
▁ጽባቐ	-10.938
▁ብቑዓት	-10.938
▁መቘሚ	-10.938
▁ቐዋሚ	-10.938
▁ዜኽእሎም	-10.938
▁ንኣብራም	-10.938
ምትኳር	-10.938
▁ግምብታ	-10.938
▁ሓቢሩ	-10.938
▁ውሑድ	-10.938
ጻረሩ	-10.938
▁ንምድሓን	-10.938
▁ጐይተት	-10.938
ፈቅድ	-10.938
▁ብንጽህና	-10.938
▁ሑጻ	-10.9381
▁ዚኸዱ	-10.9382
▁ደቀይ	-10.9382
ተቐየረ	-10.9382
▁ፋርስ	-10.9382
ኸፍአ	-10.9382
▁ኣዒንትኹም	-10.9382
▁ሳውል	-10.9383
ህድእ	-10.9383
ኒካዊ	-10.9386
▁ኣይንረስ	-10.9386
▁ዝዓይነ	-10.9389
▁ዋህዮታት	-10.9392
▁ሃማን	-10.9393
ዛረበሉ	-10.9395
▁ዜረጋግጽ	-10.9397
▁ራዕ	-10.9397
▁ኣይትግበር	-10.94
▁መላእኽቱ	-10.9401
▁4:9	-10.9401
▁ትነብር	-10.9401
▁ደዪ	-10.9402
▁ዜቕርብ	-10.9402
▁ኣውሊ	-10.9403
በልጽ	-10.9404
▁በልዑ	-10.9407
▁እንፈልጦ	-10.9409
▁ደይኰን	-10.9409
▁ሃብትን	-10.941
ሰርሖ	-10.9412
▁1:2	-10.9412
▁ፍትሓ	-10.9417
▁ክንርሕቕ	-10.9418
ምጽሓፍ	-10.9418
▁ይስምዓካ	-10.9419
▁ዝረኣየ	-10.9422
▁ኬድካ	-10.9424
▁መደበ	-10.9426
ጸርፍ	-10.943
ሕደር	-10.9436
▁3:23	-10.9436
▁5:29	-10.9438
▁ይስማዕ	-10.9439
▁ምድሩ	-10.9444
▁ኺነብሩ	-10.9448
▁ብስሩዕ	-10.9449
▁ኽህበካ	-10.9449
▁ክህበካ	-10.946
▁ኣቐዲምና	-10.9465
ረድኦም	-10.9466
▁ኣርእዮም	-10.9469
▁ጌር	-10.9471
▁ዚብላዕ	-10.9472
▁እንሃ	-10.9474
ኢዱ	-10.9477
▁እዝራ	-10.948
▁ተሓጒስ	-10.9485
▁63	-10.9496
▁ኪርእዩ	-10.9511
▁ተምሃ	-10.9512
ቘጥ	-10.9516
ውፊ	-10.9524
ርክት	-10.9526
ፍቶ	-10.953
▁ብሰብ	-10.9531
ድለዮ	-10.9535
▁ሂቡኒ	-10.9538
▁ኣቦታት	-10.9543
▁9:4	-10.9544
▁ዚሓስብ	-10.9546
▁ሓልዮ	-10.9554
▁ምሳልያዊ	-10.9562
▁ስራ	-10.9564
▁ፌ	-10.9568
ጐይዩ	-10.9573
▁ዝርእዮ	-10.9574
ርእሱ	-10.9589
▁ፊልም	-10.9593
▁ረቛሒ	-10.9597
▁ንውሉዳት	-10.9602
ተፈልየ	-10.9603
▁ዜምጽኣ	-10.9604
▁እንህቦ	-10.9605
ዚግበር	-10.9606
ከውንን	-10.961
ሕሎ	-10.9612
-27	-10.9616
l	-10.9617
ጪ	-10.9617
A	-10.9618
ንቀሳቐስ	-10.9618
ጱ	-10.9618
▁መጠረሽታ	-10.9618
▁ተለቪዥን	-10.9618
▁ንሰማያዊ	-10.9618
▁ኣቀራርባ	-10.9618
▁ውሽጠይ	-10.9618
▁ጊብዖን	-10.9618
▁ንሰማያት	-10.9618
▁ወቒዑ	-10.9618
▁ቘርበት	-10.9618
▁ዜጋጥም	-10.9618
▁ኣቕረቡ	-10.9618
▁ኲናት	-10.9618
▁ኪዳነይ	-10.9618
ተጠምቁ	-10.9618
▁መጺኣ	-10.9618
▁ኣይትጨነ	-10.9618
▁ሕልሚ	-10.9618
▁ዝፋኑ	-10.9618
▁ከሙኡ	-10.9618
▁ዜደልድ	-10.9618
ርብዒ	-10.9619
▁ባህልታት	-10.9619
▁ዓርከ	-10.9619
▁ተሪር	-10.962
▁መስፍን	-10.9624
ዋግኣ	-10.9624
▁እክይ	-10.9624
ምስክሩ	-10.9625
▁ጽዓር	-10.9627
ሓፎ	-10.9628
ንበዩ	-10.9632
▁ግምባ	-10.9632
ዕቍቦ	-10.9633
▁ዝኸዱ	-10.9636
ጸሓፍ	-10.9636
1:3	-10.9637
▁ትምህርትን	-10.9639
▁ጠፈር	-10.964
▁እትገልጽ	-10.9643
▁ልኡ	-10.9643
▁ኬጥፍእ	-10.9644
▁ምምጻእ	-10.9645
▁ምውጻእ	-10.965
ኤርምያስ	-10.965
’	-10.965
▁ስል	-10.9651
▁ዜጥፍእ	-10.9651
ቘሞ	-10.9652
ገሊኦም	-10.9654
▁እምነትካ	-10.9659
▁ጭሕ	-10.966
▁ኪብሎ	-10.9663
▁ዜፍር	-10.9674
▁ሰሙናት	-10.9676
▁ንበዓል	-10.9677
▁ገጻ	-10.9681
ፈጥሮ	-10.9682
▁ዘጋጠሞም	-10.9683
▁65:2	-10.9684
▁ይመርሕ	-10.9684
ዘርግ	-10.9685
▁ማሕረ	-10.9685
▁ዝኸይድ	-10.9685
▁5:9	-10.9689
▁ዚድግፍ	-10.969
▁ወለድ	-10.9695
▁600	-10.9699
ርከቦ	-10.97
▁11:5	-10.9704
▁ይሁ	-10.9708
ሃንቀውታ	-10.9718
▁ኺርእዩ	-10.9718
ርኣያ	-10.9719
▁እትርእዮ	-10.972
▁ካም	-10.9724
▁ከናፍ	-10.9736
▁ከናፍር	-10.9747
ርታዕ	-10.9748
▁ኺህልዎም	-10.9749
ዚብል	-10.9756
▁72	-10.9756
400	-10.9758
▁ኣሓዝ	-10.976
▁ይሓትት	-10.9761
ጋጥመና	-10.9763
ጠረ	-10.9766
-16	-10.9769
ኣታቶም	-10.9771
ራቢ	-10.9774
▁ጌራ	-10.9778
▁ኽንርእዮ	-10.9784
▁ጸጋም	-10.9788
▁ተገብረ	-10.9811
ደቀ	-10.9827
ይኰንኩምን	-10.9831
▁ንሃዋርያ	-10.9839
በዓል	-10.9843
u	-10.9862
▁ትርጉሙ	-10.9862
▁ንምዝራብ	-10.9862
▁ንደቅኻ	-10.9862
▁ዮያቂም	-10.9862
▁ኣይትፍርሁ	-10.9862
▁ሕሩያት	-10.9862
▁ሳምራዊ	-10.9862
▁ንጻድቕ	-10.9862
▁እተሓላለኸ	-10.9862
▁ኣይትግበሩ	-10.9862
▁ኺህበና	-10.9862
▁ደርሆ	-10.9862
▁ፖሊስ	-10.9862
▁ዜሕፍር	-10.9862
▁ፍሽኽ	-10.9862
▁መሳፍንት	-10.9862
▁ኣኻውሕ	-10.9862
ሕድረል	-10.9862
ወዳድር	-10.9862
በቍል	-10.9862
▁ሰፈራ	-10.9862
በኽዩ	-10.9862
ነስተውዕል	-10.9862
ዝክሩ	-10.9862
▁በኸየ	-10.9862
▁ኣስተውዒ	-10.9862
▁ከማኻ	-10.9862
▁መሳርሒ	-10.9863
ምልጡ	-10.9863
▁ብዓመጻ	-10.9863
▁ድንኳናት	-10.9863
▁ስልማት	-10.9863
▁ኣሕወዮ	-10.9863
▁ዜዕግብ	-10.9863
ሃንጹ	-10.9864
ወግዶ	-10.9864
▁ርስቶም	-10.9864
▁ድንኳኑ	-10.9864
እትዉ	-10.9865
▁ሲሶ	-10.9868
ሕባእ	-10.9868
ጠምዩ	-10.987
▁22:37	-10.9874
▁ሜላታት	-10.9876
▁እናዓበየ	-10.9876
ተማህረ	-10.9877
ነዓቕ	-10.9877
▁ሕሳብ	-10.9877
▁ክንምርምር	-10.9879
ጸንዑ	-10.988
ፈስስ	-10.9882
▁ረቛሒታት	-10.9882
▁ንርእሰይ	-10.9886
▁ኣየነይ	-10.9887
▁ስሒር	-10.9893
▁ዚምህሮ	-10.9894
▁ኪእከቡ	-10.9902
▁እትገብርዎ	-10.9904
▁ክብር	-10.9904
▁ሜላ	-10.9907
እዝዝ	-10.9916
▁ብዝበለ	-10.9929
▁ኣውጽኦ	-10.9934
ውስኑ	-10.9934
▁1:6	-10.9936
ነማስወሉ	-10.9938
ወረዱ	-10.9939
▁መደረታት	-10.9939
▁ልሳ	-10.9945
▁ኪቕመጥ	-10.9949
▁ገም	-10.9953
▁ዚጠቅም	-10.9957
ጕልበ	-10.9958
ጠንቂ	-10.9959
▁5:5	-10.9963
▁ጸላእተይ	-10.9964
▁ኣይትበል	-10.9964
▁ዕድሚ	-10.9971
▁ኪርእይዎ	-10.9972
ልዑላውነት	-10.9974
▁ንነብር	-10.9984
በላሽዎ	-10.9986
ኪህሉ	-10.9992
ፈርህዎ	-10.9998
▁ኽብል	-11.0002
▁6:3	-11.0009
ተቐትሉ	-11.0021
▁ሕማ	-11.0022
▁ኺርኢ	-11.0022
▁ረኸቦ	-11.0029
ድልዮም	-11.003
▁ንኣፍ	-11.0038
▁ሓላፍነ	-11.0041
▁ብገለ	-11.0043
ጠንቂቑ	-11.005
በደል	-11.006
-25	-11.006
ሓትቶ	-11.0064
ልቦም	-11.0066
▁ምንጻ	-11.0068
▁ዚዓዪ	-11.0071
▁ዚመውት	-11.0081
-28	-11.0088
▁ዚጥቀም	-11.009
▁ዚበልዕ	-11.0095
▁ኣይቀ	-11.0101
ተወሳኺ	-11.0104
መያየ	-11.0107
ብሃሉ	-11.0108
ዛራረቡ	-11.0112
▁መጻምድቲ	-11.0112
▁ኣመለኻኽዓ	-11.0112
▁ኣቓልቦ	-11.0112
▁እተቘምጥዐ	-11.0112
▁ፍልልያት	-11.0112
ግሪኻውያን	-11.0112
▁ቁጥዐ	-11.0112
▁ጀሚሮም	-11.0112
▁ብጥሜት	-11.0112
▁ኣይትብልዑ	-11.0112
ተሓጋገዝ	-11.0112
▁እሴይ	-11.0112
▁1-3	-11.0112
▁ኬጥፍኣ	-11.0112
▁ማሕተም	-11.0112
ውድሰካ	-11.0112
▁ሓወልቲ	-11.0112
▁ይደልየና	-11.0112
▁ኣንስቶም	-11.0112
▁ሕሩይ	-11.0112
▁ተሰማሚዖም	-11.0112
▁ብምንባብ	-11.0112
▁መሊኣ	-11.0113
▁ዘይብልካ	-11.0113
▁ብዘለዎ	-11.0113
:5-7	-11.0113
▁ኺህሉ	-11.0114
በርቲዖም	-11.0114
▁ህሞት	-11.0114
ሓልፉ	-11.0115
▁ንወደይ	-11.0115
ፈተኑ	-11.0115
▁ፍርያት	-11.0116
▁ቅርጺ	-11.0116
ዓጽድ	-11.0117
▁ጀመረት	-11.0118
▁ብሰናይ	-11.0119
▁ንምባል	-11.0121
በርትዖ	-11.0122
▁መስቀል	-11.0123
▁ዝገበርኩ	-11.0123
▁ዝቐተለ	-11.0123
▁ኣትሒዘ	-11.0124
▁ኣብዑር	-11.0126
▁ኣሓዝያ	-11.0127
7:4	-11.0129
ኣመነ	-11.0134
▁ዘንግታ	-11.0135
▁ክትገብሮ	-11.0143
▁ክትመጽእ	-11.0143
▁ንዳንኤል	-11.0146
▁ዜእቱ	-11.0148
▁58	-11.0151
▁ዕዮኦም	-11.0155
▁ዘፍቅሮ	-11.0156
▁እተመሃር	-11.0161
▁ይውሰ	-11.0161
▁6:13	-11.0169
▁ንኺድ	-11.0172
ድምጺ	-11.0172
ስተዩ	-11.0182
▁ኺብሉ	-11.0184
▁ዝሰምዕዎ	-11.0196
▁ኺወጽእ	-11.0196
ሕለፍ	-11.0197
▁ንስምካ	-11.0203
▁ሔት	-11.0204
ቕይር	-11.0209
▁ይሕግዞም	-11.0213
ባዕሉ	-11.0214
▁ሓደጋታት	-11.0215
ሃራ	-11.0217
▁ሕልናና	-11.022
▁1:12	-11.0223
▁10,000	-11.0225
ካፍሎ	-11.0235
▁ብልዑ	-11.0237
ጋድ	-11.0241
▁ፍለጡ	-11.0244
▁ኣፕ	-11.0247
ፈተነ	-11.0266
▁መርኣ	-11.0266
▁ይሰርሕ	-11.0267
ልለ	-11.0276
▁ዝጸሓ	-11.0287
▁ተሰሪ	-11.0289
▁ናጽነ	-11.0306
▁ዚፍጽም	-11.031
▁ቝጽ	-11.0312
▁ንምውሳ	-11.0312
▁ዚህብዎ	-11.0316
▁የሐጕሰ	-11.0316
ጭዋ	-11.032
ሓፈሻ	-11.032
▁ዝሰረ	-11.0339
▁መናፍስት	-11.0342
▁ወለዶም	-11.0342
ሩኽ	-11.0348
ዓመት	-11.0358
▁ድሕር	-11.0365
ቸ	-11.0368
የጠራጥር	-11.0368
▁$2	-11.0368
▁መጥባሕቲ	-11.0368
▁ሚያዝያ	-11.0368
▁ምክልኻል	-11.0368
▁ብመንፈሱ	-11.0368
▁ብምውሳድ	-11.0368
▁ታሕተዋይ	-11.0368
ስተብህሉ	-11.0368
▁መራኸቢ	-11.0368
▁ንሄዋን	-11.0368
-29	-11.0368
▁ብተኣምራ	-11.0368
▁ነነዌ	-11.0368
▁ጃፓን	-11.0368
▁ርዱእ	-11.0368
ጠቕመካ	-11.0368
▁ኣይሰማዕ	-11.0368
ተኣዘዙ	-11.0368
▁ብዘረባ	-11.0368
▁ብምብራቕ	-11.0368
▁ዝደለዮ	-11.0368
▁ንምምላስ	-11.0368
▁ይሓስቡ	-11.0368
▁ዘውጽኣ	-11.0368
ምልሰሉ	-11.0368
ዘራርቦ	-11.0368
▁ንምርኣይ	-11.0368
▁ዓወታት	-11.0368
▁ፈታው	-11.0369
ምስርት	-11.0369
ብርትዕ	-11.0369
▁ምሁራት	-11.037
▁ንኸንቱ	-11.037
አይ	-11.0372
▁ቕጫ	-11.0372
▁ኣቕርን	-11.0373
▁ኼገልግሉ	-11.0373
▁ጽሓፍ	-11.0373
▁ኣውያት	-11.0373
ባረኽ	-11.0373
▁ደዌ	-11.0376
ሰምዓኒ	-11.0377
መያየጥ	-11.0377
▁ተቐብረ	-11.0377
▁ንሰናይ	-11.0377
▁ደቅኹም	-11.0379
▁ልዕለይ	-11.0379
ክእል	-11.038
▁ቐረበ	-11.038
መስግንዎ	-11.0381
▁3:1-5	-11.0382
▁ዘሕለፍ	-11.0382
▁ምእንታኹም	-11.0389
▁ክንጽዕር	-11.0391
▁ዚመርሑ	-11.0392
ነጽንዕ	-11.0392
▁ሓቀኛታት	-11.0393
▁ኣከብ	-11.0396
▁ኺርአ	-11.0396
ከሓድ	-11.0396
ትወልድ	-11.0397
▁ዚብሃ	-11.0398
ሓጥኡ	-11.0401
ሕግታተይ	-11.0405
ሓሳባ	-11.041
▁ራማ	-11.041
▁ኺነብር	-11.0413
▁ብጻይካ	-11.0415
-8	-11.0415
ጽበዮ	-11.0417
▁ይመጹ	-11.0426
ዓበይቲ	-11.0428
ዘክር	-11.0429
▁ተቐቢሉ	-11.043
▁ረኣየት	-11.043
▁ምእንታይ	-11.0432
▁15:13	-11.0436
▁ኪዛረቡ	-11.0438
▁ዚሕሉ	-11.044
▁ዋና	-11.0441
▁ሒዝካ	-11.0442
ጌጋ	-11.0443
▁ደብዳበታት	-11.0449
▁ተፈጸመ	-11.0456
▁ኣቕሑኡ	-11.0457
▁ኣየድልየ	-11.0459
▁3:18	-11.0463
ፍቀር	-11.0466
ሓለዉ	-11.0468
▁መንበር	-11.0468
▁ጸላእትኻ	-11.047
▁እትብሎ	-11.0473
▁ኣዕጽምቲ	-11.0473
ጽናሕ	-11.0475
▁ብስሕተ	-11.0484
▁ሰብነቱ	-11.0485
▁ይበልዑ	-11.0491
▁ወፊ	-11.0496
▁ኺወስድ	-11.0502
▁እብል	-11.0507
▁ኢል	-11.051
ፍራህ	-11.0521
ዅራ	-11.0522
▁ይጠፍእ	-11.0527
▁የብሎ	-11.0537
▁ማክ	-11.0541
ለኹም	-11.056
ሰድዶ	-11.0577
▁ኣቦኣ	-11.0577
▁ኣዘዞ	-11.0577
▁ዓማ	-11.0594
ፈቶ	-11.0607
:3-5	-11.0613
ተዋህቦም	-11.0613
▁11:4	-11.0614
▁ነው	-11.0625
ትሓዝ	-11.0626
ርእሶም	-11.0628
መሓየሽ	-11.0631
▁ሔስቦን	-11.0631
▁ምንቅስቓስ	-11.0631
▁ምውህሃድ	-11.0631
▁ምድላዋት	-11.0631
▁ብቕጽበት	-11.0631
▁ብትእዛዝ	-11.0631
▁ቪታሚ	-11.0631
▁ኔዘርላንድ	-11.0631
▁ንዅነታት	-11.0631
▁ንጻድቃን	-11.0631
▁ዘተስፈወ	-11.0631
▁ይዝርኤል	-11.0631
▁ጽድቃዊ	-11.0631
▁ፊደላት	-11.0631
ውዕዉዕ	-11.0631
▁ሸማዕያ	-11.0631
▁ንድሕነት	-11.0631
▁ካልአይ	-11.0631
ሰማምዑ	-11.0631
▁ምግባሩ	-11.0631
▁ተጠቐም	-11.0631
▁ደንገጸ	-11.0631
▁ኺሕልዉ	-11.0631
▁ሕቡእ	-11.0631
▁ዝደረኾ	-11.0631
▁ብሱላት	-11.0631
▁ዘይኰንኩ	-11.0631
▁ሓላፊ	-11.0631
▁ሕድገ	-11.0631
▁ጸወታ	-11.0632
▁ድሕንነት	-11.0632
▁ኣፍላግ	-11.0632
▁ወሲዳ	-11.0632
▁ስብሕ	-11.0632
ብውልቂ	-11.0632
▁ንጡፍ	-11.0632
▁ዝጨና	-11.0632
ሰጕጉ	-11.0632
ጐልበ	-11.0633
ልዕሎ	-11.0633
እውጅ	-11.0633
▁ዚሕልዉ	-11.0633
▁ተነበ	-11.0633
ውቃዕ	-11.0633
ጥቅዕ	-11.0633
ፊሊም	-11.0634
ቕይሮ	-11.0634
▁ድሕነተይ	-11.0634
ንፍጽም	-11.0635
▁ኪቕበሉ	-11.0636
▁ሓቲቱ	-11.0636
▁ኣድልዎ	-11.0637
▁እተላእከ	-11.0638
ጽሑፍ	-11.0638
▁ንህዝብኻ	-11.0639
ፍሒ	-11.064
▁ክገብረ	-11.0642
▁ምስታፍ	-11.0642
▁ስእለ	-11.0642
▁ፍልቀ	-11.0643
▁ነገረ	-11.0645
ኣሚኑ	-11.0646
▁ተፈጥሮ	-11.0649
▁እንጽዕር	-11.065
ዀንና	-11.0651
▁ዘዳለወ	-11.0653
▁ነህ	-11.0655
▁ተቐቢሎም	-11.0656
▁ዝኾኑ	-11.0657
ሕልፎ	-11.0661
▁እተሓትመት	-11.0662
▁የኽእለና	-11.0663
▁ኣርኣያ	-11.0665
▁ሓሰር	-11.0667
▁ተዛረቡ	-11.0672
▁ሃደመ	-11.0675
ረብሕ	-11.0676
▁ዓባይቶ	-11.0678
▁ምዕዶ	-11.0682
▁ሓዝዎ	-11.0683
▁ቲቶስ	-11.0684
▁ተመላለሱ	-11.0686
ምንባሮም	-11.0688
▁ቝጽጽ	-11.0689
▁5:21	-11.0689
▁ሕልናኦም	-11.0696
▁ሓጢኣትኩም	-11.0697
▁ኣበለ	-11.0697
▁ባዕላ	-11.0702
1914	-11.0704
ረኸብክዎ	-11.0705
▁ግብሮም	-11.0706
ማልኡ	-11.0707
ዓየሉ	-11.0708
▁እምነትኩም	-11.0711
▁ንግዳ	-11.0711
ረኣኹ	-11.0713
▁ኣካላ	-11.0713
▁ኺሕግዘና	-11.0716
▁8:9	-11.0716
▁ኣልይዎ	-11.0724
▁1:19	-11.0724
ገሶ	-11.0725
▁ቀቢ	-11.0725
▁ንጽህናኡ	-11.0732
▁ምሁ	-11.0736
ኽበር	-11.0739
ፍርዲ	-11.0739
▁ዚሕግዞም	-11.0743
▁መርበ	-11.0752
▁መንነት	-11.0767
ገልግሉ	-11.0767
ውሕጦ	-11.077
▁ዝሃብዎ	-11.0775
▁ብምዕ	-11.0775
▁1:20	-11.0779
▁ይምህር	-11.0793
▁ሰዓብዎ	-11.0795
ስትሪ	-11.08
▁ዚገብረ	-11.0803
ነፍስ	-11.0804
▁መርዓት	-11.0808
▁ደምበ	-11.082
▁ዕየ	-11.083
▁ዓቕም	-11.0833
▁ኣመሃህራ	-11.0833
▁ንሰማዕ	-11.0835
ነወ	-11.0849
ቝጸሩ	-11.0864
▁ዔላ	-11.0866
▁መሰውኢታት	-11.089
▁ዓዱ	-11.0891
▁ተፈቒዱ	-11.0901
c	-11.0901
ተርጒማ	-11.0901
▁መጋረጃ	-11.0901
▁ሙዚቓ	-11.0901
▁ሚጽጳ	-11.0901
▁ቈራጽነት	-11.0901
▁ብህጹጽ	-11.0901
▁ብምግላጽ	-11.0901
▁ብጥንቃቐ	-11.0901
▁ትራክት	-11.0901
▁ንስርዓታት	-11.0901
▁ንሽማግለታት	-11.0901
▁ኣረጋውያን	-11.0901
▁ኣሰራርሓ	-11.0901
▁ጀመርኩ	-11.0901
I	-11.0901
▁ኣማራጺ	-11.0901
▁ኣረጋገጸ	-11.0901
▁ጥንቈላ	-11.0901
ምርዓዉ	-11.0901
▁144,000	-11.0901
▁ኣቕሽሽ	-11.0901
ቘረጹ	-11.0901
▁ኣጽዋሩ	-11.0901
▁ጭቈና	-11.0901
▁ሰበይተይ	-11.0901
▁እተዓርዳ	-11.0901
▁ጨደሩ	-11.0901
ዕንቀፍ	-11.0901
▁ዘቕረበ	-11.0901
ገንዘቡ	-11.0901
▁ንኻህን	-11.0901
▁ባላቅ	-11.0902
▁ግንዛበ	-11.0902
▁ኣእትዩ	-11.0902
▁ገፈፍ	-11.0902
▁ተንከዮ	-11.0902
▁እተቐደሰ	-11.0902
▁ጭድርታ	-11.0902
ነጽህ	-11.0902
▁ግዝኣቱ	-11.0902
ደሪኾም	-11.0902
▁ዝረአ	-11.0902
▁ድሩት	-11.0903
▁ጥሪቱ	-11.0903
ጸናንዖ	-11.0903
▁ምእማን	-11.0904
▁ተሓጒሶም	-11.0905
▁ጡፍ	-11.0905
▁ብጹኣ	-11.0906
ያእቆብ	-11.0906
ስርሓት	-11.0907
▁እተኣከቡ	-11.0907
▁መሲሉ	-11.0908
ቐርጾ	-11.0908
ተማህሩ	-11.0908
▁መስመር	-11.091
▁ዚኽሕ	-11.091
ፍትሑ	-11.0912
▁24:3	-11.0912
▁ንዝዀኑ	-11.0914
እትወ	-11.0914
ሓድጉ	-11.0915
▁ሃልሃልታ	-11.0915
▁እንኸውን	-11.0916
ብዙሕ	-11.0916
▁ጸውዖ	-11.0922
ሰምዖም	-11.093
▁24:15	-11.0943
▁ሕቘ	-11.0946
▁ንእዮብ	-11.0951
ተሓሓዝ	-11.0958
ዘንቱ	-11.0958
▁3:21	-11.096
▁5:23	-11.096
▁ንምፍ	-11.0962
▁15:19	-11.0963
▁ዝዓበየት	-11.0963
▁ኪፍጸም	-11.0964
ርክስ	-11.0965
ምሳልያዊ	-11.0965
እተተሓሓዘ	-11.0966
ገላትያ	-11.0967
ስዕር	-11.0968
ብዘላ	-11.0968
▁ኢዳ	-11.097
▁ኽንብል	-11.0972
▁ብደበና	-11.0976
▁ይፈቱ	-11.098
▁ወሰነ	-11.0989
▁ኣልዒልካ	-11.0989
▁ኣብዚሑ	-11.0998
▁ስድራቤትካ	-11.0999
ነገልግል	-11.1002
▁ይጅምር	-11.1009
ኒዖም	-11.102
▁ቐዲ	-11.1021
▁ዘብዐኛታት	-11.1037
▁104	-11.1044
ተየ	-11.1049
ውሑ	-11.1055
▁ይርእይዎ	-11.1057
▁ደቀሰ	-11.1066
ፍስስ	-11.1067
▁ፈጺምና	-11.1069
200	-11.1076
ንጥንቀቕ	-11.108
▁ዜፍቅር	-11.1114
ለወን	-11.1115
11	-11.1116
▁ኪገብርዎ	-11.112
▁ዝሓገዞ	-11.1122
ነጺ	-11.1131
▁ኣሕሊፍ	-11.1131
▁ይወስድ	-11.1141
▁ሰብነትና	-11.1141
ህልው	-11.1143
▁ኣሰር	-11.1144
ሓብእ	-11.1147
▁ተላዒ	-11.1149
▁ሓረስቶት	-11.1179
▁ራዘርፎርድ	-11.1179
▁ብሪጣንያ	-11.1179
▁ተበጃዊ	-11.1179
▁ኣምጽአ	-11.1179
▁ዚምርኰስ	-11.1179
▁ፊንሃስ	-11.1179
▁ፕሮጀክት	-11.1179
መረዳእታ	-11.1179
ዕንቀፉ	-11.1179
▁ዜምልኽ	-11.1179
▁ብተስፋ	-11.1179
▁ይኹነል	-11.1179
▁ፍወሳ	-11.1179
▁ንጥበብ	-11.1179
▁መሰውእ	-11.1179
▁ብሑቝ	-11.1179
▁ኺበልዑ	-11.1179
▁ሰዒር	-11.1179
▁ፈሊጥና	-11.1179
▁ምምላስ	-11.1179
▁ዝሓደግ	-11.1179
▁ቅልጽ	-11.118
▁ብምትእምማን	-11.118
▁ቀተለ	-11.118
▁ግንቦት	-11.118
▁ፕሮ	-11.118
▁ንብዓት	-11.118
ልውጦ	-11.118
ሀብ	-11.118
▁ለበዳ	-11.118
▁ንኣተሓሳስባ	-11.118
▁መላገ	-11.1181
ኣምነሉ	-11.1181
▁ንሎጥ	-11.1181
▁ቆራሕ	-11.1182
ተወድአ	-11.1182
ፍጥነት	-11.1182
▁10:13	-11.1183
▁እተረጋገጸ	-11.1184
▁ዝስዕብ	-11.1186
▁ፈሊጠ	-11.1186
▁ሰገዱ	-11.1189
▁ኣትሪ	-11.119
▁ኼድሕ	-11.1191
▁ልዕሌኻ	-11.1193
▁ቡን	-11.1194
▁⁠1	-11.1196
▁ተነበየ	-11.1198
▁ጸዓት	-11.1204
▁ዜሐጕሶ	-11.1205
መባጽ	-11.1206
▁ሕግታቱ	-11.1207
▁ትርኢቱ	-11.121
▁ብሓቅ	-11.1213
ምካሕ	-11.1213
▁ዘምጽኣ	-11.1213
ሓንሳብ	-11.1213
▁ውድባት	-11.1219
የርእዩ	-11.122
▁ተጠንቂ	-11.122
▁እንፈልጥ	-11.1222
ሓሲቡ	-11.1224
ንርስዕ	-11.1224
▁ንስሓ	-11.1227
▁ሰብነትኩም	-11.1227
▁ኣውራ	-11.1228
▁ዝኸደ	-11.1229
▁ደፊ	-11.1232
▁6:11	-11.1232
▁ንገጽ	-11.1233
▁ምሓዝ	-11.1234
▁መርዓዊ	-11.1235
▁ኽንስዕብ	-11.1235
▁ዝሓገዞም	-11.1237
▁ሕቝ	-11.1239
▁ጠሚ	-11.1246
ነተኵር	-11.1246
▁17:17	-11.1249
ድዮ	-11.125
ድልድል	-11.1252
▁15:28	-11.1253
ራቒ	-11.1254
▁11:13	-11.1256
▁ስማ	-11.1259
ርዳድ	-11.126
ርናዕ	-11.1261
▁ክትፈልጥ	-11.1267
▁ኰታ	-11.1268
▁ዝጸለ	-11.127
▁6:18	-11.1278
ደሞም	-11.1281
▁ቝራ	-11.1282
▁ዝመልአት	-11.1292
▁1:26	-11.1294
ርሕቐ	-11.1303
ብግዜኡ	-11.1307
ብለሉ	-11.1313
ርድኣና	-11.1319
▁ይህቡ	-11.132
99	-11.1322
▁ጸጋኡ	-11.1334
▁መሪሕ	-11.135
ፈትሕ	-11.1354
ቕየር	-11.1355
ኽትገልጽ	-11.1358
▁ምኽር	-11.1359
ማች	-11.1367
ይገልጸልና	-11.1385
-24	-11.1395
▁ሰሙና	-11.1407
ፈትሓ	-11.1423
ጸውዖም	-11.1445
ተወልዱ	-11.1449
ኮር	-11.146
▁ሌዋ	-11.1461
▁ሃጸያዊ	-11.1465
▁ምዕራፋት	-11.1465
▁ስብእና	-11.1465
▁ተጠቐመሉ	-11.1465
▁ንመንእሰያት	-11.1465
▁ዌልካም	-11.1465
▁ዘይኣማኒ	-11.1465
▁ይኽእላ	-11.1465
▁ፈይስቡክ	-11.1465
ምዝርራብ	-11.1465
ቊ	-11.1465
▁መኽደኒ	-11.1465
▁መጋረዲ	-11.1465
▁ሰበይትኻ	-11.1465
▁ብኣሽሓት	-11.1465
▁ተቓውሞ	-11.1465
▁ተበግሶ	-11.1465
▁ተኸዲኖም	-11.1465
▁ንሓጥኣን	-11.1465
▁ኣስተዋጽኦ	-11.1465
▁ዝለኣኾ	-11.1465
▁ጥርጣረ	-11.1465
-37	-11.1465
▁ተረኺቡ	-11.1465
ዕምቈት	-11.1465
▁ስቅያት	-11.1465
▁እተኸድነ	-11.1465
▁ተዘርዚ	-11.1465
▁ዘምጽኦ	-11.1465
▁መሊስካ	-11.1465
▁ዝኣዘዝኩ	-11.1465
▁ተባዓት	-11.1465
▁መሰንቆ	-11.1465
▁ናእዳ	-11.1465
▁ኣናግፈ	-11.1465
ሰጐጎም	-11.1465
▁ኸይከውን	-11.1465
▁ኣማስያ	-11.1465
▁በይነይ	-11.1465
▁ዅርባ	-11.1465
▁እተዘርበ	-11.1465
▁ኣገልግሎቶም	-11.1465
▁ውሑዳ	-11.1465
▁ዜግነት	-11.1465
▁ፈራዶ	-11.1465
▁ዓለወኛታት	-11.1465
ነጀው	-11.1465
▁ለመንዎ	-11.1465
▁መሶብ	-11.1466
ውስኸሉ	-11.1466
▁ኣምጽኦ	-11.1466
▁በሪኽ	-11.1466
▁ሓጋይ	-11.1466
▁መመገ	-11.1466
▁ማሕጸን	-11.1466
▁መሊሰ	-11.1466
▁ኣበርቲዕ	-11.1466
▁ኣኪቡ	-11.1466
▁ኪሕልዉ	-11.1466
ቕልበሉ	-11.1466
▁መስከረም	-11.1467
▁ዓባስ	-11.1467
ካየድ	-11.1468
▁ጐድናዊ	-11.1468
▁ኣጣል	-11.1469
▁ክፉት	-11.1469
▁ናዝራ	-11.1469
▁ብግብር	-11.1469
▁ባንክ	-11.147
በላሹ	-11.1471
▁ብኣካል	-11.1471
▁ኣንበረ	-11.1471
▁ፈረቓ	-11.1472
ስውኡ	-11.1472
▁ዮርክ	-11.1473
▁ቘሪጽ	-11.1474
▁ከንቱነት	-11.1476
▁ጠባይ	-11.1476
ስሕብ	-11.1477
▁ተፈጢሩ	-11.1478
▁ኽንመስሎ	-11.1479
ሳቐዩ	-11.1484
▁ታሽ	-11.1487
▁ትፈቱ	-11.1491
▁መርኣያ	-11.1497
▁ጕዳ	-11.1502
▁ዜብሉ	-11.1503
▁ኺመጹ	-11.1503
▁ኣንስተይቲ	-11.1508
▁ዘይጠቅም	-11.1508
▁ወንጌላት	-11.1509
▁ዚፈርህዎ	-11.1509
▁ዝሕብር	-11.1517
▁ትርከብ	-11.1518
▁ሓብተይ	-11.1523
▁ርኽ	-11.1523
▁ክነብር	-11.1525
▁ገበል	-11.1527
▁ዚእከቡ	-11.1528
▁8:21	-11.1528
▁4:14	-11.1531
ውዋ	-11.1533
▁6:23	-11.1533
▁9:11	-11.1534
▁ዝገበረቶ	-11.1535
▁6:19	-11.1536
▁17:9	-11.1537
▁ኺመላለሱ	-11.1543
▁ዓስብ	-11.1546
ዕንጨይቲ	-11.1547
ጊልዓድ	-11.1547
▁ኺህበካ	-11.1548
ኣባላት	-11.1551
▁14:6	-11.1559
▁7:14	-11.156
▁ጕዕ	-11.156
ልግሲ	-11.1565
ልዓሉ	-11.1568
▁ንእኡ	-11.157
▁ትሑ	-11.157
ኻበይ	-11.1571
▁2:19	-11.1574
▁እተነግረ	-11.158
▁ዝወፈ	-11.1581
ty	-11.1584
▁ይብሎም	-11.1585
▁ዚእመን	-11.1587
▁ይገበር	-11.1589
▁ዚፈርሁ	-11.1601
▁ይፍለጥ	-11.1605
▁ቀዲ	-11.1613
▁103	-11.1615
ፍትኖ	-11.1619
ዛውያን	-11.1623
▁ጻሕ	-11.1628
▁ኣልዩና	-11.1636
▁ኣገደ	-11.1659
ቕርበሉ	-11.1666
6:1	-11.1671
▁ውሉዳ	-11.1675
▁ኸይደ	-11.1675
▁ዘየለ	-11.1675
9:7	-11.168
▁ገለጸት	-11.1688
ዓርግ	-11.1691
ድሕረይ	-11.1699
▁ጐረባብ	-11.172
-23	-11.1721
▁ጋት	-11.1728
ሊሳ	-11.1739
ድሎ	-11.1743
መልኣ	-11.1745
▁ቂርያት	-11.1759
▁ህውከት	-11.1759
▁መዐንቀፊ	-11.1759
▁መዘከርታ	-11.1759
▁ራብዐይ	-11.1759
▁ቅፍርናሆም	-11.1759
▁ብምጥቃም	-11.1759
▁ብትኽክል	-11.1759
▁ትእዛዛተይ	-11.1759
▁ንኣረኣእያ	-11.1759
▁ንኻህናት	-11.1759
▁ኣህጉራዊ	-11.1759
▁ኣንጾክያ	-11.1759
▁እፎይታ	-11.1759
▁ወጋሕታ	-11.1759
▁ዓርክኻ	-11.1759
▁ዘገልገለ	-11.1759
▁ደርብይዎ	-11.1759
▁ጉጅለ	-11.1759
▁ግቡዛት	-11.1759
▁ጫውጫው	-11.1759
▁ፍልስጥኤማዊ	-11.1759
E	-11.1759
▁ሓጢኣተይ	-11.1759
▁መጐልበቢ	-11.1759
▁ምምርማር	-11.1759
▁ኽትፈልጡ	-11.1759
▁ሕጻናት	-11.1759
▁ሙማቱ	-11.1759
▁ቁጠባ	-11.1759
▁ንቝጥዓ	-11.1759
▁እሾዅ	-11.1759
▁ዘምሩሉ	-11.1759
▁ድሉዋት	-11.1759
▁ንእኩይ	-11.1759
▁ዕጣቕ	-11.1759
▁ሰሚዕኩም	-11.1759
▁ብወገን	-11.1759
▁ንመጓሰ	-11.1759
▁ኪውሃበ	-11.1759
▁ብኸንቱ	-11.1759
▁ኽኢሎም	-11.1759
▁ዑዝያ	-11.1759
▁ምሃቡ	-11.1759
▁ዝምልከት	-11.1759
▁ዝወረደ	-11.1759
▁ንኤሊ	-11.1759
▁ድምጸይ	-11.176
▁ዜጋታት	-11.176
▁ህጻን	-11.176
▁ዓለወ	-11.176
▁ንምንባር	-11.176
▁ንንጽህና	-11.176
▁ክኢሉ	-11.176
:2-4	-11.1761
ሕልውዎ	-11.1761
▁ፈቲኻ	-11.1761
ምቕያር	-11.1761
▁ፍርያም	-11.1761
▁ላሜ	-11.1761
ትፍጽም	-11.1762
0:2	-11.1763
ቀበርዎ	-11.1763
▁ኰዀ	-11.1763
▁በናያ	-11.1764
ንደቕ	-11.1766
▁ኩናት	-11.177
▁መሰረታ	-11.177
▁ህዝበ	-11.1771
7:12	-11.1775
▁ኺሕግዘካ	-11.1776
እዚ	-11.1778
▁ወይለኦም	-11.1778
▁ገባር	-11.1779
▁ከነንብብ	-11.1781
▁ዜጸናንዕ	-11.1782
▁ሕደግዎ	-11.1784
▁ንቕዱሳት	-11.1784
▁ሓምለ	-11.1784
ተሓላለ	-11.1786
▁ዘጥረ	-11.1787
ጕዳእ	-11.1788
ዳሞት	-11.1788
▁ብልሽውና	-11.179
▁ሮማዊ	-11.1791
▁5:13	-11.1793
▁ትመጽእ	-11.1796
▁ኣውጽኣሉ	-11.1797
▁እተፍቅሮ	-11.1801
▁6:17	-11.1802
▁ዚጽበዮ	-11.1803
▁ያህ	-11.1803
▁11:3	-11.1805
ነፍሰይ	-11.1815
▁መቓና	-11.1818
▁መንግስተይ	-11.1819
ጽቢ	-11.182
▁ኪትንስኡ	-11.182
▁ኣቕረቦ	-11.1821
ንየው	-11.1824
ሰርቕ	-11.1826
▁ይሕጐሱ	-11.1827
▁ይገልጹ	-11.1833
▁ዝጀመ	-11.1838
▁ኪምለሱ	-11.1839
ቈሎ	-11.1842
▁ኪገልጽ	-11.1842
▁9:6	-11.1846
▁ምድርና	-11.1848
▁የድል	-11.1848
▁5:6	-11.1849
▁መብጽዓታት	-11.185
ፊልጲ	-11.185
ጽሩይ	-11.1851
▁ብስምካ	-11.1858
▁ንነብዪ	-11.186
▁3:20	-11.1876
▁ይውሰድ	-11.1882
▁ሰደዶ	-11.1884
▁8:4	-11.1884
ወቕዖም	-11.1885
▁መትከ	-11.1893
▁ይጽዕር	-11.1893
ጠቐሰ	-11.1893
:6-8	-11.1894
▁ይዝክር	-11.1904
ጐዪ	-11.1904
▁ኪጠፍእ	-11.1905
▁ኸፈተ	-11.1919
▁ዚሰምዑ	-11.192
ብቂ	-11.1923
▁ብመጠ	-11.1927
ርእየካ	-11.1951
▁ምልኣ	-11.1976
▁ኪጥቀ	-11.1983
ምልሱ	-11.1983
ሕዛ	-11.1992
5,000	-11.1996
▁ዕረፍ	-11.2008
ፈትል	-11.2018
▁ዝኸድ	-11.2021
▁መጀመር	-11.2037
▁ሓደጎ	-11.2037
ደገፍ	-11.2042
▁ውሽጣ	-11.2048
▁ማዓልቲ	-11.2062
▁ሲምሶን	-11.2062
▁ብህድኣት	-11.2062
▁ብምግልጋል	-11.2062
▁ተዛራባይ	-11.2062
▁ተጻራሪ	-11.2062
▁ኒሞንያ	-11.2062
▁ንምእታው	-11.2062
▁ንጥቕም	-11.2062
▁ኣመለኻኽታ	-11.2062
▁ኣደማምጻ	-11.2062
▁ሽልማት	-11.2062
▁ተመላለሰ	-11.2062
▁ዝተንስአ	-11.2062
▁ፈጺሞም	-11.2062
▁ፍቑራት	-11.2062
▁ሃብታማት	-11.2062
▁ንምድላው	-11.2062
▁ንትሑት	-11.2062
▁ሸዀና	-11.2062
▁ነድረይ	-11.2062
▁ተላዕለ	-11.2062
▁ኣይከኣልን	-11.2062
▁መደባት	-11.2062
▁ተኣሲሩ	-11.2062
▁ፈራዲ	-11.2062
ቘጽሩ	-11.2062
▁ገላዎይ	-11.2062
▁ኣኽናፍ	-11.2062
▁እተዓርደ	-11.2062
ሕደገልና	-11.2062
▁ዝጸንሐ	-11.2062
መሓይሽ	-11.2063
▁መልእኽትታት	-11.2063
▁ነፍሱ	-11.2063
▁ኮይና	-11.2063
▁ጉዳይ	-11.2063
▁እምነታት	-11.2063
▁ኣተኲ	-11.2063
▁ኣንጻረይ	-11.2064
▁ሰላሳ	-11.2064
▁ብስምዒታ	-11.2064
ይሕብረና	-11.2065
▁ተመባጺዑ	-11.2065
ምቕታል	-11.2066
ሕግዛ	-11.2067
ስኣሎ	-11.2067
▁ዳሕራይ	-11.2067
▁ማእለ	-11.2068
▁ንምምላእ	-11.2069
▁2013	-11.2069
▁እተንብቦ	-11.207
▁መዕቘ	-11.2074
▁ነዌ	-11.2083
ጸርፉ	-11.2083
▁ምውዓል	-11.2084
▁ዘመልክት	-11.2085
▁ብምሓዝ	-11.2088
▁ብምስምማዕ	-11.209
▁ካርድ	-11.2097
ግብዝና	-11.2098
▁1919	-11.2098
▁ኺጥቀሙ	-11.2098
ሰምሮ	-11.2098
ብዙሓት	-11.2101
▁ክንሓስብ	-11.2103
▁ትደልዩ	-11.2103
ምህራ	-11.2105
▁ፊልምታት	-11.2107
▁ከምጽእ	-11.2107
ነመስግኖ	-11.2108
▁ዝገበረልና	-11.211
▁ካርታ	-11.2114
ፍሮን	-11.2115
▁ዝኣበ	-11.212
ኣርባዕ	-11.2128
ረድኡ	-11.2128
ስፍሕ	-11.213
▁ህዝብ	-11.2132
በርህ	-11.2132
▁ትረክብ	-11.2135
ደለኹ	-11.2139
▁4:19	-11.2139
▁ዚወሃብ	-11.2141
▁ሓልዎ	-11.2141
እው	-11.2147
ሕለፎ	-11.2148
ሬድ	-11.2148
ምፍቃድ	-11.2148
▁ይግብኦም	-11.2151
ሰሶ	-11.2155
▁ዚፈቱ	-11.2155
ልኣኹ	-11.2158
▁ይመለስ	-11.2162
:48	-11.2162
ተገልግል	-11.2163
ዓሰርተ	-11.2165
▁ኣልዩካ	-11.2169
▁ዝመስል	-11.2169
ጽኣሎም	-11.2171
ገሊኡ	-11.2172
▁4:18	-11.2173
ለግብ	-11.2178
ዘለዉ	-11.2188
▁ነጊ	-11.2194
ሸጡ	-11.2198
ባሕሪ	-11.2199
▁ጐይ	-11.2208
▁ኣርእየ	-11.2211
:7-9	-11.2213
ስሕት	-11.2216
ማዕረ	-11.2245
መርሑ	-11.2246
ንጸባረቕ	-11.2261
ኽፍል	-11.2271
ኸብር	-11.2273
ኽእሉ	-11.228
▁ብብሕት	-11.2281
▁ዚርእዩ	-11.229
ተባብዖ	-11.2298
▁በሊዕ	-11.2313
ጋጠመ	-11.2331
ዝሕል	-11.2336
▁ምቕራ	-11.2355
ተጠቕመ	-11.2358
▁እተጠቕመ	-11.2364
▁እናበል	-11.2366
-32	-11.2369
ጩ	-11.2374
▁መአረምታ	-11.2375
▁መወከሲ	-11.2375
▁መዕቈቢ	-11.2375
▁መጽሔታት	-11.2375
▁ሚልክያስ	-11.2375
▁ቘላሕታ	-11.2375
▁ብታሕጓስ	-11.2375
▁ንብምሉኡ	-11.2375
▁ንብጻይና	-11.2375
▁ንነብያት	-11.2375
▁ኣስፋሕፊሑ	-11.2375
▁ኣእላፋት	-11.2375
▁እስራኤላዊ	-11.2375
▁ኽንከይድ	-11.2375
▁ዜተኣማምን	-11.2375
▁ዝመጻእኩ	-11.2375
▁ጉዕዞ	-11.2375
▸	-11.2375
▁ምጅማር	-11.2375
▁ዝተንከየ	-11.2375
▁ዝኣተዉ	-11.2375
▁ጋላክሲ	-11.2375
▁ፈቒዱ	-11.2375
▁ሓሲብካ	-11.2375
▁ምምጻኡ	-11.2375
▁ፋሉል	-11.2375
of	-11.2375
ምትሕብባር	-11.2375
▁ንኣቦታትኩም	-11.2375
▁መጥምቕ	-11.2375
▁ንምዉታት	-11.2375
▁መትሓዚ	-11.2375
▁ሰነዳት	-11.2375
ጥቅዑ	-11.2375
▁ኣይትኽእሉን	-11.2375
▁ኽትኰኖ	-11.2375
▁ይብለኒ	-11.2375
▁ጽያፍ	-11.2375
▁ወፈራ	-11.2375
▁መዓይይ	-11.2375
▁ነቦኡ	-11.2375
▁ተሪፉ	-11.2375
ጠራጠር	-11.2375
er	-11.2375
▁ሓይለይ	-11.2375
ጋጮ	-11.2375
▁ዘድሊ	-11.2376
ግዕዝ	-11.2376
▁ሕሩድ	-11.2376
▁እምነቱ	-11.2376
▁ቢልዮ	-11.2376
▁ንጸጋ	-11.2376
▁እርጋን	-11.2376
▁ፍሪኣ	-11.2377
▁ይሕጸብ	-11.2377
▁ዚውክል	-11.2378
ፈትውዎ	-11.2378
▁ብሕጂ	-11.2378
ፈጸሙ	-11.2379
▁ዕትሮ	-11.238
▁ገጠር	-11.238
መሓደር	-11.238
ራኸቡ	-11.2381
▁ኬጥፍኦ	-11.2383
▁ኣይደለየ	-11.2383
▁ፍቕረ	-11.2383
▁ዝኸኣ	-11.2383
▁ንጓና	-11.2383
ጥዕም	-11.2384
ጸድቕ	-11.2385
▁ሓሰበ	-11.2386
▁ተድላ	-11.2387
▁ቄናን	-11.2388
▁ዜብጽሕ	-11.2389
▁ኣዳልዩ	-11.2389
▁ሸለል	-11.2392
▁ተራኺ	-11.2393
▁ነጊርዎ	-11.2393
▁ዝደለይዎ	-11.2393
▁ሓጻር	-11.2396
መሪሑ	-11.2396
ምርመር	-11.2396
▁ብምልእ	-11.2396
▁ዘይኮነ	-11.2397
▁ባዕሳ	-11.2397
▁ምድርኻ	-11.2406
ፍረድ	-11.241
▁እንጥቀመሉ	-11.2411
▁ገይር	-11.2412
ውዕልዎ	-11.2417
▁ፍትሕ	-11.2419
▁ኺወጹ	-11.2426
▁ክትገብሩ	-11.2428
▁እልልታ	-11.2428
▁ኽትጥቀመሉ	-11.2432
▁18:21	-11.2432
ቛንቋ	-11.2433
▁ክንህብ	-11.2439
▁ሰበኽ	-11.2447
▁ዝበላ	-11.2465
▁ማእከላ	-11.2468
ዳውያን	-11.2468
▁ይሰብኩ	-11.2471
▁15:22	-11.2471
▁ዚዀነና	-11.2471
▁ደድሕሪኡ	-11.2474
▁ርስት	-11.2485
6:4	-11.2486
ፍትኑ	-11.2487
▁ይቐርብ	-11.2488
ዝሓሸ	-11.2494
ተሓዝ	-11.2498
▁ዜጸግ	-11.2499
ሓማታ	-11.2503
▁ፍርድ	-11.2515
▁ሃባ	-11.2527
ደሃይ	-11.2534
ኣሓሽ	-11.2535
ነግራ	-11.2538
ክትራኸብ	-11.2548
:17-19	-11.2559
ነገልግሎ	-11.2563
:14-16	-11.2603
ረፍቲ	-11.2608
▁ልዕሌ	-11.2612
▁ኺህቦ	-11.2619
▁መላእኽ	-11.2637
▁ኣርዑ	-11.2642
4:2	-11.2646
▁ዚቕበል	-11.2652
ሓው	-11.2664
▁ባዕላት	-11.2666
▁ይግባ	-11.2669
ቐዲሞም	-11.2671
ዝምር	-11.2674
ንኣድ	-11.2674
▁ልዕለ	-11.2683
ኾኑ	-11.269
▁ተፈጢ	-11.2692
▁ሃዋህው	-11.2697
▁ሆስፒታል	-11.2697
▁ሒልቅያ	-11.2697
▁ምትዕርራያት	-11.2697
▁ስፖርት	-11.2697
▁ብሕያውነት	-11.2697
▁ንምርግጋጽ	-11.2697
▁ንእንስሳታት	-11.2697
▁ንክርስትያናዊ	-11.2697
▁ወግዓዊ	-11.2697
▁ገሃነም	-11.2697
▁ተንኰል	-11.2697
▁ንወለዶም	-11.2697
-38	-11.2697
▁ማዕበላት	-11.2697
▁ብንጹህ	-11.2697
▁ዝደፍአ	-11.2697
▁ምሕጋዝ	-11.2697
▁ክህበኩም	-11.2697
▁ህድኣት	-11.2697
▁ምሕዝነት	-11.2697
▁ዝከኣለ	-11.2697
ማልኣሎም	-11.2697
▁ጸዊዐ	-11.2697
▁ድፍረት	-11.2697
▁ለኣኹ	-11.2697
▁ረኣያ	-11.2697
▁ዝነኣሰ	-11.2697
▁ኽነሶም	-11.2697
▁መሓዙት	-11.2697
:12-14	-11.2697
▁ሩስያ	-11.2697
▁ጸውዓ	-11.2697
▁ኵምራ	-11.2697
ርስተያ	-11.2697
▁ነጋዶ	-11.2698
ወሃቦም	-11.2698
▁ኣጕሊ	-11.2698
ሰማምዓ	-11.2698
▁ባረኾ	-11.2698
▁ሓጎስ	-11.2698
▁ዝመሃረ	-11.2698
▁ላዕለ	-11.2698
▁ዝሃብክዎ	-11.2698
ተቘጥዐ	-11.2698
▁ብስለት	-11.2698
▁መልአ	-11.2698
▁ኣባትር	-11.2698
ኣግማድ	-11.2699
▁ዝወሰዶ	-11.2699
ምጥራይ	-11.27
▁ቘይ	-11.27
▁ምዕባይ	-11.2701
▁ኪሕዝዎ	-11.2701
▁ወኪል	-11.2702
▁ዝሓደገ	-11.2702
▁ዘይምዃኑ	-11.2704
▁መሲልዎ	-11.2704
▁ክሊማ	-11.2704
▁ዝሓሰብ	-11.2705
▁ምጽላይ	-11.2705
▁በበይኑ	-11.2705
▁24:45	-11.2705
ቐርቦ	-11.2706
▁ሕውነት	-11.2706
-34	-11.2707
ማሪኾም	-11.2707
ምምልካት	-11.2708
▁ጎጎ	-11.2708
ድምስሶ	-11.2709
▁ኣትሒዝ	-11.2709
▁ንህዝብታት	-11.271
ቐረቡ	-11.271
▁ዜለዓዕል	-11.271
▁ተዓጢ	-11.2713
▁መፍትሒ	-11.2714
▁ንውሉዳ	-11.2718
▁ዚቕበሎ	-11.272
▁ከተማታቶም	-11.2721
▁ሓልዉ	-11.2725
▁ስምዒታዊ	-11.2727
▁ይሰምዖ	-11.2728
ዕልል	-11.2732
መርጹ	-11.2732
▁ትድርኸና	-11.2734
▁ዚርከበ	-11.2734
▁ረጊ	-11.2735
▁ትዝክሮ	-11.2736
▁የፍቅር	-11.2738
▁መዓልት	-11.2744
▁ዘድልዮም	-11.2746
▁ወፈያታት	-11.2749
እምት	-11.275
▁6:33	-11.2756
▁ድሕረ	-11.2765
▁ዚጸልኦ	-11.2767
▁ኺኣትዉ	-11.2771
▁ኣውራጃታት	-11.2772
▁ዝዓረ	-11.2773
▁150	-11.2775
ተጽንዕ	-11.2777
ሃንጾ	-11.2783
ረድኣካ	-11.279
▁ዚወጹ	-11.2792
▁13:7	-11.2795
▁7:13	-11.2796
▁ዚሰብኩ	-11.2801
▁ዘይፈልጦ	-11.2802
ምጥቃስ	-11.2804
▁ሽደ	-11.2807
▁ዔላም	-11.2807
▁ጋዛ	-11.281
ንጸባረቐ	-11.281
▁ኪስዕቡ	-11.2812
▁ሰቦም	-11.2813
ውሽጣዊ	-11.2818
ተሓጐሱ	-11.2819
ምስጢር	-11.2821
ፍቓድ	-11.2821
ሒደት	-11.2831
▁መርትዖታት	-11.2837
ዓወት	-11.2846
ነበረ	-11.2863
ዕጫ	-11.2869
▁ህጹጽ	-11.2877
▁ዜፍቅረ	-11.2884
ሓርየ	-11.2887
198	-11.2887
▁ቅረ	-11.2916
ኽንርዳእ	-11.294
ቐተል	-11.2951
ረድኦ	-11.2953
ተዛረብዎ	-11.2978
▁18:4	-11.2983
ሰብር	-11.2986
▁ኣባይት	-11.299
17	-11.2995
700	-11.3002
ገልገል	-11.3007
▁ፍላጻ	-11.3008
▁ቅድመ	-11.3018
▁መንፈሳው	-11.3028
ሓጺር	-11.3029
ሜሌክ	-11.303
ንጸባርቑ	-11.303
▁ምቍጽጻር	-11.303
▁ንድያብሎስ	-11.303
▁ንጢሞቴዎስ	-11.303
▁ኣእዳወይ	-11.303
▁ኣየንበብኩምን	-11.303
▁ዚሕግዘካ	-11.303
▁ብምክፋል	-11.303
▁ውጽኣት	-11.303
▁ዝበዝሐ	-11.303
-35	-11.303
Y	-11.303
d	-11.303
ከታተል	-11.303
▁ለጋሳት	-11.303
▁ቃዴስ	-11.303
▁ቐለቤት	-11.303
▁ኣዕሩኹ	-11.303
▁ካሌብ	-11.303
ትርስተይዋ	-11.303
▁ኣውጺእ	-11.303
▁ዘይግባእ	-11.303
▁ሲሆን	-11.303
▁ግሁድ	-11.3031
▁ዝሓገዘ	-11.3031
▁ንቓላት	-11.3031
ንፋቐር	-11.3031
▁ለምጻ	-11.3031
▁ምሕረቱ	-11.3031
▁ዘየድሊ	-11.3031
▁ተሰዊሩ	-11.3031
ሽፍኖ	-11.3031
▁ሕርሻ	-11.3031
▁ጽሬት	-11.3031
▁ሚካኤል	-11.3031
▁ንረብሓ	-11.3031
ጻወሩ	-11.3031
▁ዜጥፍኣ	-11.3031
▁ዘገርም	-11.3031
▁ዚጸልኡ	-11.3031
▁ቀተልዎ	-11.3031
▁ስቡር	-11.3031
▁ብምሕታት	-11.3031
ተዓርቕ	-11.3031
▁ቐምሽ	-11.3031
▁ንልበይ	-11.3031
▁ጤል	-11.3031
ግበረላ	-11.3031
▁ሲዶን	-11.3032
ቘጽረ	-11.3032
▁ተጠቒምና	-11.3032
ተመዝገበ	-11.3032
ዘኻኸ	-11.3033
▁ወስኽ	-11.3033
▁ንገረኒ	-11.3033
ግደሱ	-11.3033
ጽጋዕ	-11.3033
ግምቶ	-11.3033
▁ኣንብሮ	-11.3033
▁ዝሸሞ	-11.3033
ይተወልደ	-11.3034
▁ምውሳን	-11.3034
▁ንኣቦታቶም	-11.3034
ድምድም	-11.3034
ወቕዑ	-11.3035
ደርብዮ	-11.3035
ርሕቁ	-11.3037
▁ዚዀኖ	-11.3037
ድቅሱ	-11.3037
▁ዝነገሮ	-11.3038
▁በደሎም	-11.3038
ኣሚኖም	-11.3038
▁ነጊሱ	-11.3038
▁ንምጥፋእ	-11.3038
▁መላግቦ	-11.3041
▁በቤት	-11.3041
ሕድሮ	-11.3042
▁ጉቦ	-11.3043
መጣጠ	-11.3044
▁ጭቃ	-11.3044
▁ኣዒንትና	-11.3046
▁ጥራዩ	-11.305
▁ጓለይ	-11.3052
▁ኣንቢሩ	-11.3053
▁ፍላጻታት	-11.3053
▁ነጊረ	-11.3056
▁መንግስትኻ	-11.3058
ርከበ	-11.3061
▁14:1	-11.3061
ፉዓት	-11.3063
▁ኣጋጠመ	-11.3064
▁ብምርካ	-11.3065
▁እትደልዮ	-11.3065
▁20:35	-11.3066
▁90	-11.3068
▁ንጉባኤታት	-11.3069
▁ኪዋግኡ	-11.3076
▁መፋር	-11.3082
▁ፈቐደ	-11.3086
▁ትገብሩ	-11.3087
▁ኣውሪ	-11.3088
▁ኽንህብ	-11.309
ረኸብናዮ	-11.3093
ኽፈተ	-11.3097
ንእስነትካ	-11.31
እዮብ	-11.3102
ባሩኽ	-11.3104
▁ኣዒንትን	-11.3105
▁ኺግለጽ	-11.3106
▁ኣቦታትካ	-11.3106
▁ኣእምሮኦም	-11.3107
▁ልባ	-11.3111
▁ይበልጽ	-11.3114
ጨፍ	-11.3116
▁ዘይደሊ	-11.3116
▁16:9	-11.3118
▁ርእየዮ	-11.3119
▁መሓለ	-11.3122
▁ክመጽእ	-11.3123
ሓውዩ	-11.3126
▁ክትወስድ	-11.3126
▁ኣይፈልጦ	-11.3139
▁ኣዘዝ	-11.3141
ረድእ	-11.3142
▁ክትህብ	-11.3142
▁ቤል	-11.3145
ፍትሒ	-11.3153
ክተር	-11.3154
▁ቍጥዓይ	-11.3162
መጽናዕቲ	-11.3168
ሃዋርያቱ	-11.3168
ቨር	-11.3174
ምግቡ	-11.3181
ሓያል	-11.319
ዝራእ	-11.3194
ምፍላይ	-11.3198
▁ዘመድ	-11.3201
ቻር	-11.3208
▁ዝህቦ	-11.3209
▁ጣኦታ	-11.3247
ንምለስ	-11.3259
▁ኣውጽኣት	-11.3265
ምሕር	-11.3275
▁ቅንዕ	-11.3289
ኸድኩ	-11.3292
ጽውዕዎ	-11.3293
▁ይጽበ	-11.3302
ዘይብሉ	-11.3306
▁መዛግብ	-11.331
197	-11.3312
▁ዜኽእለ	-11.3313
▁ተባዕ	-11.3313
▁ከጋጥ	-11.3319
:16-18	-11.3324
▁ተሰማሚዕ	-11.3326
ጻረር	-11.3327
▁ተዋህቦ	-11.3332
▁ዚሰፍ	-11.3332
ይሓደገ	-11.3336
ኣዘዝክዎ	-11.3336
▁ሓበረ	-11.3342
▁ተመርዓ	-11.3352
ድልየና	-11.3357
▁ነገራ	-11.3359
▁እንግሊዝ	-11.3374
b	-11.3375
መሓላለፍ	-11.3375
▁መቄዶንያ	-11.3375
▁መዕረፊ	-11.3375
▁መግናሕ	-11.3375
▁ምህላው	-11.3375
▁ምህናጽ	-11.3375
▁ሞኣባውያን	-11.3375
▁ርኹሳት	-11.3375
▁ሽወደናውያን	-11.3375
▁ቅልውላው	-11.3375
▁ቘራጽነት	-11.3375
▁ብትንሳኤ	-11.3375
▁ተቘጢዑ	-11.3375
▁ተጠቀምቲ	-11.3375
▁ንምትብባዕ	-11.3375
▁ንኣቤሴሎም	-11.3375
▁ኣዋልዶም	-11.3375
▁ኣውስትራልያ	-11.3375
▁ጀሚርካ	-11.3375
▁ገንሸላት	-11.3375
▁ጉዳያት	-11.3375
▁መፍትሕ	-11.3375
▁ሳዕቤኑ	-11.3375
▁ባክተርያ	-11.3375
▁ተቐማጦ	-11.3375
▁ተፈጺሙ	-11.3375
▁ድኹማት	-11.3375
▁ፈቃራት	-11.3375
▁ቅቱላት	-11.3375
▁ዕቡያት	-11.3375
▁ረዳኢ	-11.3375
▁ስኽራን	-11.3375
▁ዮሓናን	-11.3375
▁ቃላተይ	-11.3375
▁ጨካናት	-11.3375
▁ቈርበት	-11.3375
▁ዕንወት	-11.3375
▁ስፍሓት	-11.3375
▁ብፍታዎም	-11.3375
▁ቅብኢ	-11.3375
ረጋገጽ	-11.3375
▁መስዋእቱ	-11.3375
▁ረኸብኩ	-11.3375
▁ቃላቱ	-11.3375
▁ብዕሉግ	-11.3375
▁ሳንቲም	-11.3375
▁ፈጢርዎ	-11.3375
▁ምስጢራት	-11.3375
▁ርሒቑ	-11.3375
▁ውጥናት	-11.3375
ይቕሬታ	-11.3375
▁እሱራት	-11.3375
ዛራረብ	-11.3376
▁ኬቕንዕ	-11.3376
ተጸውዐ	-11.3376
▁ኣፍቅሩ	-11.3376
▁ዘውጽኦም	-11.3376
▁ምሂርዎ	-11.3376
▁ሓሽሽ	-11.3376
▁ኪቐትሉ	-11.3376
▁ሓሳባቱ	-11.3376
▁ኬገልግልዎ	-11.3376
ልምንዎ	-11.3377
▁ወሲደ	-11.3377
▁ቅልስ	-11.3377
ጸናንዑ	-11.3377
▁ኣይሰምዑን	-11.3377
▁ቀትሪ	-11.3377
▁በገና	-11.3378
▁ዅላትኩም	-11.3378
▁ሰመዮ	-11.3379
▁ንሰብኣይ	-11.338
▁ኪህብዎ	-11.3381
▁ንሓዳር	-11.3381
▁ሕሱም	-11.3382
ልምኑ	-11.3382
ውድስዎ	-11.3383
ወስዳ	-11.3383
▁መሳዅ	-11.3386
ምውጋድ	-11.3387
▁ብምዝራብ	-11.3387
▁ኽትበልዕ	-11.3389
ዕቈብ	-11.3389
ይተሓጸብ	-11.3389
▁እስያ	-11.3389
▁ዘገልገል	-11.339
ለብስ	-11.339
▁ራእያት	-11.3391
▁ንትምህርትታት	-11.3392
▁ቐተሎ	-11.3394
ይከኣልኩ	-11.3394
▁ኣመኑ	-11.3395
-40	-11.3395
▁ደፊኡ	-11.3398
▁15:2	-11.3399
▁ዳኛ	-11.3402
▁ኺነግስ	-11.3408
▁ምዕባለታት	-11.341
▁ጸሎተ	-11.3413
▁ምረጽ	-11.3414
▁ሓዲሩ	-11.3416
▁የሕር	-11.342
:21-23	-11.342
▁ኽንዛረብ	-11.3421
▁ኪወድቁ	-11.3434
▁ረቢ	-11.3435
ማርኽ	-11.3442
▁ሳራይ	-11.3444
▁ዚፈልጥዎ	-11.3447
▁ኣይኰነ	-11.3448
▁ኣቢላ	-11.3449
▁ምትሕ	-11.3455
▁ኣቢለ	-11.3463
:47	-11.3476
▁ምድር	-11.348
▁ኽትርእዮ	-11.3483
ጥንቀቕ	-11.35
ብዝሕ	-11.3509
3:4	-11.3511
በልክዎም	-11.3516
ምስትንታን	-11.352
ምእካብ	-11.352
▁ተቐበሎ	-11.3525
ደይቡ	-11.353
ጐድኦ	-11.3534
ገብረልካ	-11.3542
▁ሰጐጕ	-11.3544
ሰግድ	-11.3547
ትሪክ	-11.3549
4:1	-11.3559
ኣብዩ	-11.3565
▁ሓምሸ	-11.3566
ሰማዕትኻ	-11.3576
ሰደዶም	-11.3589
44	-11.3604
ባርኽ	-11.3611
ተኣመን	-11.3612
▁15:3	-11.3617
▁ሰዓቦ	-11.3634
ኪርከብ	-11.3662
▁እነርእዮ	-11.3669
▁ወንጌላ	-11.3678
:8-10	-11.3691
▁ኽህበ	-11.3705
እዝዘ	-11.3712
ተኵሩ	-11.3723
J	-11.3728
▁ተመባጺ	-11.3728
v	-11.3732
B	-11.3732
N	-11.3732
©	-11.3732
▁ሓሰማታት	-11.3732
▁ቴክኖሎጂ	-11.3732
▁ንመውስቦ	-11.3732
▁ንምክልኻል	-11.3732
▁ንፈጣሪ	-11.3732
▁ኣተዓባብያ	-11.3732
▁ኣዳራሻ	-11.3732
ሳይክሎ	-11.3732
▁መሰክሒ	-11.3732
▁ንምሩኻት	-11.3732
▁ኣወዓዕላ	-11.3732
▁ዝመሓለሎም	-11.3732
▁ዳግማይ	-11.3732
▁ርሓቑ	-11.3732
▁ንትሑታት	-11.3732
▁ዘይፈልጡ	-11.3732
▁ደዓውል	-11.3732
▁ፍጻሜ	-11.3732
▁ንእሽተይ	-11.3732
▁ተርሲስ	-11.3732
▁ኣይፈለጠ	-11.3732
▁ረአየ	-11.3732
▁በብስሞም	-11.3732
▁ዑናታት	-11.3732
▁ሽጋራ	-11.3732
▁ተረዲኡ	-11.3732
▁ሃዲሙ	-11.3733
▁መንግስታት	-11.3733
▁ጨናፍራ	-11.3733
▁ግብጻዊ	-11.3733
▁ሰብኣየይ	-11.3733
▁ገዚፍ	-11.3733
▁ከይከውን	-11.3733
▁ሒራም	-11.3733
▁ኣይነበር	-11.3733
▁ኣልዕሉ	-11.3733
▁ንዮኣብ	-11.3733
▁ፈቲኖም	-11.3733
▁ዝገበራ	-11.3733
▁ፍርድታተይ	-11.3733
▁ኪባርኸ	-11.3733
▁ዚበልዑ	-11.3733
ቓላቱ	-11.3733
▁ብምምሳል	-11.3733
▁መንቅብ	-11.3733
▁ኣፍቂር	-11.3733
▁ኣይገበረን	-11.3733
▁ዓራባ	-11.3733
▁ሓዲግካ	-11.3733
▁ሰሚዕና	-11.3734
ምሕዳግ	-11.3734
▁ሓወየ	-11.3734
መቕዘፍ	-11.3734
▁ዝበልካዮ	-11.3734
▁ኔራ	-11.3734
ዝከር	-11.3734
ምለጠ	-11.3735
▁መራሪ	-11.3736
▁በዳሂ	-11.3736
▁የድልየ	-11.3736
መማህር	-11.3736
▁ኣዲኣ	-11.3737
▁ንኹሉ	-11.3737
▁ድልው	-11.3737
▁መጻእኩ	-11.3737
▁ጨደረ	-11.3737
▁ሰፈራተን	-11.3738
▁ንምብጻሕ	-11.3738
▁ካራን	-11.3739
ትንክፎ	-11.374
▁ሓሲበ	-11.374
▁ምድርኹም	-11.374
▁ተደርበየ	-11.3742
▁ብምጽናዕ	-11.3742
▁ዚጸልዎ	-11.3742
▁ተቐበሉ	-11.3742
ሕድሩ	-11.3742
▁ጽላል	-11.3744
▁ንምስማዕ	-11.3744
▁ወገን	-11.3746
▁ሳይት	-11.3746
▁ንምርዳእ	-11.3747
▁ኣምሪ	-11.3749
▁ኽንተኣማመን	-11.375
ኪግበር	-11.3752
▁ፈሪሳ	-11.3752
▁ቈሪጽ	-11.3752
▁ኣለኺ	-11.3754
▁ምብዛ	-11.3758
▁ኽትነብር	-11.3759
▁ሱሳ	-11.376
▁ዝመሃሮ	-11.376
▁ተዋግኡ	-11.3761
ጋገዩ	-11.3762
▁ኸምጽእ	-11.3762
ሰፍር	-11.3764
▁ኣረድእ	-11.3766
▁ክትነብር	-11.3767
▁ክጽንበ	-11.3768
ሕልፉ	-11.3768
▁ኣሞጽ	-11.377
እተዉ	-11.3775
▁ኽትገብሩ	-11.3779
▁ኽንፈልጦ	-11.3781
▁ዘቤት	-11.3783
▁ፖል	-11.3785
▁መስኪ	-11.379
ልጠና	-11.3791
▁ጎል	-11.3792
▁ዚቕበልዎ	-11.3792
▁ኣይትፈልጥ	-11.3794
▁ረኸብና	-11.3822
▁ክሕግዘ	-11.3823
▁ዝሰበ	-11.3833
▁ኣይፈቐደ	-11.3843
7:10	-11.388
ትርጉም	-11.3891
ቈሎሴ	-11.3891
ትርጕም	-11.3892
ዜደንቕ	-11.3893
600	-11.3896
ኣርባዕተ	-11.3902
ሓሊፉ	-11.3904
ስዕሮ	-11.3907
ርሕቖ	-11.3919
ኤዶም	-11.3919
ንድዶ	-11.3926
ሪሖም	-11.395
ንብባ	-11.3981
ሓምም	-11.3982
ሃብዎም	-11.399
▁ዚንበ	-11.3996
70	-11.3998
▁ተኣምራ	-11.4
▁ቅሩ	-11.4004
▁ብነድ	-11.403
13	-11.404
▁ብመንፈሳው	-11.4064
ርከባ	-11.4067
▁ቅድሜ	-11.4081
ትዛረቦ	-11.409
▁ዘድልየ	-11.4092
ርክር	-11.4097
▁ማሕበረሰብ	-11.4103
▁ምምዝዛን	-11.4103
▁ምትዕርራይ	-11.4103
▁ሻድሻይ	-11.4103
▁በንተሽንተ	-11.4103
▁ባቢሎናውያን	-11.4103
▁ብመዓልትታት	-11.4103
▁ቫይረስ	-11.4103
▁ተማሂርና	-11.4103
▁ተደሪኽና	-11.4103
▁ኣምላኻዊ	-11.4103
▁ኣይኰንካን	-11.4103
▁ኣገባባት	-11.4103
▁ዕንጨይትን	-11.4103
▁ዕግርግር	-11.4103
▁ዖቤድ	-11.4103
▁የዘኻኽረና	-11.4103
ጼ	-11.4103
▁ርክባት	-11.4103
▁ሰሰሙን	-11.4103
▁ኣምጺእ	-11.4103
▁እተጠምቀ	-11.4103
▁ዩኒቨርሲቲ	-11.4103
▁ጋዜጣ	-11.4103
▁ብተግባር	-11.4103
▁ተሃንጥ	-11.4103
ቀራረብ	-11.4103
▁ስኢኖም	-11.4103
ወዳደር	-11.4103
▁ተኸዲኑ	-11.4103
▁ተግባሩ	-11.4103
▁ጀሚረ	-11.4103
▁ባሪኹ	-11.4103
▁ዘኽእለ	-11.4103
▁ዝኸበደ	-11.4103
▁ቀሪቦም	-11.4103
▁ብምጽላይ	-11.4103
▁ኣይትኹኑ	-11.4103
▁ዕዉታት	-11.4103
▁ሕሱማት	-11.4103
▁ንሰብኡተን	-11.4103
▁ዝፈለጠ	-11.4103
▁ብሰሜን	-11.4103
▁ኪጽልዩ	-11.4103
▁ዝመደቦ	-11.4103
ባረኹ	-11.4103
▁ለክዖ	-11.4103
▁ውልቃ	-11.4103
▁ነፋሪ	-11.4103
▁ዶላር	-11.4103
ጓዓዝ	-11.4103
ጭድር	-11.4103
▁ኣማኸር	-11.4103
le	-11.4103
▁ዚከኣሎ	-11.4103
▁ዘፍቀረ	-11.4103
ምርምሩ	-11.4104
▁የለዉን	-11.4104
▁ኔሮም	-11.4104
▁ኣሪጉ	-11.4104
ርዝነት	-11.4104
▁ማዓካ	-11.4104
▁ኣእተዎ	-11.4104
▁ዚምለስ	-11.4104
▁ውሰዶ	-11.4104
▁ዝነገሰ	-11.4104
▁ሰረተ	-11.4104
▁እናኸደ	-11.4104
▁ዎች	-11.4104
ጥቅዖ	-11.4105
▁ንዕቀት	-11.4106
▁ዚውሃበ	-11.4106
ፈተወ	-11.4107
▁ብድሕሬኻ	-11.4109
ህንጠ	-11.411
▁ጀምር	-11.4111
ትህበና	-11.4112
▁ኣምሊ	-11.4113
▁ብምውዓል	-11.4114
▁ባድም	-11.4115
▁ተጠሚ	-11.4116
▁36:9	-11.4117
▁ተዋጊ	-11.4118
ይረክስ	-11.412
▁ፍርሒ	-11.4122
▁ኸነገልግል	-11.4122
ተፈልዩ	-11.4122
ባሃል	-11.4124
▁ኣልጊ	-11.4126
▁ጨካን	-11.4129
▁በርቂ	-11.4133
▁ወሲን	-11.4137
▁ንግስናኡ	-11.4137
ምሕላፍ	-11.4138
ሓይልና	-11.4138
▁ጐድኑ	-11.4144
ስሕቶ	-11.4144
▁እንኣምን	-11.4148
ሓጥአ	-11.415
▁ስርቂ	-11.4151
ፍጹም	-11.4155
ዝሑል	-11.4156
▁ጌሩ	-11.4157
▁ኬርእዩ	-11.4158
▁ሓባራ	-11.4159
ምሕሮ	-11.4164
▁ዮኤል	-11.4166
ዘክረ	-11.4172
▁የውጽእ	-11.4176
ራረበ	-11.4179
ሰዓር	-11.419
▁ፈረሰኛታት	-11.4201
▁ኣከቦ	-11.4208
ሰንፎ	-11.421
▁ጽሩ	-11.421
ይካኣል	-11.4217
▁ክህቦ	-11.422
▁ኣባጊ	-11.4225
▁ሓበረታ	-11.4232
ማቐል	-11.4233
ሰልጦ	-11.4236
ኽደኖ	-11.4252
5:20	-11.4252
ተባህለ	-11.4253
እዙዛት	-11.4274
ሸውዓተ	-11.4278
▁ክንህቦ	-11.4304
▁ተኸለ	-11.4308
ድርኸካ	-11.4311
▁ዘይፈልጥዎ	-11.4319
▁22:3	-11.432
▁እምባ	-11.4327
▁ወርሓ	-11.4361
▁ስርዓታ	-11.4376
ኸፍሎ	-11.439
▁ኼጋጥመ	-11.4396
ተሓለል	-11.4404
ኣሽቱ	-11.4427
ጸሓፋ	-11.4435
es	-11.4438
▁ንኣባጊ	-11.4447
መስግን	-11.445
ስምዕ	-11.4461
▁ንትምህርት	-11.4469
ምንጽብራቕ	-11.4487
ስፋሕፍሕ	-11.4487
ዘሩባቤል	-11.4487
▁መልክዐኛ	-11.4487
▁መገላግል	-11.4487
▁መጋቢት	-11.4487
▁ምጥማቕ	-11.4487
▁ሰዱቃውያን	-11.4487
▁ቀቅድሜ	-11.4487
▁ናዝሬት	-11.4487
▁ንቕድሚት	-11.4487
▁ንኣረጋውያን	-11.4487
▁ንደቅኹም	-11.4487
▁ንፍልስጥኤማውያን	-11.4487
▁ኣምጺኦም	-11.4487
▁ኣትኵሮ	-11.4487
▁ኣዋልዱ	-11.4487
▁ኪእዘዙ	-11.4487
▁ወተሃደር	-11.4487
▁ዘይቅኑዕ	-11.4487
▁ዝቝመቱ	-11.4487
▁ይቡሳውያን	-11.4487
▁መለለዪ	-11.4487
▁እተኸፍለ	-11.4487
▁ዝረሓቐ	-11.4487
▁ጕድለታት	-11.4487
-39	-11.4487
▁በረኸቱ	-11.4487
▁ኵርባታት	-11.4487
▁ተወሊዱ	-11.4487
▁ተቐሚጥ	-11.4487
▁እናወሰኸ	-11.4487
▁ግዙእ	-11.4487
▁ሰላማዊ	-11.4487
ነደልድል	-11.4487
▁ሰሌዳ	-11.4487
▁ንመጻኢ	-11.4487
▁ንምብራህ	-11.4487
▁ኦብድያ	-11.4487
▁ህዱእ	-11.4487
▁ነጌብ	-11.4488
▁ፍሉያት	-11.4488
▁ኤልቃና	-11.4488
▁ዘይኣመን	-11.4488
▁ሰዲዱ	-11.4488
ሸመሽ	-11.4488
▁ይነግር	-11.4488
▁መበለታት	-11.4488
ይተሓጐስ	-11.4488
▁መትረብ	-11.4488
▁ዕቡይ	-11.4488
▁ብምንጋር	-11.4488
▁ኣራእስ	-11.4488
▁ኣጽኒዖም	-11.4488
▁ኣርኖን	-11.4488
ጠቕሱ	-11.4488
ምኽፋል	-11.4488
ኣውቶቡ	-11.4488
▁ተታሒ	-11.4488
▁ዝምድና	-11.4488
▁ሰይፉ	-11.4488
ንድረኽ	-11.4489
▁ሓናንያ	-11.4489
▁ግሩም	-11.4489
▁ተጠቒምካ	-11.4489
▁ወራሲ	-11.4489
▁እተቐመጠ	-11.4489
▁ኣይመስልን	-11.4489
▁ይኹኖ	-11.4489
▁ሰሚዕካ	-11.4489
▁ሃናንያ	-11.4489
ዐርዮ	-11.4489
▁ሰውኡ	-11.4489
▁ተመሊስካ	-11.4489
ዘጋጥም	-11.4489
:24-27	-11.449
ጥሕሰት	-11.449
:20-22	-11.449
ww	-11.449
▁ኼድካ	-11.4491
▁ዚዕየ	-11.4491
▁እተቐበለ	-11.4492
▁ስዓብ	-11.4492
ማዕብሉ	-11.4492
▁ብኽያት	-11.4492
▁ኸነምልኾ	-11.4493
▁ምኽኣል	-11.4494
▁ዝሰፈረ	-11.4495
▁ኪጸልዎ	-11.4496
▁በብሓደ	-11.4497
▁ነዘርላንድ	-11.4498
▁ዜተኵሩ	-11.4498
▁ንምፍታሕ	-11.4499
▁በሊዑ	-11.4499
▁ዘንጊ	-11.45
▁ንዓመታ	-11.45
▁97:10	-11.45
▁ነጊሩ	-11.4501
▁ንድፊ	-11.4502
▁ሃጌ	-11.4502
▁ኽልቲ	-11.4503
▁ኸተገልግል	-11.4505
ማረኽ	-11.4506
ነጻጸር	-11.4509
▁ዘይረብሕ	-11.4509
ሓሰቡ	-11.4509
▁ነቐለ	-11.451
▁ገመል	-11.4514
▁ተግባራቶም	-11.4515
ቘርጽ	-11.4517
▁8:44	-11.4518
▁በልዐ	-11.4521
ፍስሶ	-11.4549
ጽምሉ	-11.4554
▁ብባህ	-11.4569
8:30	-11.4573
▁ኪህቦ	-11.4573
ትካእ	-11.4583
▁ይፍለ	-11.4602
ይንገብር	-11.4622
ዋረድ	-11.4628
ቄሳር	-11.4674
ዘጸኣት	-11.4675
መላእኽቲ	-11.4676
ወለዱ	-11.4681
ተወሰነ	-11.4693
ጓሂ	-11.4697
ኸምኡ	-11.4698
▁ነገረቶ	-11.4705
▁ተወልደ	-11.4718
▁ባዕል	-11.4726
ገዝኦ	-11.4729
▁ኸተቕር	-11.4733
ብልዓዮ	-11.4753
▁ኺፍጽም	-11.4772
ባጊዑ	-11.4798
ገበሮ	-11.4804
▁ቘሪ	-11.4805
▁ዚትንክ	-11.4811
▁ይሕግዘ	-11.4827
ተገልጸ	-11.4839
ተጻሕፈ	-11.4867
▁ዝገበርና	-11.487
ስቀል	-11.4876
g	-11.4887
ብንያማውያን	-11.4887
▁መነባብሮ	-11.4887
▁መንኰራዅር	-11.4887
▁ረዳእየይ	-11.4887
▁ሮቤላውያን	-11.4887
▁ብምሕጋዝ	-11.4887
▁ኣማሌቃውያን	-11.4887
▁ኣተሓሕዛ	-11.4887
▁ኣኽላባት	-11.4887
▁እተዓጥቁ	-11.4887
▁ክትፋቐሩ	-11.4887
▁ውዝወዛ	-11.4887
▁ዝረኣኻዮ	-11.4887
▁ዝረኣኽዎ	-11.4887
▁የቕርቡ	-11.4887
▁ድርኵዂ	-11.4887
▁ዘይከኣለ	-11.4887
▁መስተንክር	-11.4887
▁ምዝገባ	-11.4887
▁ባሪኽዎ	-11.4887
▁ንተግባር	-11.4887
▁ንናእሚ	-11.4887
▁ፕሮፌሰ	-11.4887
▁ብመገድታት	-11.4887
▁ተነቢሩ	-11.4887
▁ካባኺ	-11.4887
▁ዓቐበት	-11.4887
▁ብምእማን	-11.4887
▁ተሳትፎ	-11.4887
ምልሰሎም	-11.4887
ታሪኻዊ	-11.4887
▁ዝነበርካ	-11.4887
▁ጽምብላት	-11.4887
▁ተማሕጸኖ	-11.4887
▁ተኣሲሮም	-11.4887
▁ምዕያይ	-11.4887
▁ብምዃና	-11.4887
▁ምምላኽ	-11.4888
▁ኣብያታር	-11.4888
▁እልምነ	-11.4888
▁ተኣከበ	-11.4888
▁ዝደፍኡ	-11.4888
▁መዕቆ	-11.4888
▁በቦታ	-11.4888
▁ብፍቕር	-11.4888
ቕኑዓት	-11.4888
▁ዕዉት	-11.4888
ነጽጎ	-11.4888
▁ተዓዘብ	-11.4888
▁ተጓዕ	-11.4888
▁ክታበት	-11.4888
መስክር	-11.4888
▁ሙቐት	-11.4888
▁ኪምለስ	-11.4888
▁ዘዳለዎ	-11.4889
ነቅጽ	-11.4889
▁ዮታም	-11.4889
ምቕዳሕ	-11.4889
▁ዘይብለይ	-11.4889
▁ኣውጁ	-11.4889
▁ቱፋሕ	-11.4889
▁ዝቐለለ	-11.4889
▁ፍስሃ	-11.4889
▁ብጀካ	-11.4889
▁ኣቕሪብ	-11.489
▁ኣይመጸን	-11.489
▁ብሰይፍ	-11.489
▁ህደሙ	-11.489
▁በሊዖም	-11.489
▁ሓይሎም	-11.489
▁እተመሃርካዮ	-11.489
ሕደገሉ	-11.489
▁ተረፈ	-11.4891
▁ንኽንከውን	-11.4891
ዛባድ	-11.4891
ማጐት	-11.4891
ገትእ	-11.4891
▁ርኢኹም	-11.4891
▁ዝቐተሎ	-11.4893
▁ወረቐት	-11.4893
ነፍሑ	-11.4893
መዘኻኸሪታትካ	-11.4895
▁ኣሳእን	-11.4896
▁ንኽንገብር	-11.4896
ዘደንቕ	-11.4897
▁ንእስነተይ	-11.4897
▁ብሕልሚ	-11.4897
ርክሶ	-11.4898
ካይድ	-11.4898
▁ጥንቁ	-11.4898
▁ሰሪሑ	-11.4899
▁ኣናዲ	-11.4899
▁ኣትሒዛ	-11.4899
በስሮም	-11.4901
▁ኣምኖን	-11.4901
▁ዜርክስ	-11.4902
ፍለጡ	-11.4902
▁ንጓል	-11.4904
▁ኼሕልፍ	-11.4904
▁ሓብትና	-11.4905
▁መረቖ	-11.4906
▁የጋጥመና	-11.4907
▁ኣይትብላዕ	-11.4909
▁ምጽናዕ	-11.4913
▁ጸገነ	-11.4916
▁ቀልጢፈ	-11.4918
▁ክንሕግዞም	-11.492
▁ዓቃል	-11.4921
▁ናባጥ	-11.4924
▁ንኡስ	-11.4935
9:14	-11.494
ይመስሎም	-11.4949
ንስሑ	-11.4961
ውሕጥ	-11.4961
ኣልዮ	-11.4966
▁21:4	-11.497
▁ግዝኣታ	-11.4972
ቘጥዖ	-11.4975
▁ቀጥታ	-11.4982
:22-24	-11.4987
▁ዘይፍጹ	-11.5021
▁ዝፈቐደ	-11.5021
ፈለጦ	-11.5022
▁ፖስተ	-11.5023
ሚካል	-11.5033
ቶኽዎ	-11.5046
ክትጥቀመሉ	-11.5046
ቍጸር	-11.5049
ጀመርና	-11.5053
▁ዘይተፈቕደ	-11.5053
▁ዘይተመርዓ	-11.508
መክብብ	-11.5092
ኤልያስ	-11.5093
ኣራም	-11.5093
ስስዐ	-11.5098
ጸልማት	-11.5104
ሰብኣዊ	-11.5111
▁የረጋግ	-11.5123
ተመርዓዉ	-11.5125
it	-11.5133
ተመልሱ	-11.5162
ሃገርካ	-11.5164
:5-8	-11.5179
▁ጭንቀ	-11.5193
ርእየኩም	-11.5209
ግራም	-11.5214
▁ተዛሪብዎ	-11.5215
ልኤል	-11.5232
ፈቕደሎም	-11.5251
▁ኣውጽኣዮ	-11.5267
▁ፈለም	-11.5268
ለኽዎ	-11.5273
ጾሮ	-11.5282
▁ዮኤ	-11.5287
10:4	-11.5296
ኤላውያን	-11.5304
and	-11.5304
ኢዛቤል	-11.5304
ኣቢሜለክ	-11.5304
▁ምምዕባል	-11.5304
▁ስጉምቲ	-11.5304
▁ቀርሜሎስ	-11.5304
▁ብመሰንቆ	-11.5304
▁ብየማነይ	-11.5304
▁ትራቪስ	-11.5304
▁ትንቢታዊ	-11.5304
▁ንመብዛሕት	-11.5304
▁ንኣዕጽም	-11.5304
▁ኣስተውዓለ	-11.5304
▁ኣጻብዕ	-11.5304
▁ኤፍራጥስ	-11.5304
▁እናቐረብ	-11.5304
▁ካባታተን	-11.5304
▁ወለንተኛታት	-11.5304
▁ዘይእሙናት	-11.5304
▁ጽሟቕ	-11.5304
▁መሹላም	-11.5304
▁ምንጋጋ	-11.5304
▁ብትንቢት	-11.5304
▁ዝረኣይዎ	-11.5304
▁ያቤሽ	-11.5304
▁ዮኣሓዝ	-11.5304
▁ጽውጽዋ	-11.5304
▁ሃዲሞም	-11.5304
▁ሓንካሳት	-11.5304
▁ቕብኣት	-11.5304
▁መመላእታ	-11.5304
▁መጸናንዒ	-11.5304
▁ዅምራ	-11.5304
▁ረፋይም	-11.5304
▁ብምዕያይ	-11.5304
▁ተኸፊቱ	-11.5304
▁ዘጠቓለለ	-11.5304
▁ኣበርቲዑ	-11.5304
▁ተወሲዱ	-11.5304
▁ኣመናዝር	-11.5304
▁ኣእተወ	-11.5304
▁ቂሮስ	-11.5304
ሰልጠነ	-11.5304
▁ንእከይ	-11.5304
▁ቀያፋ	-11.5304
▁ተንከየ	-11.5304
ጥመቑ	-11.5304
▁ብብሩር	-11.5304
▁ተጠምቀ	-11.5304
▁ቀይዲ	-11.5304
▁ኪሓፍሩ	-11.5304
▁ግጭት	-11.5304
▁ነጐዳ	-11.5304
▁መገሻ	-11.5304
▁ዝሓየለ	-11.5304
▁ባቡር	-11.5304
▁ዝሓመመ	-11.5304
▁ቅንኣት	-11.5305
▁ዘርግሕ	-11.5305
▁ለበጦ	-11.5305
▁ዝስምዖ	-11.5305
መሓድሩ	-11.5305
ተኣመኑ	-11.5305
1943	-11.5305
▁ብምኻድ	-11.5305
▁ክምለስ	-11.5305
ጸናናዕ	-11.5305
▁ዝሰማዕካ	-11.5305
ተሳገሩ	-11.5305
ቕትለት	-11.5305
▁ኣይፈርህን	-11.5305
▁ሓለውት	-11.5306
▁ኣፍሰሰ	-11.5306
▁ዳርዮስ	-11.5306
ፍንፍኖ	-11.5306
ምሕጓስ	-11.5306
▁ቐደም	-11.5306
▁ቀሃት	-11.5306
ቃወሞ	-11.5306
▁ዚትንኪ	-11.5306
▁ሻሉም	-11.5306
▁መሲህ	-11.5306
ምሕጻብ	-11.5306
ኽልክል	-11.5307
▁መሪጽ	-11.5307
▁ሓዲግዎ	-11.5307
▁ኣይገብርን	-11.5307
▁ምርኢት	-11.5307
▁ኹኑ	-11.5307
▁ስሕተቶም	-11.5308
▁በጅነ	-11.5308
▁ዚኣኽ	-11.5308
▁ዘርኦም	-11.5309
▁ጠምት	-11.5309
ቘጽሮ	-11.531
ልግሱ	-11.531
ሃንጻ	-11.531
▁ብብርሃን	-11.531
▁መገድታቶም	-11.5312
▁ንምጽናዕ	-11.5313
▁ከካብ	-11.5313
▁እንጽበዮ	-11.5313
▁መድረኽ	-11.5315
▁ዘበልና	-11.5316
▁ጐራሕ	-11.5316
▁ከነፍቅሮ	-11.5318
▁ጠመቶ	-11.5319
▁ኣይትቕተል	-11.5321
▁ክረም	-11.5322
▁ዕላል	-11.5326
▁ዘርኣይዎ	-11.5332
ተኣዘዘ	-11.5344
ፍቀራ	-11.539
79	-11.5402
▁ዕላማታቱ	-11.541
ዚተሓሓዝ	-11.5427
▁ኬጋጥሞ	-11.5431
▁ዜብለ	-11.5433
ፍርሶ	-11.5435
ንበብካዮ	-11.544
▁ይመስለ	-11.5476
▁ዚፍት	-11.5484
▁እተሓድገ	-11.5514
ጰ	-11.5524
ዮሳፋጥ	-11.5526
ይንኸውን	-11.5526
ሰጐጕዎም	-11.5529
▁ዚሰምዖ	-11.5529
መልእኽቲ	-11.5532
ንድዚ	-11.5533
ነገራት	-11.5538
4:4	-11.554
መገድታቱ	-11.5568
:13-15	-11.557
▁13:2	-11.5575
▁እንኽእ	-11.5576
ምሉእ	-11.5589
▁ኺገብረ	-11.5598
ሰትዮ	-11.5606
ፈታዊኻ	-11.5673
▁ኣንስተይ	-11.5673
ጥፍአን	-11.5683
▁ይህቦ	-11.5686
መሃሮ	-11.5691
▁እተሰምዓ	-11.5701
ኸድኖ	-11.571
▁ክንተኣማመ	-11.5724
k	-11.5739
መድሃኒታት	-11.5739
ቕልውላው	-11.5739
ዘራረቡ	-11.5739
ጽሕፈልኩም	-11.5739
▁ሃንደበታዊ	-11.5739
▁ሃንደበት	-11.5739
▁መጻምድትኻ	-11.5739
▁ምቝራጽ	-11.5739
▁ምኵራባት	-11.5739
▁ስሕተተይ	-11.5739
▁ብርቱዓት	-11.5739
▁ብትዕቢት	-11.5739
▁ብኣረኣእያ	-11.5739
▁ብእልልታ	-11.5739
▁ንምትዕራቕ	-11.5739
▁ንፈተው	-11.5739
▁ኢትዮፕያ	-11.5739
▁ኢንደክስ	-11.5739
▁ኣማልኽቶም	-11.5739
▁ኣተስፍዩ	-11.5739
▁እተተርጐመ	-11.5739
▁Tra	-11.5739
▁በርትዐ	-11.5739
▁ብደቡብ	-11.5739
▁ኣቋረጸ	-11.5739
▁ኣዕዚዙ	-11.5739
▁ኣይነበረትን	-11.5739
▁ውሽጦም	-11.5739
▁ፍቑራተ	-11.5739
▁ተሓዲጉ	-11.5739
▁ኣውጺኦም	-11.5739
▁ኺምሃሩ	-11.5739
ሕምሽሽ	-11.5739
▁ሓድሕድ	-11.5739
▁ሲኦል	-11.5739
▁ንኣኼባ	-11.5739
▁ብሉጻት	-11.5739
▁ብልጽግና	-11.5739
▁ብምዕራብ	-11.5739
▁ንቘልዑ	-11.5739
▁መዝሙራት	-11.5739
▁ፈጢሩ	-11.5739
▁ደይኰኑን	-11.5739
▁ሃገሮም	-11.5739
▁ለባማት	-11.5739
▁ኢመይል	-11.5739
ምምርዓው	-11.5739
▁ለካቲት	-11.5739
ግዝእዎ	-11.5739
▁ተጓዒ	-11.5739
▁ዘይከኣሉ	-11.5739
▁ኣቐድም	-11.5739
ተማህለለ	-11.5739
▁ባሮቱ	-11.5739
▁ማራኺ	-11.5739
▁መጻወቲ	-11.5739
▁ቁስሊ	-11.5739
▁ብጻየይ	-11.5739
▁ዚወሃበ	-11.5739
ተሓባበር	-11.5739
▁ኣግራድ	-11.5739
▁ተፋሒ	-11.5739
▁ርሒቓ	-11.5739
▁ፈሊጥካ	-11.5739
እትውዎ	-11.5739
:11-14	-11.5739
▁ብስምዒት	-11.5739
▁ኣቕዋም	-11.5739
ደልደለ	-11.5739
▁ደኺመ	-11.5739
ጻወቱ	-11.5739
▁ንኣቦታትና	-11.5739
▁ምስትንፋስ	-11.5739
▁መርሚር	-11.574
▁ምዝካር	-11.574
ነቅሕ	-11.574
▁ፈራድ	-11.574
▁ኣይነብርን	-11.574
ምለጡ	-11.574
▁ይምለስ	-11.574
▁መሃሮም	-11.574
መሓደሩ	-11.574
ጽሕፉ	-11.574
▁እነርእየሉ	-11.5741
▁ውሑስ	-11.5741
▁ዚሽየ	-11.5741
▁ፈልዩ	-11.5741
▁ወሪድ	-11.5741
ንወስዶ	-11.5741
▁ዘይህሉ	-11.5741
▁እንተዳኣ	-11.5743
▁ቐላብ	-11.5743
ቕቡእ	-11.5743
▁ዘየቋርጽ	-11.5744
▁ኺጸልዎ	-11.5744
▁ንቓሉ	-11.5745
▁ኣሲሩ	-11.5746
▁መኪና	-11.5746
ጸናጽል	-11.5746
▁ዓቕመ	-11.5747
ይግደስ	-11.5748
▁ንልቡ	-11.5748
▁ኣቦታተይ	-11.5748
ቅዳሕ	-11.5749
▁ዝዘመ	-11.575
▁እኽሉ	-11.5751
ጋንዳ	-11.5753
▁ንምጽራ	-11.5753
▁እተዛረብኩ	-11.5754
▁ቐረጽ	-11.5754
▁ተገዚ	-11.5758
▁ብምምጻእ	-11.5761
▁ወድኺ	-11.5762
▁ኣይረኸብኩ	-11.5762
ሕውዮ	-11.5764
ደክም	-11.5767
ናድዩ	-11.577
ያኪን	-11.5782
▁ሰረገላታቱ	-11.5784
ተወገደ	-11.5784
ለማመ	-11.58
ተኣስረ	-11.5801
▁እተመደበል	-11.5818
ወለድና	-11.5818
▁ዚቐርበ	-11.5822
ለባም	-11.5854
ኣዘዝዎም	-11.5869
ሓብኦ	-11.5882
▁ኪሰትዩ	-11.5885
ዅላቶም	-11.59
▁ደይኰነ	-11.5916
ዳንኤል	-11.5933
ተጻዋርነት	-11.598
እብራይስጢ	-11.5981
▁ሓጢኣተኛ	-11.5986
ኣዝዩ	-11.5994
ልማድ	-11.5998
ኣካላዊ	-11.5998
ኸነሕድር	-11.6001
:4-6	-11.6034
ቀውም	-11.607
ልሳኑ	-11.6071
ዓበዩ	-11.6076
▁እተሓትመ	-11.614
▁ብንእስነ	-11.6164
▁መድረ	-11.6187
W	-11.6193
▁የላግጹ	-11.6193
መሓላልፎ	-11.6193
ፑ	-11.6193
▁Soc	-11.6193
▁To	-11.6193
▁Watch	-11.6193
▁መህረሪ	-11.6193
▁መጠምጠምያ	-11.6193
▁ምትእስሳር	-11.6193
▁ሰንከልከል	-11.6193
▁ቀልቀል	-11.6193
▁ቂሳርያ	-11.6193
▁ቕልጽም	-11.6193
▁ብድንጋጽ	-11.6193
▁ንመካበብያ	-11.6193
▁ንመጻምድትኻ	-11.6193
▁ንበዓላት	-11.6193
▁ንኣሕዋቶም	-11.6193
▁ንዓለምለኻዊ	-11.6193
▁ንዘኽታም	-11.6193
▁ኣረጋጊጹ	-11.6193
▁ኣወዳቶም	-11.6193
▁እተታሕዘ	-11.6193
▁ክንከይድ	-11.6193
▁ዜጨንቕ	-11.6193
▁ደንጓዪ	-11.6193
▁ቀሃታውያን	-11.6193
▁ኣደባባይ	-11.6193
▁ውቅያኖ	-11.6193
▁ሽግራት	-11.6193
▁ተገዳማት	-11.6193
▁ንነገስታት	-11.6193
▁ላኪሽ	-11.6193
▁ኸይተረፈ	-11.6193
▁ብልእመት	-11.6193
▁ብምሕሳብ	-11.6193
▁ፖሊሲ	-11.6193
▁ኬድሕነ	-11.6193
▁ኣቝጽል	-11.6193
▁ከይተሰከ	-11.6193
▁ዛጊት	-11.6193
▁ትሕጃ	-11.6193
▁ዂናት	-11.6193
ለዓዕሎ	-11.6193
▁ዝሓቘፈ	-11.6193
▁ተሓጐስ	-11.6194
▁ውድቀት	-11.6194
▁ሓሳቦም	-11.6194
▁ቍመቱ	-11.6194
▁ንውልቀ	-11.6194
ተባብዐ	-11.6194
▁ንጽዮን	-11.6194
▁መንሽሮ	-11.6194
▁ጐየየ	-11.6194
▁ትኳዕ	-11.6194
ተላእኩ	-11.6194
▁እተሸሙ	-11.6194
▁እዙዝ	-11.6194
ib	-11.6194
▁ዘይክኢ	-11.6194
▁ይጽልዩ	-11.6194
▁ሓሚሙ	-11.6194
▁ግራቱ	-11.6194
▁ወሊዳ	-11.6194
▁በኸዩ	-11.6194
▁ዜገድስ	-11.6194
ደፋፍኣ	-11.6194
▁ንዘረባ	-11.6194
▁ሰመያ	-11.6194
▁ኸበባ	-11.6194
▁ኣይትዕየ	-11.6194
ብሀል	-11.6194
▁ዘገዳም	-11.6194
ተግባሮም	-11.6194
▁ኣጥፍኣ	-11.6194
▁ዜገድሶ	-11.6194
▁ይምሕጸ	-11.6194
▁መሓዛ	-11.6194
▁ጠመተ	-11.6194
▁ንላባን	-11.6194
▁ንእምነቶም	-11.6194
▁ወቕዕዎም	-11.6194
▁ንምኻድ	-11.6194
▁ጋዳውያን	-11.6194
▁ኽኢሉ	-11.6194
ተመደብና	-11.6195
▁ንምንባብ	-11.6195
▁ዝወረስና	-11.6195
▁ብግብሩ	-11.6195
▁ለጋስ	-11.6195
▁ኣየልገ	-11.6195
▁ራሞት	-11.6195
መጻእካ	-11.6195
ዕወቱ	-11.6195
▁ኣይተርፍን	-11.6195
▁ዝወሰደ	-11.6195
▁ተቐራቢ	-11.6195
▁103:14	-11.6195
▁ኺውሃበ	-11.6195
ተዳሉ	-11.6196
▁ሔታውያን	-11.6196
ሕልወካ	-11.6196
▁ልኡማት	-11.6196
▁ኣንቢብካ	-11.6196
▁ኣስተብሂልካ	-11.6196
▁ዘሕዝን	-11.6196
▁ፕረ	-11.6197
▁ኔረ	-11.6197
▁ታማር	-11.6197
▁ተዳልያ	-11.6197
▁ዚጓዝ	-11.6198
▁ሻፋን	-11.6199
ስእኑ	-11.6199
▁ኣልዓለ	-11.62
ውፍዩ	-11.6201
▁ሃናጺ	-11.6201
ሰርቁ	-11.6202
▁ተመለስኩ	-11.6203
▁ስዒቦም	-11.6206
ቐምጦ	-11.6207
▁ገሊጻ	-11.6207
▁ዘይትፈልጦ	-11.6207
ሸላሕ	-11.6208
ሲላስ	-11.6209
▁ተማሕጺንዎ	-11.621
ልእኮ	-11.621
▁ዘይትፈልጥ	-11.6211
▁ኣኸለ	-11.6212
▁ዜዘኻኽ	-11.6212
ይጽበየና	-11.6212
▁ሑር	-11.622
ንነግር	-11.6223
ፍልጡ	-11.6223
ልግሶ	-11.6225
▁7:2	-11.6226
▁ይምዕ	-11.6226
▁ጋንታ	-11.6226
▁እተቐበሎ	-11.6254
ie	-11.6254
▁ኣቢልዎ	-11.6273
ርእየሉ	-11.6276
ቕተሎ	-11.6276
ስምዑ	-11.6277
▁ብጾታ	-11.6285
ብርሆ	-11.6302
ምጽኣት	-11.6307
▁ንጾታ	-11.6315
▁እትብለ	-11.6317
-42	-11.6387
:6-9	-11.6409
ይሁዳ	-11.6419
ምስዓብ	-11.6421
ዔበር	-11.6434
ምዝገብ	-11.6446
ዘሌዋውያን	-11.6457
▁ምጥቃ	-11.6458
ወለዲ	-11.6464
▁መጽናዕትታ	-11.6466
▁ኬጋጥ	-11.6467
▁ሃብክዎ	-11.6489
5:11	-11.6496
ኣውጅ	-11.6501
ንደድ	-11.6508
▁እትህቦ	-11.652
ይበልዑ	-11.6536
ጸንሓ	-11.6544
ዛረበካ	-11.6556
▁እትኽእ	-11.6579
ትሰምዖ	-11.6585
▁ዘንበብ	-11.6593
ነስተብህል	-11.6596
▁ዝወለደ	-11.6602
▁ምግልጋ	-11.6604
▁የኽእለ	-11.6612
▁ኺዛረቦ	-11.662
▁ኣይመለሰ	-11.6623
ሰምዓካ	-11.6624
▁ክፍጽም	-11.6633
▁ኣይረኸብ	-11.6641
▁ዋህዮ	-11.6643
ለዓዓል	-11.6643
▁ሃልሃል	-11.6645
ነጻጸ	-11.6646
▁እንነብረ	-11.6646
ተኣማመነ	-11.6652
ה	-11.667
መሓይሾ	-11.667
ርሕርሓሎም	-11.667
▁Pennsylvania	-11.667
▁ሓሰኽሰኽ	-11.667
▁መልህቕ	-11.667
▁መመኽነይታ	-11.667
▁መቝሽሽ	-11.667
▁መናገፊ	-11.667
▁ማዓስያ	-11.667
▁ብልሹዋት	-11.667
▁ተኣማንነቱ	-11.667
▁ነቓጻት	-11.667
▁ናዝሬታ	-11.667
▁ንምሕዳስ	-11.667
▁ንምምዕባል	-11.667
▁ንገላዉኻ	-11.667
▁ንጣኦታት	-11.667
▁ኣንባቆም	-11.667
▁ኮምፒተር	-11.667
▁ዝሰማዕኩምዎ	-11.667
▁ዝቕርጹ	-11.667
▁ደቓይቕ	-11.667
▁ግብረመልሲ	-11.667
▁ጽቡቓት	-11.667
▁ፍልስፍና	-11.667
ብጕጅለ	-11.667
▁ሉዓላዊ	-11.667
▁ሽወደን	-11.667
▁ትእዛዙ	-11.667
▁ኣይትፍርህዎም	-11.667
▁ኪምሃሩ	-11.667
▁ቀለቤት	-11.667
▁ተቐዪሩ	-11.667
▁ኣዚዝዎም	-11.667
▁ተሰዲዶም	-11.667
▁ጥልመት	-11.667
▁ሱኮት	-11.667
▁ተመኩሮ	-11.667
▁ንጥዕና	-11.667
▁ኺህበኩም	-11.667
▁ቅትለት	-11.667
▁ብቐንዱ	-11.667
▁ኣእዛኖም	-11.667
▁ኮይኖም	-11.667
▁ዚወስዶ	-11.667
▁ጽማቝ	-11.667
▁መደቀሲ	-11.667
▁ሞገሱ	-11.667
▁ሰፊሮም	-11.667
▁ተመዲቡ	-11.667
▁ልሙዳት	-11.667
▁ሓዛኤል	-11.667
▁ብኽብረት	-11.667
ከታተሉ	-11.667
ፕላስቲክ	-11.667
▁ምኩራት	-11.667
▁ህርፋ	-11.667
▁ዝረኸብካዮ	-11.667
▁ክእለቱ	-11.667
▁ኣረገው	-11.667
▁ዝመሓልኩ	-11.667
▁ሸይጡ	-11.667
▁ኣርብዓ	-11.667
▁ጨቈን	-11.667
▁መኽደን	-11.667
▁እትፈልጥዎ	-11.667
▁ወግሐ	-11.667
▁ሓላዪ	-11.667
▁ንሓጐስ	-11.667
▁ንሓድነት	-11.667
ሕውነታዊ	-11.667
▁ምሕዳስ	-11.667
▁ንዝደኸ	-11.667
▁ጸኒዑ	-11.667
እሙናቱ	-11.667
▁መርምሩ	-11.667
▁ኣነጺሩ	-11.667
:9-12	-11.667
▁ቕንኣት	-11.667
ዕድጉ	-11.667
▁ኣዛዚ	-11.667
▁መጺጽ	-11.667
▁ውላድ	-11.667
ጠንቅቖ	-11.667
ጅምሩ	-11.6671
ውሕሉል	-11.6671
ጕዓዝ	-11.6671
▁ደሮና	-11.6671
▁ብምንዝርና	-11.6671
▁ለምጻማት	-11.6671
▁ሜትሮ	-11.6672
▁ፖፕ	-11.6672
▁ጥሪቶም	-11.6672
▁ዝባኑ	-11.6672
▁እተቐትለ	-11.6672
▁ኣንበርዎ	-11.6672
▁የደልድ	-11.6672
ሲሰራ	-11.6672
▁ሻውዓይ	-11.6673
▁ነስሓ	-11.6673
▁ዕስራ	-11.6673
▁ይግበሮ	-11.6673
▁ኣይረክብን	-11.6674
▁ኣንብቦ	-11.6674
ተሓብአ	-11.6674
▁ዚቐትል	-11.6675
▁ኣንቶን	-11.6675
ዋረዱ	-11.6675
▁እራብ	-11.6675
▁52:11	-11.6676
▁ዜሕስ	-11.6676
▁ዝጸዓር	-11.6676
▁ኼጥፍኦ	-11.6676
ቝጣዕ	-11.6677
▁ኸነፍቅሮ	-11.6681
▁ፍርድታቱ	-11.6682
▁ከጥፍኦ	-11.6683
▁ዝሓተቶ	-11.6684
▁ጠሓስ	-11.6685
ዓደጋ	-11.6686
▁ዝሃብኩ	-11.6689
ተበከለ	-11.6689
ተጸበየ	-11.6689
ጽላእ	-11.6693
በገሰ	-11.6695
በዝሓ	-11.6697
9:23	-11.6698
...	-11.6699
ገደብ	-11.6701
ውከሉ	-11.6701
▁ይኽሓ	-11.6704
ዘምት	-11.6706
እግሮም	-11.6716
▁10:1	-11.6757
ይሕልዉ	-11.6767
ወሲነ	-11.6768
▁ተዛሪብ	-11.6773
:11-15	-11.6792
▁ንሓርነ	-11.6804
ርእየን	-11.6833
ኽንረክብ	-11.6867
ዕርፍ	-11.6877
ጻረፍ	-11.6879
▁ድንኳ	-11.6885
ዚርከቡ	-11.6887
▁መኣዝ	-11.6892
▁ጸለኹ	-11.6923
ጀመረ	-11.6925
▁ኬናግፈ	-11.6929
ሓድገሎም	-11.6932
▁ኼምጽኣ	-11.6932
ኽንርድኦ	-11.6941
መለኮታዊ	-11.6957
ጽዩፍ	-11.6958
በላዓም	-11.6963
ምሕረት	-11.697
ፍቕሩ	-11.6971
▁ይተሓ	-11.6984
▁ንተጻረር	-11.6987
:13-16	-11.6999
ማልኦ	-11.7011
ደቅስ	-11.7022
ክብረት	-11.7046
ፍጽምዎ	-11.707
▁ነፍሰ	-11.708
▁ንጥፈታ	-11.7083
▁መለኸ	-11.7096
▁ኣይተቐበል	-11.7143
▁ተሰማሚ	-11.7156
▁ምብጻ	-11.7158
▁ንጥበበኛ	-11.717
S	-11.717
ብሽክለታ	-11.717
ተሓሳስቦ	-11.717
ድንግጸሎም	-11.717
▁መአከቢ	-11.717
▁ቈጥቋጥ	-11.717
▁ብማእከል	-11.717
▁ብምምልላስ	-11.717
▁ብምቕራብ	-11.717
▁ተርጓሚ	-11.717
▁ተፈላጥነት	-11.717
▁ቴትራግራ	-11.717
▁ንህዝቅያስ	-11.717
▁ኣሸጋሪ	-11.717
▁እተጸውዑ	-11.717
▁ኪጸልወና	-11.717
▁ዔቅሮን	-11.717
▁ዘብዴዎስ	-11.717
▁የተባብዓ	-11.717
▁የተዓርቆ	-11.717
መጻምድቶም	-11.717
▁ብራዚል	-11.717
▁ተገሪሞም	-11.717
▁እተሃንጸ	-11.717
▁ወልዓያ	-11.717
የዓሪም	-11.717
▁ምዀንኩ	-11.717
▁ናሆር	-11.717
▁የዕሩኽ	-11.717
▁ምርኣየይ	-11.717
▁ቆርበት	-11.717
▁ቍጠባ	-11.717
▁ንመምርሒ	-11.717
▁ውዕለት	-11.717
▁ስኢኑ	-11.717
▁ምስጢራዊ	-11.717
▁ዘይምዃን	-11.717
▁ይኸብደ	-11.717
ሔጽሮን	-11.717
▁ነፍሳት	-11.717
▁ዝሰምዖ	-11.717
▁ደሴት	-11.717
▁ድዉይ	-11.717
▁ባእታታት	-11.717
▁ደናግል	-11.717
▁ኣልዒሎም	-11.717
▁ብምምላስ	-11.717
▁ቕቡል	-11.717
▁ኪቐርበ	-11.717
▁ጸሎቶም	-11.717
▁ዘይግብኣ	-11.717
▁ዝተሓተ	-11.717
▁ግፍሑ	-11.717
ተወለድኩ	-11.717
▁ባይብል	-11.717
▁ኽንቀድ	-11.717
▁ሰይፍን	-11.717
▁ክንቀድ	-11.717
▁ሓሳባቶም	-11.717
▁ዓቕሙ	-11.717
ቃለሶ	-11.717
ቅመጥ	-11.717
ተናወጸ	-11.7171
▁ወለዳ	-11.7171
▁ፖስት	-11.7171
▁ኣንበበ	-11.7171
▁ኣሕምል	-11.7171
▁ኣዴታት	-11.7171
▁ኣፍርዩ	-11.7171
▁ዕስለ	-11.7171
▁ናኣሽቱ	-11.7171
ጥርዩ	-11.7171
▁ሓዲግና	-11.7171
▁ብምንባር	-11.7171
▁ዘሕጥ	-11.7171
▁ኪዳኑ	-11.7171
▁ዝሃባ	-11.7172
ጥቅዓ	-11.7172
ነምልኽ	-11.7173
▁ርሒቕ	-11.7173
ጽሕፎ	-11.7173
▁ኸቢብ	-11.7173
▁ንገረና	-11.7173
▁ንሰብኡት	-11.7174
▁ዝረገ	-11.7174
▁ተሓጸብ	-11.7174
ንዕቁ	-11.7174
▁ዚቕበሉ	-11.7174
▁ዚሓርያ	-11.7175
▁ምጽዓር	-11.7175
▁ዝመሰሎ	-11.7175
▁ዋዒ	-11.7176
ዕዘብ	-11.7177
▁ዝሓረዮ	-11.7177
▁ሃጸይ	-11.7177
▁ይንጸግ	-11.7177
ኣወጀ	-11.7178
ዕቅብ	-11.718
▁ዘመርት	-11.718
ሃወኽ	-11.7181
▁ቂስ	-11.7182
▁ቲምና	-11.7186
ጠቓለ	-11.7188
▁ዜስግ	-11.7191
▁ዓቕል	-11.7196
ይኰናን	-11.7196
ሰሓቕ	-11.7198
ውደስ	-11.7198
ኣከቡ	-11.7227
▁ይመርሖ	-11.7235
ትምህርታት	-11.7241
ነውሐ	-11.7251
ምድርባይ	-11.7258
ስምዒ	-11.7268
ይገበሩ	-11.7273
ምውሳኽ	-11.7283
ረኸቦም	-11.7305
ፍለጠ	-11.7314
ልኣኸ	-11.7319
▁ዚድገ	-11.7324
ይሰምዓና	-11.7331
ስእል	-11.7355
▁ቀጺል	-11.7365
▁ኼጋጥ	-11.7366
000	-11.7393
ብለሎም	-11.7423
▁ኼጋጥሞ	-11.7423
ኸምዚ	-11.7426
ይቕረታ	-11.7483
ቕቡኣት	-11.7484
ፍቕራዊ	-11.7484
ኣገልገልቲ	-11.749
▁ንመርኣ	-11.7492
ተንስኡ	-11.7497
ምለሶ	-11.7548
ረኸብካ	-11.7551
ተረፍ	-11.7555
▁20:4	-11.757
▁ኪውስ	-11.7572
▁ዜስሕ	-11.7573
ይሃብካ	-11.7599
:49	-11.762
▁ፍጡራ	-11.7622
ዕላማ	-11.7643
▁ብምፍራ	-11.7645
▁ምናልባ	-11.7655
እግረይ	-11.7668
ተሰምዐ	-11.7682
ሕተቶም	-11.7686
ዛዕባ	-11.7688
▁ኣስተብሂ	-11.7693
ተሓሒዙ	-11.7696
ተሓሳሰ	-11.7696
ንኰርኰር	-11.7696
ዥ	-11.7696
▁መፊቦሸት	-11.7696
▁ስክሪፕቸርስ	-11.7696
▁ቅልጡፍ	-11.7696
▁ባትሴባ	-11.7696
▁ብስርዓታት	-11.7696
▁ብተኣዛዝነት	-11.7696
▁ንመንግስትታት	-11.7696
▁ንራሄል	-11.7696
▁ኣሒቶፌል	-11.7696
▁ኣይነበራን	-11.7696
▁ከይጸናሕ	-11.7696
▁ወርቃዊ	-11.7696
ረጋግጸሉ	-11.7696
ተመሓላለፈ	-11.7696
▁ሓረስታይ	-11.7696
▁ተወጢሑ	-11.7696
▁ተዛሪቦም	-11.7696
▁ንርብቃ	-11.7696
▁ንጭንቀት	-11.7696
▁ውቕዓዮ	-11.7696
▁ይሓልየል	-11.7696
ህይወታ	-11.7696
ጭፍልቕ	-11.7696
▁ማህጸን	-11.7696
▁ተነጊሩ	-11.7696
▁ኤጳፍ	-11.7696
▁ዲኸደይ	-11.7696
ምብጃው	-11.7696
▁15:58	-11.7696
▁ሓልውዋ	-11.7696
▁መሳፍንቱ	-11.7696
▁ምሃረኒ	-11.7696
▁ኢታማር	-11.7696
▁ኣይተረፈን	-11.7696
▁ዝተንከዮ	-11.7696
ሲድራቅ	-11.7696
▁ልቕሶ	-11.7696
▁ንኣኽራን	-11.7696
▁ተሳገረ	-11.7696
▁ባርኖስ	-11.7696
ይእዘዙ	-11.7696
▁ቶማስ	-11.7696
▁ልበሱ	-11.7696
▁ዓንኬላ	-11.7696
▁ድንኳናቶም	-11.7696
▁ተሓጐሰ	-11.7696
▁ክነስና	-11.7696
▁ደርበይዎ	-11.7696
▁መኳንን	-11.7696
ሕጐሰሉ	-11.7696
▁ኤልያብ	-11.7696
▁ጭንቅን	-11.7696
▁ዝባደመ	-11.7696
▁ንስምዒታት	-11.7696
▁ኣይተቋርጽን	-11.7696
▁ጨድሩ	-11.7696
▁ኪሓስቡ	-11.7696
▁ዝሰደድ	-11.7696
▁ምገበርካ	-11.7696
▁ብመከራ	-11.7696
▁ሞባይል	-11.7696
▁ተወዲኡ	-11.7696
▁ጐደሎ	-11.7696
▁ኽህነት	-11.7696
▁ብድኻም	-11.7696
▁ጩራ	-11.7696
ጣበቕ	-11.7696
▁ክልቴ	-11.7696
▁ዘሕለፈ	-11.7696
▁ኣዕጫው	-11.7697
▁ዙረት	-11.7697
▁መልሰለይ	-11.7697
ተገዝሩ	-11.7697
▁ህሉው	-11.7697
▁ሕዱር	-11.7697
▁ክነሶም	-11.7697
ምህለል	-11.7697
▁ክህነት	-11.7697
እክቡ	-11.7697
ምምስካር	-11.7697
▁ጣዕሳ	-11.7697
▁ኬንብብ	-11.7697
▁ጸጥታ	-11.7697
▁ክሳዱ	-11.7697
▁ሓሞር	-11.7697
▁ነዲኡ	-11.7697
የብዕሉ	-11.7697
▁ዘይኰና	-11.7697
ተመባጽዐ	-11.7697
▁ኣስተውዕል	-11.7697
ሰጕጐ	-11.7697
▁ሃካይ	-11.7697
▁ጥዕይ	-11.7698
▁ብዝኸደ	-11.7698
▁ዓራቱ	-11.7698
ሚሳቅ	-11.7698
መሕትት	-11.7698
▁ኣቢሻይ	-11.7698
▁ምጽዋት	-11.7698
▁ኣስዓበ	-11.7698
▁ውልዶ	-11.7698
▁ዝገበርኩምዎ	-11.7699
▁ይዀና	-11.7699
ሸግረ	-11.7699
ምውዳቕ	-11.7699
▁ጳዳን	-11.7699
▁ዝሰደደ	-11.7699
ወግዒ	-11.7699
▁ሊብና	-11.77
▁ዚሳነ	-11.77
ተንከፈ	-11.77
▁እኽሎም	-11.7701
ምምስራት	-11.7701
ምቅላስ	-11.7701
▁ይዀኖ	-11.7702
ስቈር	-11.7702
▁ኣየድልዮምን	-11.7704
ኾንካ	-11.7705
ሃንጸሉ	-11.7706
▁ቘጸ	-11.7707
ተኻእለ	-11.7707
▁ዘከረ	-11.7707
ተቐደሱ	-11.7708
▁ቘራ	-11.7708
▁⁠2	-11.7716
የማኑ	-11.7717
ሰኣኑ	-11.7721
ስደድ	-11.7726
ስራሖም	-11.7727
ተኣስሩ	-11.773
ዜቡል	-11.7732
ምእመና	-11.7736
ሓልፎ	-11.7738
ነከየ	-11.7742
▁ድሕነ	-11.7759
ይእዘዝዎ	-11.7766
▁ዚሰምዓ	-11.7766
▁ንዜጋጥመ	-11.7771
▁ኬምጽኣ	-11.7795
ይፍትኑ	-11.7799
:23-25	-11.7811
:11-13	-11.7822
እመኖ	-11.7827
ጸንዐ	-11.7836
ሓጽብ	-11.7855
ጽበይዎ	-11.7877
ንጸባርቓ	-11.7897
ደለይዎ	-11.7925
▁መጓሰዪታታ	-11.7973
ኸፍተልና	-11.7979
ይመስለኩም	-11.798
ደለየ	-11.7993
መሰላ	-11.8
ኽትርድኦ	-11.8019
:10-13	-11.8019
ኽንእዘዝ	-11.8027
ጸላእትኻ	-11.8037
ጊልያይ	-11.8038
ግብጻውያን	-11.8039
ዘመናዊ	-11.8039
ኣስመራ	-11.8045
:7-10	-11.8071
ማስወሉ	-11.8078
▁9:2	-11.8091
8:11	-11.8119
▁1,2	-11.812
▁ኺርድኣ	-11.8124
ነድሩ	-11.8146
ዝዘርኦ	-11.8157
▁ውድባ	-11.8175
▁ሰማያ	-11.8189
▁ንመገድታ	-11.8201
▁ዅነታ	-11.8203
ነዘርላንድስ	-11.8237
መስኪሩ	-11.8238
ሓድገልና	-11.8241
ምስምማዕ	-11.8251
ንቀሳቐሱ	-11.8251
እስጢፋኖስ	-11.8251
ጰንጠቈስጠ	-11.8251
▁ህንጡይ	-11.8251
▁መከላኸሊ	-11.8251
▁መግደላዊት	-11.8251
▁ምውዕዋዕ	-11.8251
▁ብሮሹራት	-11.8251
▁ብተመክሮ	-11.8251
▁ተሞክሮ	-11.8251
▁ተዋጽኦታ	-11.8251
▁ንኣቢሜሌክ	-11.8251
▁ንኣብኔር	-11.8251
▁ንኣዋልድ	-11.8251
▁ንኤሳው	-11.8251
▁ንጸገማት	-11.8251
▁ኣሒቃም	-11.8251
▁ኣመሳሲልዎ	-11.8251
▁ኣተባቢዕዎ	-11.8251
▁ኣንቈልቊ	-11.8251
▁ኣይመጻእኩን	-11.8251
▁ኣይግብኣናን	-11.8251
▁ኣገዛዝኣ	-11.8251
▁ከምዝመስለኒ	-11.8251
▁ከቕርቡ	-11.8251
▁ከዋኽብትን	-11.8251
▁ኽንሰምዖ	-11.8251
▁ዕድሜኻ	-11.8251
▁ዜቕርቡ	-11.8251
▁ዝራብዓት	-11.8251
▁ዝሰማዕክዎ	-11.8251
▁ዝንውሓታ	-11.8251
▁የቐንየለይ	-11.8251
▁የጋጥሞም	-11.8251
▁ይጭድሩ	-11.8251
▁ገርህታት	-11.8251
▁ፊሊፒንስ	-11.8251
ደብዳቤ	-11.8251
ጴዖር	-11.8251
▁ምንጭታት	-11.8251
▁ተማሂሮም	-11.8251
▁ተማህለሉ	-11.8251
▁ኣእጋረይ	-11.8251
▁እንቋቝሖ	-11.8251
▁ዘምጽአ	-11.8251
ቃወምዎ	-11.8251
ዘናጋዕ	-11.8251
ጥንቀቑ	-11.8251
▁ተለዓዒ	-11.8251
▁ኣጻምእ	-11.8251
▁ተቐሚጠ	-11.8251
▁ንመሸጣ	-11.8251
▁ዝዓቐኑ	-11.8251
▁ፍቱወይ	-11.8251
▁ምህለላ	-11.8251
▁ብበገና	-11.8252
▁ተሰቒሉ	-11.8252
▁ብምኽባር	-11.8252
▁ዝኣመኑ	-11.8252
▁ተንስኢ	-11.8252
▁ኺብሃለ	-11.8252
▁ስቡሓት	-11.8252
▁ተነስሑ	-11.8252
▁ራህዋ	-11.8252
▁ዝምብዛ	-11.8252
▁ዝፈጸመ	-11.8252
▁ንምቕራብ	-11.8252
▁ዘዳለዋ	-11.8252
▁ግትኣት	-11.8252
▁ዝተረፋ	-11.8252
▁ትምህርትታቱ	-11.8252
▁ክፉኣት	-11.8252
▁ገፊሕ	-11.8252
▁ሓተትክዎ	-11.8252
▁ቲርጻ	-11.8252
ጠንቅቕ	-11.8252
▁ማኖኣ	-11.8252
▁እዋናዊ	-11.8252
▁ዚንዕቕ	-11.8252
▁ዝሓደጉ	-11.8252
▁ሕታማት	-11.8252
:18-20	-11.8252
▁ሑሻይ	-11.8252
▁ይወሃበ	-11.8252
▁ዓሌቶም	-11.8252
▁ቀዋሚ	-11.8252
▁ኼጥፍኣ	-11.8252
▁Jehovah	-11.8252
▁ነድርን	-11.8252
▁ኺዳነይ	-11.8252
▁ኣጥባት	-11.8252
:17-20	-11.8252
▁ኣቓሑ	-11.8252
▁ብከመይ	-11.8252
▁ንመበለት	-11.8252
▁ዝከኣል	-11.8252
▁ተጊህ	-11.8252
▁ንግስነት	-11.8252
▁ምንጽጻ	-11.8252
▁ወጺአ	-11.8252
ጣበቐ	-11.8252
▁መልሓስ	-11.8252
ተሸገሩ	-11.8252
▁ንስምዒት	-11.8252
▁ኸናፍር	-11.8252
ሰልጥንዎም	-11.8252
እውጁ	-11.8252
▁ዓላዊት	-11.8252
ኣጸዳት	-11.8252
ተዛረባ	-11.8252
▁ሃሩር	-11.8252
▁ብሕማም	-11.8252
▁ሰዲድ	-11.8252
▁ዘድለየ	-11.8252
▁ሞንጎ	-11.8252
▁ወሲኑ	-11.8252
▁ብመንጎ	-11.8253
▁ንኣሓትና	-11.8253
▁ክትቅበሎ	-11.8253
▁ንተስፋ	-11.8253
▁የንብብ	-11.8253
▁ሃነጸ	-11.8253
▁ፈሪሆም	-11.8253
▁መምሬ	-11.8253
▁ዕማም	-11.8254
▁ኣይኣተ	-11.8254
▁ኣይጠቅምን	-11.8254
▁ንቤቱ	-11.8254
▁ንኣንስት	-11.8254
ቐድሖ	-11.8254
ኣምዑት	-11.8254
ቝርጽ	-11.8254
ዕቅቦ	-11.8254
ኽንቀርብ	-11.8255
▁ኪቐትለ	-11.8255
▁ንኢድ	-11.8255
ሰሓቡ	-11.8255
ጋጠማ	-11.8255
▁ዖግ	-11.8256
ፈድየ	-11.8256
ልዙብ	-11.8256
ተኣታተ	-11.8258
ምዕዳል	-11.8258
ጠመየ	-11.8262
ላግጽ	-11.8266
▁ዜጥፍኦ	-11.8268
ውደቕ	-11.8275
ዓጽሚ	-11.8279
ሓግዝ	-11.8279
ቕይሩ	-11.828
▁ኣደየብ	-11.8284
ወግኦ	-11.8291
▁ኣማልኽት	-11.8294
ኽትገብር	-11.8297
እዋኑ	-11.8298
▁ተሰምዖ	-11.8304
▁ንጉሰ	-11.8323
ቘሪጹ	-11.8358
ፈጸምዎ	-11.8368
ማሕበሩ	-11.8375
ምድብ	-11.839
▁ኪፍጽም	-11.8433
:3-8	-11.8445
▁ብዅለን	-11.8455
ተቓወ	-11.8461
ገብረልኩም	-11.8474
ዝህሉ	-11.8479
ጥርጥ	-11.8515
ረጋግጹ	-11.8557
ምፍጻም	-11.8564
ዓማሳ	-11.8571
ድሕሪ	-11.8579
▁ዝረኸብና	-11.8583
ላግቦ	-11.8599
ኬቋርጽ	-11.8601
ጸላእተይ	-11.8626
ጼዴቅያስ	-11.8626
ቃየል	-11.8627
ንእሽቶ	-11.8628
ተሓበረ	-11.8648
▁ሰምዖ	-11.8649
▁ኣይሰምዖ	-11.8651
መሬት	-11.8669
▁ዚበሃ	-11.8677
▁እተኣዘዝ	-11.8688
▁ዘፍቀደ	-11.8742
ብጽሓ	-11.876
▁ምልክታ	-11.8777
ቐጻሊ	-11.8794
ኬምልጥ	-11.881
ጽበያ	-11.8817
▁ስደተኛ	-11.8822
▁ኣየድልዮ	-11.8835
;	-11.884
ተኣማመኑ	-11.884
ዜስካሕክሕ	-11.884
ዜተሓታትት	-11.884
ጠንቅቐና	-11.884
▁24:45-47	-11.884
▁ልዙባት	-11.884
▁መልከጼዴቅ	-11.884
▁መሰኻኽሩ	-11.884
▁መኸወሊ	-11.884
▁ምልውዋጥ	-11.884
▁ርሕሩሓት	-11.884
▁ስልጣናት	-11.884
▁ቐቅድሚ	-11.884
▁ቐነዲል	-11.884
▁ብዛዕብኡ	-11.884
▁ተሌፎን	-11.884
▁ታሕጓስ	-11.884
▁ኒከራግዋ	-11.884
▁ንመዘከርታ	-11.884
▁ንትእዛዛት	-11.884
▁ንኣእጋረይ	-11.884
▁ኣርእስትታት	-11.884
▁ኣቝሻት	-11.884
▁ኣጥፊኡ	-11.884
▁እናሰበኸ	-11.884
▁ኺርስተይዋ	-11.884
▁ኺሰምዖ	-11.884
▁ዎርልድ	-11.884
▁ዜገልግላ	-11.884
▁ዜጨንቐ	-11.884
▁ያኢሮስ	-11.884
▁ይቐርጸ	-11.884
▁ጭዋዳታት	-11.884
▁ጸቕጥታት	-11.884
▁ጽልግልግ	-11.884
ተሰማምዐ	-11.884
ኣሚናዳብ	-11.884
ጽድቀይ	-11.884
▁ሕያዎት	-11.884
▁ረኣኽዎ	-11.884
▁ተቘጢዕ	-11.884
▁ኣስቆሮታ	-11.884
p	-11.884
▁ምርኡያት	-11.884
▁ምፍልላይ	-11.884
▁ብምግባሩ	-11.884
▁ምሕጽንታ	-11.884
▁ብምቕባል	-11.884
▁ተቐቢልኩምዎ	-11.884
▁ኣይረኸበ	-11.884
▁ኣድሓኖም	-11.884
▁ጎሮሮ	-11.884
▁ጨቋኒ	-11.884
▁ምግባሮም	-11.884
▁እህበኩም	-11.884
▁ሸቃሎ	-11.884
▁ዊልያም	-11.884
▁ነገስታቶም	-11.884
▁ብጭንቀት	-11.884
▁ዘናገፈ	-11.884
▁ንምዕያይ	-11.884
▁ዚሃርፉ	-11.884
▁ዝበዝሖ	-11.884
▁ተቐባሊ	-11.884
▁ሓጊዞም	-11.884
▁ዝግባእ	-11.884
▁ጉምቦ	-11.884
ይሃልወና	-11.884
▁ቓንዛ	-11.884
▁እተኸፋፈለት	-11.884
▁ያፌት	-11.884
▁ደሞዝ	-11.884
▁ቅዒላ	-11.884
▁ከቢቦም	-11.884
▁እተሰውአ	-11.884
ሰብከሎም	-11.884
ተደርበዩ	-11.884
▁እተመባጽዓ	-11.884
▁ተለፎን	-11.884
▁ኽኢልና	-11.884
ዕቝቦም	-11.884
▁ሓገዙ	-11.884
▁እተዘርአ	-11.884
ከናኸኖ	-11.884
▁ለዊጡ	-11.884
▁ኣይሓድገ	-11.884
▁ፈሊጥኩም	-11.884
▁ፈጸመ	-11.884
▁ስእነት	-11.884
▁ትጉህ	-11.884
▁ንኣካላት	-11.884
▁ይወስዶ	-11.884
▁ብትሕቲ	-11.884
▁ፈቐዶ	-11.884
መሓይሹ	-11.884
▁ዲጂታ	-11.884
ምርዓዋ	-11.884
▁ኣይበላዕ	-11.884
▁ንምስታፍ	-11.884
▁መናድቕ	-11.884
▁ጸኒሐ	-11.884
▁ንስምኦን	-11.884
▁ዚወርዱ	-11.884
▁ነዲዱ	-11.884
▁ይኸብዶ	-11.884
▁ሓዲግኩም	-11.884
ጨኒቑ	-11.884
▁ጥቐስ	-11.884
▁ምዉቕ	-11.884
▁ሓሲቦም	-11.884
ስጐጉ	-11.884
▁ምስለኔ	-11.884
ኽፍጽም	-11.884
▁መዓልትታተይ	-11.884
▁ጸውዕዎ	-11.884
▁ኣይኪርእያን	-11.884
▁ኪካፈሉ	-11.884
▁በዲለ	-11.884
▁ኽዝምረ	-11.8841
▁ዝባኖም	-11.8841
ተዋግአ	-11.8841
ወቕዕዎ	-11.8841
በቕዑ	-11.8841
▁ኪሓትቱ	-11.8841
ህወኽ	-11.8841
▁በዲሉ	-11.8841
▁ዝኸበዶ	-11.8841
▁ይሓትቱ	-11.8841
ሻቦጥ	-11.8841
ጥቀመሎም	-11.8841
ዝጐሃየ	-11.8841
▁ብሰንኩ	-11.8841
▁ሪሞን	-11.8842
ምውራድ	-11.8842
▁ልዳት	-11.8842
▁ፍቐደ	-11.8842
▁ንውድብ	-11.8842
ተቘጥዑ	-11.8842
▁ዝነገረ	-11.8842
▁ጸቢብ	-11.8842
▁ሓመመ	-11.8842
▁ተባሪ	-11.8842
ነብያቱ	-11.8843
:4-7	-11.8843
ትወልዶ	-11.8843
ነጽሁ	-11.8843
መዋቕር	-11.8844
ኣኽናፉ	-11.8845
ምልዋጥ	-11.8845
ምውላድ	-11.8847
▁ዝለኣኽካ	-11.8847
▁ክለሳ	-11.8848
ዓግተ	-11.8848
እሰሩ	-11.8849
ተፈትሐ	-11.8849
ሰተየን	-11.8851
ንቕጽና	-11.8853
▁ብምእባ	-11.8853
ወሓጠ	-11.8854
ኽንቅበሎ	-11.8856
ጥዕሞ	-11.8856
ትወስዶ	-11.8856
ተመርዓወት	-11.8858
ዓግቶ	-11.8867
ጸዓሩ	-11.8868
ትሕልዉ	-11.887
ስምባድ	-11.8874
-43	-11.8879
ተቐበልኩምዎ	-11.8879
▁ዘየድልዮ	-11.8881
▁ዚመጾ	-11.8884
መኽረ	-11.8889
ህድኦ	-11.8893
▁19:2	-11.8914
ፈቐደሎም	-11.897
ምስሓብ	-11.9021
9:13	-11.9057
ደበናታት	-11.9072
▁ንባህር	-11.9089
▁ብምዝራ	-11.9111
ሰዓሮ	-11.9117
የዳሉ	-11.9154
ምፍራድ	-11.9155
ፍቀደሉ	-11.917
▁ዘረጋግ	-11.9178
ርእሰይ	-11.919
ደሓኑ	-11.9197
▁9:3	-11.9216
▁ኣይፍቀደ	-11.9226
ተፈጸመ	-11.923
ሓጢኣቶም	-11.9252
ዝተረፈ	-11.9253
መሰውኢ	-11.9253
ወከፍ	-11.9255
-41	-11.9275
▁ኣልዒል	-11.9286
ጸዊዑ	-11.9289
▁ይርድኣ	-11.9297
▁ተመላሊ	-11.9305
መላእ	-11.9306
ገብረላ	-11.9352
ሓቀኛነት	-11.9371
▁እነመስግ	-11.9398
▁ምፍጻ	-11.9402
ብዝሑ	-11.9402
▁ዘድልዮ	-11.9403
▁ንህዝብ	-11.9422
▁ፈራህ	-11.9428
ፈጸሞ	-11.9435
ጽኣልኩም	-11.9445
ተጠቕሰ	-11.9447
ደርበየ	-11.9453
▁ኬድሕኖ	-11.9457
ova	-11.9465
ו	-11.9465
ለዋወጥ	-11.9465
መሓላለፎ	-11.9465
ምክትታል	-11.9465
ራብሳቀ	-11.9465
ተባቢዖም	-11.9465
▁ሊትወይንያ	-11.9465
▁መናፈሻ	-11.9465
▁መዐቀኒ	-11.9465
▁መደያይቦ	-11.9465
▁መድመይቲ	-11.9465
▁ምህላዋ	-11.9465
▁ርትዓዊ	-11.9465
▁ሰጒጎም	-11.9465
▁ባሕረኛታት	-11.9465
▁ብምትብባዕ	-11.9465
▁ተማሂርካ	-11.9465
▁ንቕድስና	-11.9465
▁ንበርናባስ	-11.9465
▁ንኣልኣዛር	-11.9465
▁ንኣወዳት	-11.9465
▁ኣመጋግባ	-11.9465
▁ኣይትተንክዩ	-11.9465
▁ኣጠንቂቕዎ	-11.9465
▁ኤሊሻማዕ	-11.9465
▁እምብኣር	-11.9465
▁ኪንግደም	-11.9465
▁ካቶሊክ	-11.9465
▁ኬፍቅሩ	-11.9465
▁ኲበክ	-11.9465
▁ውህበታት	-11.9465
▁ዓሮዔር	-11.9465
▁ዘተስፎኻዮ	-11.9465
▁ዚሓልየል	-11.9465
▁ዜጸናንዓ	-11.9465
▁ዲሞክራ	-11.9465
▁ዲፕሎማ	-11.9465
▁ፋብሪካ	-11.9465
ተሓባባሪ	-11.9465
▁ህዋሳት	-11.9465
▁ሕርቃን	-11.9465
▁ቕዱሳን	-11.9465
▁በርትዑ	-11.9465
▁ብምምርማር	-11.9465
▁ተታሕዘ	-11.9465
▁ኣኻይዳ	-11.9465
▁ውድድር	-11.9465
▁ዑዚኤል	-11.9465
▁ዘይንጹህ	-11.9465
▁ድኽመታት	-11.9465
▁ፋሬስ	-11.9465
▁ፍቓደይ	-11.9465
ቀያየር	-11.9465
▁ሄርሞን	-11.9465
▁ማዕጺድ	-11.9465
▁በጻሕኩ	-11.9465
▁ተመሃራይ	-11.9465
▁ተማሂረ	-11.9465
▁ኣሒሜሌክ	-11.9465
▁ኣማሌቅ	-11.9465
▁ኣእተውዎ	-11.9465
▁ኣይክሓድገ	-11.9465
▁ዝግብኣና	-11.9465
▁ሼፈላ	-11.9465
▁ባሬቶ	-11.9465
▁እተጐድአ	-11.9465
▁ዓናቶት	-11.9465
▁ፍትወተ	-11.9465
ይተለወጠ	-11.9465
▁መለበሚ	-11.9465
▁ዝወሰድዎ	-11.9465
▁ይመንቈ	-11.9465
▁መጥሓን	-11.9465
▁ምክንኻን	-11.9465
▁ተሓባቢ	-11.9465
▁ተቐላጢ	-11.9465
▁ዘይኰንና	-11.9465
▁ንኣሕሉቕ	-11.9465
▁ንውርምና	-11.9465
▁ኣርሕቆ	-11.9465
▁ኣጕልሐ	-11.9465
▁ዕድላት	-11.9465
▁ሓርማዝ	-11.9465
▁ብምጥማት	-11.9465
▁ከይጠፍእሲ	-11.9465
▁ዝደየቡ	-11.9465
▁ስላሴ	-11.9465
▁ታሓሽ	-11.9465
▁እተሰርዐ	-11.9465
▁እናገበሩ	-11.9465
ማጐተሉ	-11.9465
▁86:5	-11.9465
▁መጥፍኢ	-11.9465
▁ኣይትሕደገ	-11.9465
▁ኣቕልቡ	-11.9465
ድርብዩ	-11.9465
▁መሊእዎ	-11.9465
▁ቈይሙ	-11.9465
▁ለብጦ	-11.9465
▁የዱቱን	-11.9465
▁ጽቡቅ	-11.9465
▁ጽዕነት	-11.9465
▁ፈጺመ	-11.9465
▁ኣማኻሪ	-11.9465
ከናኸና	-11.9465
▁ተጣዒ	-11.9465
ጽልየሎም	-11.9465
▁ምፍራይ	-11.9465
▁ጽዑቕ	-11.9465
ስልጣኖም	-11.9465
▁ዓቕሞም	-11.9465
▁ኣልገሰ	-11.9465
▁ዘቕረብ	-11.9465
▁ህላወ	-11.9465
▁ቆጸራ	-11.9465
▁ብምስጋና	-11.9465
▁ኤላህ	-11.9465
▁ፍቕሮም	-11.9465
▁ፕሮግራም	-11.9465
▁ቀናኣት	-11.9465
▁ዓታልያ	-11.9465
▁ብኣጻብ	-11.9465
▁ክንቅበል	-11.9465
▁ዕልቦ	-11.9465
▁ዝሓተተ	-11.9465
▁ንመቕደ	-11.9465
▁ንኣቦታትካ	-11.9465
▁ዚዝረበ	-11.9465
▁ዕጉስ	-11.9465
▁ኣሚንና	-11.9465
▁ዚጽልዩ	-11.9465
▁ደያኑ	-11.9465
ሰግደሉ	-11.9465
▁ርኸብ	-11.9465
▁እተሰቕለ	-11.9465
▁ንዚግብኦ	-11.9465
ደለኻዮ	-11.9465
ምህለሉ	-11.9465
▁ብኽልቲ	-11.9465
▁ኣስያፍ	-11.9465
▁ነጺግ	-11.9466
ምብርከ	-11.9466
▁ኣፍሲሱ	-11.9466
ቐድሑ	-11.9466
▁ዚመስሎም	-11.9466
▁ምሒሉ	-11.9466
▁የፉነ	-11.9466
▁ሸይሙ	-11.9466
▁ኣይፈለጡን	-11.9466
ይገብረኒ	-11.9466
▁ኣንስቱ	-11.9466
▁ዚመርሓካ	-11.9466
▁ንባርያ	-11.9467
ኽደኑ	-11.9467
▁ትግረ	-11.9467
▁ለበዋ	-11.9467
▁ኣገልግልዎ	-11.9467
▁ዝሰዓብ	-11.9468
ምቕጻል	-11.9469
ነጸጎ	-11.9469
ዓጽዱ	-11.947
▁መኽፈ	-11.947
▁ክሪኤ	-11.947
▁ወሊደ	-11.9471
ቐጽዖ	-11.9471
▁ቐተልዎ	-11.9471
ሰፈሮም	-11.9472
ይትንከፍ	-11.9472
ጽሓፉ	-11.9473
▁መማሰ	-11.9476
ወሓጥ	-11.9478
ሃገራ	-11.948
ተጸበዩ	-11.9481
▁20:1	-11.9482
ንቀቐሉ	-11.949
ቄድሮሳት	-11.9494
ተረፎ	-11.9496
መለለይ	-11.9527
ኣቶኹም	-11.9529
ክሽነ	-11.9538
ዘነመ	-11.9541
ዝክረ	-11.9554
ተጸበዮ	-11.9579
ብጀዎ	-11.9591
ሐጕሰና	-11.9594
▁16:2	-11.9614
ብቅዓ	-11.9638
ተዛረብክዎ	-11.9697
9:4	-11.9706
▁ኪሰምዖ	-11.9726
86	-11.9729
▁ተኸፍተ	-11.9782
▁16:3	-11.9788
ኻልኦት	-11.9858
ተሓዋወ	-11.989
ብጽሑ	-11.9896
▁ምፍቃ	-11.9913
ተዛረበን	-11.9919
ኣማልኽቲ	-11.992
ጽሑፋት	-11.992
መወዳእታ	-11.992
ሕሙማት	-11.992
ቐረባ	-11.9921
ጥበቡ	-11.9922
መዓጹ	-11.9932
ገዛኢ	-11.994
መላለሰሉ	-11.994
▁ዝገበርክ	-12.0003
▁ሓጊዝ	-12.0053
▁ቄድሮ	-12.0056
▁ኣቦሓጎ	-12.0063
▁ትእምርት	-12.0084
ተቕርቡ	-12.0096
ዘኻኽሮ	-12.0104
ቐተለ	-12.0112
▁23:2	-12.0122
▁ንምሕጋ	-12.0124
▁Jehova	-12.0131
m	-12.0131
T	-12.0131
መጻምድትና	-12.0131
ኣርፋክሳድ	-12.0131
ጄ	-12.0131
▁Iehova	-12.0131
▁መዕቈብየይ	-12.0131
▁ሞኣባዊት	-12.0131
▁ሲዶናውያን	-12.0131
▁ብጃልባ	-12.0131
▁ተባዝሑን	-12.0131
▁ንመላእኽቱ	-12.0131
▁ንምምልላስ	-12.0131
▁ንኣገዳስነት	-12.0131
▁ንኤፍሬም	-12.0131
▁ኤልያሺብ	-12.0131
▁እተኸድኑ	-12.0131
▁እናበርትዐ	-12.0131
▁እንድርያስ	-12.0131
▁ዝበርትዐ	-12.0131
▁ይምልሰልና	-12.0131
▁ጆርጅ	-12.0131
▁ገንዘቦም	-12.0131
▁ጉጂለ	-12.0131
▁ጸዊዕካ	-12.0131
▁ፍንፉናት	-12.0131
ምልዕዓል	-12.0131
ከላኸል	-12.0131
▁ለዋሃት	-12.0131
▁ሒዋውያን	-12.0131
▁ምራኹት	-12.0131
▁ስተፋኒ	-12.0131
▁ቢታንያ	-12.0131
▁ንምዕቛብ	-12.0131
▁ኣተዓራር	-12.0131
▁ዝባረኾ	-12.0131
▁ይቀደስ	-12.0131
▁ጀሚርና	-12.0131
ማቱሳላ	-12.0131
▁ብበረኸት	-12.0131
▁ተማሂሩ	-12.0131
▁ንእተዓርደ	-12.0131
▁ኣደልዲል	-12.0131
▁ዘየፍቅደ	-12.0131
ትርጕሙ	-12.0131
▁ልምምድ	-12.0131
▁ምግላጹ	-12.0131
▁በርቲዑ	-12.0131
▁ነህዛብ	-12.0131
▁ኣሽዶድ	-12.0131
▁ኣዕኑዱ	-12.0131
▁ብፍታዉ	-12.0131
▁ንምዕዳግ	-12.0131
▁ኣይትሸበር	-12.0131
▁እተወደቡ	-12.0131
▁ጌርሾን	-12.0131
▁ዘተባብዕ	-12.0131
▁ተነጊርዎ	-12.0131
▁ጎሼን	-12.0131
▁ጨርሐ	-12.0131
ተሓባበሩ	-12.0131
▁ምትንሳእ	-12.0131
▁ተዳልየ	-12.0131
▁ግጭታት	-12.0131
>	-12.0846
ቮ	-12.0846
G	-12.0846
y	-12.1293
]	-12.1403
א	-12.1615
ב	-12.1615
ג	-12.1615
ז	-12.1615
ח	-12.1615
ט	-12.1615
כ	-12.1615
ל	-12.1615
ע	-12.1615
פ	-12.1615
ר	-12.1615
ש	-12.1615
ת	-12.1615
ቬ	-12.1615
ቔ	-12.2448
ד	-12.2448
מ	-12.2448
נ	-12.2448
ס	-12.2448
צ	-12.2448
ק	-12.2448
ቹ	-12.2448
+	-12.3357
ኝ	-12.3357
[	-12.4146
H	-12.5468
U	-12.5468
D	-12.5468
ዦ	-12.5468
&	-12.5468
F	-12.5468
K	-12.6718
◆	-12.6718
f	-12.8147
P	-12.8147
|	-12.8147
ዠ	-12.8147
“	-12.9603
ጮ	-12.9808
O	-12.9814
°	-12.9814
ቾ	-12.9814
”	-13.1603
L	-13.1814
}	-13.1814
x	-13.1814
é	-13.4314
ሥ	-13.4314
ቜ	-13.4314
ዬ	-13.4314
M	-13.4314
#	-13.7647
®	-13.7647
ˈ	-13.7647
ኘ	-13.7647
ዣ	-13.7647
🙂	-13.7647
@	-14.2647
ኃ	-14.2647
V	-14.2647
X	-14.2647
̊	-14.2647
ሏ	-14.2647
ቩ	-14.2647
ኞ	-14.2647
👌	-14.2647
ا	-14.2647
ะ	-14.2647
ጔ	-15.2626
ዢ	-15.2627
Q	-15.2628
ô	-15.2629
á	-15.263
ቌ	-15.2631
{	-15.2632
*	-15.2633
q	-15.2634
R	-15.2635
י	-15.2636
C	-15.2637
ሟ	-15.2638
¶	-15.2639
ፔ	-15.264
ኴ	-15.2641
$	-15.2642
ዄ	-15.2643
፦	-15.2644
፧	-15.2645
፣	-15.2646
î	-15.2647
=	-15.2647
ó	-15.2647
ĕ	-15.2647
ō	-15.2647
Α	-15.2647
ί	-15.2647
α	-15.2647
θ	-15.2647
ι	-15.2647
ο	-15.2647
π	-15.2647
ة	-15.2647
خ	-15.2647
ص	-15.2647
ل	-15.2647
ي	-15.2647
ย	-15.2647
ร	-15.2647
ว	-15.2647
ฮ	-15.2647
า	-15.2647
โ	-15.2647
ພ	-15.2647
ຢ	-15.2647
ວ	-15.2647
ຫ	-15.2647
ະ	-15.2647
າ	-15.2647
ເ	-15.2647
ໂ	-15.2647
ሣ	-15.2647
ኯ	-15.2647
ዡ	-15.2647
ዤ	-15.2647
ጟ	-15.2647
ṓ	-15.2647
ἰ	-15.2647
„	-15.2647
❤	-15.2647
여	-15.2647
와	-15.2647
호	-15.2647
🍽	-15.2647
🎉	-15.2647
👋	-15.2647
👍	-15.2647
💔	-15.2647
💪	-15.2647
🤝	-15.2647
<	-15.2647
Z	-15.2647
ě	-15.2647
ኅ	-15.2647
ዯ	-15.2647
พ	-15.2647
።	-15.2647
